{"<s>":0,"<pad>":1,"</s>":2,"<unk>":3,"<mask>":4,"!":5,"\"":6,"#":7,"$":8,"%":9,"&":10,"'":11,"(":12,")":13,"*":14,"+":15,",":16,"-":17,".":18,"/":19,"0":20,"1":21,"2":22,"3":23,"4":24,"5":25,"6":26,"7":27,"8":28,"9":29,":":30,";":31,"<":32,"=":33,">":34,"?":35,"@":36,"A":37,"B":38,"C":39,"D":40,"E":41,"F":42,"G":43,"H":44,"I":45,"J":46,"K":47,"L":48,"M":49,"N":50,"O":51,"P":52,"Q":53,"R":54,"S":55,"T":56,"U":57,"V":58,"W":59,"X":60,"Y":61,"Z":62,"[":63,"\\":64,"]":65,"^":66,"_":67,"`":68,"a":69,"b":70,"c":71,"d":72,"e":73,"f":74,"g":75,"h":76,"i":77,"j":78,"k":79,"l":80,"m":81,"n":82,"o":83,"p":84,"q":85,"r":86,"s":87,"t":88,"u":89,"v":90,"w":91,"x":92,"y":93,"z":94,"{":95,"|":96,"}":97,"~":98,"¡":99,"¢":100,"£":101,"¤":102,"¥":103,"¦":104,"§":105,"¨":106,"©":107,"ª":108,"«":109,"¬":110,"®":111,"¯":112,"°":113,"±":114,"²":115,"³":116,"´":117,"µ":118,"¶":119,"·":120,"¸":121,"¹":122,"º":123,"»":124,"¼":125,"½":126,"¾":127,"¿":128,"À":129,"Á":130,"Â":131,"Ã":132,"Ä":133,"Å":134,"Æ":135,"Ç":136,"È":137,"É":138,"Ê":139,"Ë":140,"Ì":141,"Í":142,"Î":143,"Ï":144,"Ð":145,"Ñ":146,"Ò":147,"Ó":148,"Ô":149,"Õ":150,"Ö":151,"×":152,"Ø":153,"Ù":154,"Ú":155,"Û":156,"Ü":157,"Ý":158,"Þ":159,"ß":160,"à":161,"á":162,"â":163,"ã":164,"ä":165,"å":166,"æ":167,"ç":168,"è":169,"é":170,"ê":171,"ë":172,"ì":173,"í":174,"î":175,"ï":176,"ð":177,"ñ":178,"ò":179,"ó":180,"ô":181,"õ":182,"ö":183,"÷":184,"ø":185,"ù":186,"ú":187,"û":188,"ü":189,"ý":190,"þ":191,"ÿ":192,"Ā":193,"ā":194,"Ă":195,"ă":196,"Ą":197,"ą":198,"Ć":199,"ć":200,"Ĉ":201,"ĉ":202,"Ċ":203,"ċ":204,"Č":205,"č":206,"Ď":207,"ď":208,"Đ":209,"đ":210,"Ē":211,"ē":212,"Ĕ":213,"ĕ":214,"Ė":215,"ė":216,"Ę":217,"ę":218,"Ě":219,"ě":220,"Ĝ":221,"ĝ":222,"Ğ":223,"ğ":224,"Ġ":225,"ġ":226,"Ģ":227,"ģ":228,"Ĥ":229,"ĥ":230,"Ħ":231,"ħ":232,"Ĩ":233,"ĩ":234,"Ī":235,"ī":236,"Ĭ":237,"ĭ":238,"Į":239,"į":240,"İ":241,"ı":242,"Ĳ":243,"ĳ":244,"Ĵ":245,"ĵ":246,"Ķ":247,"ķ":248,"ĸ":249,"Ĺ":250,"ĺ":251,"Ļ":252,"ļ":253,"Ľ":254,"ľ":255,"Ŀ":256,"ŀ":257,"Ł":258,"ł":259,"Ń":260,"Ġt":261,"he":262,"čĊ":263,"Ġa":264,"in":265,"Ġthe":266,"Ġw":267,"Ġs":268,"Ġo":269,"re":270,"nd":271,"ha":272,"er":273,"ou":274,"Ġb":275,"it":276,"is":277,"ed":278,"Ġm":279,"on":280,"en":281,"Ġof":282,"Ġf":283,"Ġc":284,"Ġto":285,"Ġand":286,"ing":287,"or":288,"es":289,"ĠĠ":290,"ll":291,"Ġd":292,"ar":293,"an":294,"as":295,"Ġp":296,"Ġin":297,"Ġh":298,"at":299,"Ġl":300,"Ġhe":301,"Ġn":302,"Ġha":303,"om":304,"hat":305,"ĠI":306,"le":307,"Ġbe":308,"ot":309,"Ġg":310,"ic":311,"ow":312,"ut":313,"ve":314,"st":315,"se":316,"ld":317,"ly":318,"im":319,"id":320,"Ġe":321,"Ġthat":322,"Ġy":323,"Ġth":324,"gh":325,"ent":326,"Ġwas":327,"ce":328,"ion":329,"Ġit":330,"al":331,"Ġon":332,"et":333,"ay":334,"ith":335,"ver":336,"Ġyou":337,"ir":338,"Ġre":339,"ĠĠĠĠ":340,"Ġu":341,"Ġwh":342,"Ġas":343,"Ġhis":344,"ur":345,"Ġfor":346,"ad":347,"Ġwith":348,"ĠT":349,"Ġwe":350,"ro":351,"ght":352,"her":353,"ac":354,"Ġst":355,"Ġis":356,"ri":357,"Ġhad":358,"Ġnot":359,"Ġan":360,"ould":361,"am":362,"ter":363,"oo":364,"--":365,"Ġat":366,"and":367,"ill":368,"if":369,"ke":370,"Ġher":371,"ĠM":372,"ain":373,"ec":374,"ĠA":375,"ĠS":376,"ch":377,"'s":378,"Ġhim":379,"ĠH":380,"Ġme":381,"red":382,"ess":383,"Ġsa":384,"ore":385,"il":386,"Ġ\"":387,"th":388,"Ġse":389,"Ġsu":390,"Ġhave":391,"ich":392,"the":393,"all":394,"ĠThe":395,"Ġso":396,"ĠB":397,"ome":398,"rom":399,".\"":400,"ge":401,"Ġr":402,"ul":403,"pp":404,"Ġby":405,"ight":406,"Ġbut":407,"Ġshe":408,"Ġmy":409,"qu":410,"Ġwhich":411,"Ġall":412,"Ġk":413,"ĠC":414,"to":415,"us":416,"est":417,",\"":418,"Ġor":419,"ab":420,"Ġup":421,"Ġsh":422,"el":423,"res":424,"em":425,"our":426,"Ġfrom":427,"Ġcon":428,"Ġsaid":429,"ĠW":430,"ant":431,"ation":432,"Ġthis":433,"ous":434,"Ġdo":435,"Ġthey":436,"ust":437,"Ġwhe":438,"ard":439,"un":440,"Ġwere":441,"ind":442,"Ġne":443,"Ġv":444,"ers":445,"Ġex":446,"Ġman":447,"lf":448,"ĠĠĠĠĠĠĠĠ":449,"ra":450,"art":451,"very":452,"Ġwho":453,"out":454,"ong":455,"Ġde":456,"ell":457,"ast":458,"ist":459,"os":460,"Ġno":461,"ie":462,"ect":463,"Ġare":464,"han":465,"Ġone":466,"ol":467,"ood":468,"um":469,"ĠP":470,"Ġthem":471,"Ġsp":472,"Ġwould":473,"Ġal":474,"ate":475,"Ġli":476,"ound":477,"ame":478,"Ġkn":479,"ĠL":480,"op":481,"ough":482,"one":483,"The":484,"Ġtheir":485,"ig":486,"nt":487,"Ġbeen":488,"Ġab":489,"ak":490,"own":491,"ĠG":492,"Ġthere":493,"pt":494,"ct":495,"Ġout":496,"Ġwor":497,"'t":498,"itt":499,"ort":500,"ook":501,"Ġcom":502,"ĠD":503,"Ġle":504,"ry":505,"ive":506,"Ġwill":507,"ĠF":508,"ven":509,"self":510,"ĠHe":511,"ost":512,"reat":513,"ther":514,"ure":515,"ity":516,"od":517,"ag":518,"ack":519,"Ġwhen":520,"Ġif":521,"ĠE":522,"ide":523,"ose":524,"ace":525,"end":526,"ff":527,"ake":528,"hed":529,"Ġpro":530,"ear":531,"Ġgo":532,"Ġpl":533,"Ġwhat":534,"Ġyour":535,"Ġcan":536,"Ġj":537,"ck":538,"Ġmore":539,"Ġany":540,"au":541,"are":542,"ies":543,"?\"":544,"ĠMr":545,"ond":546,"Ġag":547,"Ġqu":548,"Ġcould":549,"Ġsome":550,"ĠN":551,"Ġun":552,"hing":553,"ass":554,"able":555,"ep":556,"ĠR":557,"ĠO":558,"Ġam":559,"Ġar":560,"ime":561,"Ġtr":562,"ine":563,"we":564,"ink":565,"way":566,"ence":567,"ved":568,"of":569,"Ġinto":570,"pl":571,"ish":572,"ng":573,"Ġvery":574,"ance":575,"fore":576,"ice":577,"other":578,"ite":579,"Ġother":580,"ittle":581,"Ġthan":582,"Ġro":583,"urn":584,"Ġ'":585,"Ġus":586,"Ġfe":587,"Ġknow":588,"ĠJ":589,"ought":590,"per":591,"ment":592,"ally":593,"wn":594,"ud":595,"Ġsha":596,"Ġhas":597,"ade":598,"Ġlike":599,"ĠIt":600,"age":601,"Ġtw":602,"fter":603,"ble":604,"ord":605,"ious":606,"Ġcl":607,"cc":608,"Ġdid":609,"Ġnow":610,"uch":611,"ings":612,"ove":613,"ĠĠĠ":614,"Ġsee":615,"Ġlittle":616,"Ġen":617,"Ġtime":618,"Ġbr":619,"Ġlook":620,"Ġsay":621,"Ġabout":622,"ap":623,"ert":624,"Ġshould":625,"Ġupon":626,"ount":627,"Ġour":628,"Ġim":629,"ire":630,"ick":631,"Ġ_":632,"ress":633,"be":634,"ile":635,"Ġgr":636,"Ġad":637,"ather":638,"Ġtoo":639,"ree":640,"te":641,"Ġdis":642,"Ġagain":643,"ue":644,"ves":645,"Ġbl":646,"Ġover":647,"Ġgreat":648,"ving":649,"nder":650,"Ġthen":651,"Ġhand":652,"ne":653,"Ġch":654,"act":655,"ĠBut":656,"ife":657,"Ġonly":658,"You":659,"Ġdown":660,"ked":661,"ions":662,"Ġday":663,"ip":664,"bl":665,"ary":666,"âĢ":667,"Ġpr":668,"oy":669,"his":670,"Ġoff":671,"ull":672,"Ġpo":673,"ness":674,"ĠAnd":675,"ful":676,"ied":677,"Ġthink":678,"Ġmuch":679,"!\"":680,"oll":681,"Ġper":682,"Ġafter":683,"Ġgood":684,"ward":685,"Ġmust":686,"Ġits":687,"ady":688,"Ġfl":689,"sp":690,"ated":691,"Ġpart":692,"Ġmade":693,"Ġapp":694,"Ġbefore":695,"ild":696,"Ġhow":697,"Ġtwo":698,"for":699,"that":700,"man":701,"irst":702,"Ġsuch":703,"har":704,"Ġmay":705,"ran":706,"old":707,"ru":708,"Ġown":709,"Ġ1":710,"ise":711,"right":712,"Ġsc":713,"ty":714,"Ġway":715,"Ġpre":716,"Ġold":717,"Ġthr":718,"Ġlong":719,"Ġrem":720,"ave":721,"ft":722,"Ġbet":723,"int":724,"orn":725,"ĠĠĠĠĠĠĠĠĠĠĠĠĠĠĠĠ":726,"cl":727,"Ġnever":728,"Ġmen":729,"not":730,"ber":731,"ach":732,"Ġsm":733,"Ġcome":734,"iss":735,"ark":736,"Ġmight":737,"wh":738,"ons":739,"Ġthese":740,"ans":741,"Ġunder":742,"ren":743,"Ġback":744,"ered":745,"hen":746,"Ġcame":747,"Ġwell":748,"Ġfirst":749,"Ġeven":750,"Ġwhere":751,"Ġ(":752,"ily":753,"oss":754,"ried":755,"Ġseem":756,"anc":757,"led":758,"ps":759,"av":760,"fe":761,"Ġey":762,"ign":763,"Ġgl":764,"Ġpe":765,"Ġhere":766,"Ġthought":767,"Ġbec":768,"Ġhimself":769,"Ġdes":770,"Ġcont":771,"ouse":772,"ath":773,"Ġevery":774,"ever":775,"so":776,"de":777,"sh":778,"air":779,"ĠShe":780,"ew":781,"He":782,"Ġlet":783,"Ġcomp":784,"less":785,"It":786,"Ġsl":787,"Ġget":788,"ory":789,"omet":790,"Ġmake":791,"Ġthose":792,"Ġshall":793,"Ġpass":794,"Ġmost":795,"ause":796,"Ġjust":797,"iv":798,"Ġbel":799,"ĠK":800,"Ġlife":801,"riend":802,".'":803,"Ġlast":804,"Ġimp":805,"ared":806,"Ġwr":807,"ater":808,"Ġaway":809,"ock":810,"ition":811,"Ġthrough":812,"hes":813,"Ġwent":814,"ted":815,"oth":816,"Ġatt":817,"Ġbeing":818,"Ġbeg":819,"with":820,"ci":821,"get":822,"atter":823,"Ġke":824,"ears":825,"ĠIn":826,"ens":827,"ened":828,"land":829,"Ġexp":830,"iz":831,"igh":832,"og":833,"ase":834,"Ġcall":835,"Ġcons":836,"Ġturn":837,"ian":838,"Ġob":839,"ible":840,"aw":841,"Ġyoung":842,"Ġstill":843,"Ġhead":844,"Ġacc":845,"Ġpres":846,"ors":847,"Ġdon":848,"Ġword":849,"mer":850,"ertain":851,"row":852,"Ġear":853,"Ġcour":854,"ople":855,"ult":856,"Ġret":857,"ail":858,"Ġop":859,"ex":860,"alk":861,"ged":862,"Ġtake":863,"Ġwithout":864,"Ġrep":865,"ener":866,"Ġmany":867,"Ġeyes":868,"ĠV":869,"ĠSt":870,"Ġfriend":871,"con":872,"Ġfound":873,"And":874,",'":875,"was":876,"ret":877,"Ġtell":878,"Ġwant":879,"Ġhar":880,"thing":881,"aking":882,"Ġthough":883,"Ġwork":884,"li":885,"me":886,"ang":887,"ince":888,"Ġwhile":889,"Ġyet":890,"'ll":891,"med":892,"Ġcomm":893,"Ġfar":894,"Ġever":895,"ations":896,"Ġright":897,"ject":898,"Ġent":899,"Ġwom":900,"Ġend":901,"ting":902,"oment":903,"Ġface":904,"but":905,"ical":906,"here":907,"Ġsame":908,"up":909,"sel":910,"ĠYou":911,"Ġsomet":912,"Ġput":913,"ently":914,"com":915,"Ġmind":916,"ict":917,"les":918,"Ġonce":919,"over":920,"ss":921,"ways":922,"Ġnothing":923,"Ġmar":924,"hy":925,"ced":926,"Ġplace":927,"Ġser":928,"ower":929,"But":930,"Ġsupp":931,"you":932,"ished":933,"ĠThey":934,"ner":935,"Ġdist":936,"..":937,"ob":938,"owed":939,"ĠMrs":940,"most":941,"Ġcar":942,"ope":943,"ia":944,"Ġspe":945,"Ġpeople":946,"Ġnew":947,"ple":948,"aid":949,"ial":950,"Ġres":951,"Ġint":952,"Ġans":953,"ither":954,"ĠThere":955,"Ġmoment":956,"Ġhouse":957,"den":958,"ody":959,"Ġcount":960,"su":961,"Ġnat":962,"ix":963,"rest":964,"Ġsaw":965,"Ġgot":966,"Ġnight":967,"Ġheart":968,"Ġac":969,"Ġleft":970,"und":971,"Ġthings":972,"ms":973,"Ġset":974,"ER":975,"Ġfind":976,",--":977,"ained":978,"Ġbo":979,"Ġanother":980,"Ġlooked":981,"Ġthing":982,"Ġfeel":983,"Ġdec":984,"Ġple":985,"ks":986,"uth":987,"Ġdif":988,"Ġworld":989,"Ġchar":990,"my":991,"ool":992,"ĠWe":993,"cept":994,"ction":995,"apt":996,"Ġinst":997,"irl":998,"imes":999,"Ġchan":1000,"ual":1001,"rew":1002,"Ġlight":1003,"gg":1004,"Ġsec":1005,"ined":1006,"vent":1007,"Ġpers":1008,"Ġseemed":1009,"Ġfather":1010,"its":1011,"âĢĻ":1012,"Ġlove":1013,"Ġsub":1014,"ween":1015,"Ġdone":1016,"Ġbelie":1017,"by":1018,"Ġalways":1019,"Ġtook":1020,"iness":1021,"ĠEng":1022,"Ġgive":1023,"Ġfoll":1024,"ched":1025,"ning":1026,"Ġasked":1027,"aught":1028,"Ġthree":1029,"ross":1030,"Ġfell":1031,"ular":1032,"Ġchild":1033,"ised":1034,"ows":1035,"Ġgoing":1036,"Ġcha":1037,"'d":1038,"ale":1039,"ĠCh":1040,"Ġkind":1041,"Ġwar":1042,"Ġfew":1043,"Ġbetter":1044,"Ġhapp":1045,"Ġsw":1046,"Ġgi":1047,"pped":1048,"Ġstr":1049,"pr":1050,"Ġem":1051,"Ġagainst":1052,"aut":1053,"Ġind":1054,"Ġsur":1055,"Ġheard":1056,"ense":1057,"Ġknew":1058,"Ġquite":1059,"Ġtold":1060,"elt":1061,"der":1062,"Ġside":1063,"Ġreturn":1064,"had":1065,"oot":1066,"haps":1067,"ib":1068,"Ġsat":1069,"Ġrel":1070,"ffect":1071,"gether":1072,"ĠY":1073,"Ġcr":1074,"Ġcertain":1075,"Ġwa":1076,"Ġgu":1077,"Ġposs":1078,"ired":1079,"ott":1080,"Ġhands":1081,"ĠGod":1082,"ited":1083,"Ġrec":1084,"Ġread":1085,"ters":1086,"Ġcourse":1087,"ully":1088,"Ġenough":1089,"oub":1090,"Ġseen":1091,"Ġyears":1092,"aken":1093,"Ġreg":1094,"Ġroom":1095,"ier":1096,"ĠčĊ":1097,"Ġsomething":1098,"Ġrest":1099,"Ġboy":1100,"Ġhalf":1101,"osed":1102,"selves":1103,"app":1104,"ling":1105,"Ġsoon":1106,"ĠIf":1107,"wards":1108,"Ġbre":1109,"any":1110,"Ġmatter":1111,"no":1112,"Ġround":1113,"Ġnear":1114,"which":1115,"Ġhard":1116,"Ġwind":1117,"Ġbetween":1118,"iet":1119,"Ġgirl":1120,"Ġ2":1121,"Ġconf":1122,"oice":1123,"ins":1124,"Ġamong":1125,"vers":1126,"Ġocc":1127,"Ġdel":1128,"Ġwhole":1129,"Ġbecause":1130,"Ġwoman":1131,"Ġhour":1132,"ason":1133,"Ġeach":1134,"Ġhome":1135,"Ġdoor":1136,"att":1137,"rave":1138,"aint":1139,"pe":1140,"now":1141,"ures":1142,"Ġgener":1143,"atch":1144,"Ġalso":1145,"ĠThis":1146,"Ġstre":1147,"ĠTh":1148,"Ġact":1149,"du":1150,"Ġwhom":1151,"Ġcle":1152,"Ġsil":1153,"ars":1154,"Ġname":1155,"ents":1156,"ĠThen":1157,"Ġco":1158,"ute":1159,"Ġbro":1160,"Ġnor":1161,"men":1162,"orning":1163,"Ġkeep":1164,"Ġpur":1165,"ger":1166,"entle":1167,"ĠĠĠĠĠ":1168,"Ġcare":1169,"az":1170,"Ġhum":1171,"Ġbest":1172,"ser":1173,"ĠAs":1174,"Ġmean":1175,"'m":1176,"enc":1177,"stand":1178,"Ġboth":1179,"Ġmother":1180,"Ġmin":1181,"ern":1182,"Ġpoint":1183,"Ġcur":1184,"Ġadd":1185,"What":1186,"him":1187,"ont":1188,"Ġpleas":1189,"Ġdisc":1190,"Ġsure":1191,"xt":1192,"oke":1193,"Ġinter":1194,"ating":1195,"Ġalmost":1196,"ĠĠĠĠĠĠ":1197,"'ve":1198,"Ġass":1199,"aster":1200,"Ġri":1201,"ably":1202,"owing":1203,"br":1204,"HE":1205,"oubt":1206,"lish":1207,"She":1208,"Ġless":1209,"ĠMiss":1210,"Ġste":1211,"Ġche":1212,"Ġdra":1213,"rem":1214,"ĠU":1215,"day":1216,"Ġhaving":1217,"Ġpoor":1218,"ph":1219,"Ġdoes":1220,"gr":1221,"terest":1222,"ering":1223,"Ġstand":1224,"ately":1225,"rent":1226,"Ġsmall":1227,"Ġmyself":1228,"oud":1229,"spect":1230,"Ġpresent":1231,"ief":1232,"Ġel":1233,"Ġfelt":1234,"Ġfact":1235,"Ġturned":1236,"Ġext":1237,"Ġhel":1238,"ken":1239,"als":1240,"Ġter":1241,"Ġcountry":1242,"ĠHis":1243,"ene":1244,"Ġsent":1245,"Ġdays":1246,"Ġcalled":1247,"Ġfam":1248,"amp":1249,"Ġbus":1250,"_,":1251,"fort":1252,"There":1253,"Ġhor":1254,"Ġrather":1255,"ĠWhat":1256,"ates":1257,"Ġdark":1258,"fl":1259,"Ġ[":1260,"Ġhear":1261,"Ġlo":1262,"Ġwater":1263,"oney":1264,"ung":1265,"Ġsince":1266,"Ġunt":1267,"inc":1268,"wered":1269,"Ġopen":1270,"Ġtill":1271,"Ġref":1272,"Ġbegan":1273,"estion":1274,"Ġmorning":1275,"ton":1276,"Ġmo":1277,"pro":1278,"ains":1279,"Ġtalk":1280,"Ġmon":1281,"In":1282,"Ġland":1283,"ĠThat":1284,"Ġwords":1285,"Ġgave":1286,"Ġstood":1287,"ey":1288,"range":1289,"Ġsk":1290,"Ġadv":1291,"Ġlar":1292,"fully":1293,"We":1294,"ĠJo":1295,"ubl":1296,"Ġvis":1297,"Ġinde":1298,"ĠAn":1299,"Ġev":1300,"Ġdear":1301,"Ġbu":1302,"ĠFor":1303,"Ġart":1304,"Ġanything":1305,"what":1306,"ĠBr":1307,"Ġhigh":1308,"Ġhowever":1309,"ery":1310,"have":1311,"Ġinc":1312,"Ġdoubt":1313,"Ġvoice":1314,"unt":1315,"Mr":1316,"ĠLord":1317,"Ġnext":1318,"cei":1319,"Ġgentle":1320,"aptain":1321,"king":1322,"read":1323,"ments":1324,"Ġbelieve":1325,"part":1326,"ird":1327,"eth":1328,"No":1329,"used":1330,"Ġfore":1331,"Ġanswered":1332,"outh":1333,"Ġcannot":1334,"Ġbrought":1335,"oul":1336,"ude":1337,"oun":1338,"rist":1339,"Ġuse":1340,"Ġwond":1341,"?'":1342,"ield":1343,"Ġgone":1344,"Ġtaken":1345,"Ġneed":1346,"she":1347,"ank":1348,"ressed":1349,"Ġnec":1350,"Ġherself":1351,"Ġperson":1352,"ants":1353,"ider":1354,"ities":1355,"Ġ18":1356,"----":1357,"ten":1358,"That":1359,"Ġfall":1360,"iting":1361,"arn":1362,"ĠWhen":1363,"ured":1364,"Ġbeaut":1365,"hn":1366,"Ġindeed":1367,"Ġfull":1368,"Ġadm":1369,"fect":1370,"wor":1371,"ĠSir":1372,"aces":1373,"Ġinterest":1374,"uring":1375,"ĠSo":1376,"ĠAt":1377,"._":1378,"fic":1379,"Ġspeak":1380,"vel":1381,"ets":1382,"Ġpower":1383,"ee":1384,"ĠMar":1385,"Ġsir":1386,"ention":1387,"Ġsun":1388,"Ġbeh":1389,"ash":1390,"ceed":1391,"Ġte":1392,"Ġuntil":1393,"Ġsim":1394,"osition":1395,"ub":1396,"Ġwhite":1397,"Ġlay":1398,"Ġtrue":1399,"ĠAr":1400,"Ġhope":1401,"Ġfr":1402,"Ġide":1403,"Ġaw":1404,"Ġhon":1405,"uck":1406,"Ġhelp":1407,"empt":1408,"Ġcontin":1409,"dden":1410,"Ġleast":1411,"Ġcond":1412,"bed":1413,"Ġrun":1414,"Ġperhaps":1415,"ĠTo":1416,"they":1417,"ison":1418,"Ġtri":1419,"Well":1420,"ready":1421,"Ġair":1422,"ages":1423,"iew":1424,"ually":1425,"Ġtogether":1426,"aim":1427,"cle":1428,"eter":1429,"Yes":1430,"Ġwife":1431,"Oh":1432,"ected":1433,"ON":1434,"side":1435,"Ġstrong":1436,"there":1437,"ister":1438,"Ġsuff":1439,"Ġes":1440,"race":1441,"ience":1442,"ached":1443,"Ġalong":1444,"body":1445,"Ġsort":1446,"Ġothers":1447,"wer":1448,"Ġlady":1449,"Ġlau":1450,"Ġfire":1451,"Ġcol":1452,"Ġcried":1453,"ĠEnglish":1454,"Ġsudden":1455,"Ġdiffe":1456,"ances":1457,"ient":1458,"Ġspir":1459,"ham":1460,"Ġwhose":1461,"rence":1462,"Ġgiven":1463,"Ġsle":1464,"ides":1465,"Ġplay":1466,"Ġmoney":1467,"ying":1468,"ĠAl":1469,"ug":1470,"cri":1471,"plied":1472,"undred":1473,"Ġfour":1474,"ended":1475,"uc":1476,"Ġhold":1477,"Ġlaw":1478,"Ġdeep":1479,"where":1480,"Ġpassed":1481,"Ġform":1482,"ident":1483,"Ġcase":1484,"ific":1485,"Ġfeet":1486,"like":1487,"Ġthemselves":1488,"Ġremem":1489,"Ġdr":1490,"Ġpret":1491,"Ġblack":1492,"Ġsays":1493,"Ġlarge":1494,"Ġserv":1495,"akes":1496,"from":1497,"ts":1498,"well":1499,"ream":1500,"Ġdire":1501,"Ġreal":1502,"though":1503,"Ġ3":1504,"Ġexc":1505,"ines":1506,"Ġlooking":1507,"Ġprop":1508,"Ġdeath":1509,"oor":1510,"ĠOn":1511,"ship":1512,"ĠNo":1513,"Ġleave":1514,"ided":1515,"Ġshort":1516,"Ġreason":1517,"iously":1518,"ley":1519,"Ġsea":1520,"Ġfur":1521,"Ġalone":1522,"Ġbehind":1523,"Ġaff":1524,"ane":1525,"lect":1526,"Ġquestion":1527,"They":1528,"this":1529,"ught":1530,"ceived":1531,"Ġdead":1532,"Ġpri":1533,"Ġ*":1534,"Ġfa":1535,"ards":1536,"Ġbook":1537,"ĠPr":1538,"Ġclose":1539,"Ġstart":1540,"Ġreally":1541,"aced":1542,"ative":1543,"IN":1544,"Ġprom":1545,"II":1546,"'re":1547,"Ġopp":1548,"use":1549,"Ġwhy":1550,"Ġgre":1551,"enty":1552,"ĠWh":1553,"Ġspec":1554,"oc":1555,"eared":1556,"Ġsing":1557,"Ġabove":1558,"Ġstru":1559,"Then":1560,"Ġsound":1561,"HA":1562,"ote":1563,"son":1564,"ring":1565,"would":1566,"Ġmet":1567,"Ġunderstand":1568,"Ġfear":1569,"!'":1570,"Ġwhether":1571,"Ġwish":1572,"Ġpol":1573,"Ġfin":1574,"aven":1575,"tered":1576,"eng":1577,"ued":1578,"Ġeas":1579,"alked":1580,"Ġswe":1581,"them":1582,"ek":1583,"ility":1584,"erc":1585,"Ġreplied":1586,"Ġoften":1587,"ublic":1588,"iful":1589,"rying":1590,"Ġground":1591,"form":1592,"Ġbed":1593,"Ġcir":1594,"were":1595,"ah":1596,"illed":1597,"Ġhundred":1598,"ural":1599,"--\"":1600,"Ġabs":1601,"Ġdro":1602,"Ġknown":1603,"orrow":1604,"Ġill":1605,"ĠJohn":1606,"Ġinv":1607,"This":1608,"Ġdri":1609,"acter":1610,"Ġtown":1611,"Ġmis":1612,"aughter":1613,"Ġbrother":1614,"ĠChrist":1615,"Ġmanner":1616,".]":1617,"Ġnum":1618,"Ġbur":1619,"aring":1620,"Ġcoming":1621,"iled":1622,"Ġtruth":1623,"iles":1624,"Ġletter":1625,"let":1626,"Ġed":1627,"Ġalready":1628,"Ġsign":1629,"Ġlad":1630,"sc":1631,"ĠAll":1632,"00":1633,"Ġmeet":1634,"ames":1635,"ny":1636,"If":1637,"TER":1638,"Ġwithin":1639,"Ġnature":1640,"Ġitself":1641,"oint":1642,"Ġson":1643,"Ġelse":1644,"Ġtowards":1645,"ats":1646,"Ġfriends":1647,"ution":1648,".--":1649,"Ġsubject":1650,"Ġsy":1651,"Ġdep":1652,"AN":1653,"Ġexpl":1654,"room":1655,"Ġorder":1656,"Ġran":1657,"overed":1658,"Ġfair":1659,"Ġlive":1660,"Ġthus":1661,"Ġmeans":1662,"ev":1663,"Ġtimes":1664,"head":1665,"tr":1666,"ĠInd":1667,"itted":1668,"),":1669,"Ġcor":1670,"Ġmod":1671,"str":1672,"ession":1673,"Ġsecond":1674,"aj":1675,"ĠHow":1676,"Ġthou":1677,"âĢľ":1678,"Ġsuppose":1679,"ism":1680,"ney":1681,"AR":1682,"their":1683,"Ġyear":1684,"Ġeffect":1685,"Ġobser":1686,"ĠLady":1687,"ousand":1688,"Ġship":1689,"bit":1690,"gin":1691,"urch":1692,"Ġbusiness":1693,"asion":1694,"Ġlost":1695,"Ġnecess":1696,"ead":1697,"Ġwonder":1698,"Ġused":1699,"night":1700,"ature":1701,"iter":1702,"Ġsoul":1703,"Ġreturned":1704,"Ġask":1705,"Ġclear":1706,"Ġins":1707,"ouble":1708,"Ġmere":1709,"uff":1710,"Ġtre":1711,"ĠKing":1712,"ony":1713,"Ġord":1714,"idence":1715,"who":1716,"Ġten":1717,"Ġbring":1718,"under":1719,"hil":1720,"veral":1721,"ĠMy":1722,"Ġquiet":1723,"Ġeither":1724,"Ġeye":1725,"âĢĿ":1726,"ĠHer":1727,"cum":1728,"EN":1729,"Ġappear":1730,"Ġhuman":1731,"Ġwalk":1732,"Ġbad":1733,"how":1734,"Ġhur":1735,"Ġbody":1736,"ury":1737,"ĠSp":1738,"co":1739,"Ġkept":1740,"Ġwild":1741,"icular":1742,"band":1743,"Ġheld":1744,"ety":1745,"Ġpar":1746,"ster":1747,"itting":1748,"Ġperfect":1749,"Ġchildren":1750,"rench":1751,"Ġsense":1752,"Ġlow":1753,"Ġobject":1754,"ising":1755,"do":1756,"will":1757,"Ġdef":1758,"par":1759,"Ġwood":1760,"ression":1761,"ĠIs":1762,"Ġcap":1763,"rel":1764,"Ġlea":1765,"_.":1766,"As":1767,"Ġsix":1768,"ax":1769,"Ġbar":1770,"Ġsight":1771,"ized":1772,"Ġsum":1773,"Ġanswer":1774,"Ġred":1775,"ians":1776,"Ġconsider":1777,"ĠCl":1778,"look":1779,"Ġwall":1780,"Ġwon":1781,"ped":1782,"ush":1783,"Ġstrange":1784,"ĠTHE":1785,"Ġarm":1786,"ĠEngland":1787,"Ġthy":1788,"Ġdev":1789,"ĠNow":1790,"ingly":1791,"Ġlist":1792,"Ġspirit":1793,"ĠBe":1794,"ially":1795,"Ġstate":1796,"Ġgeneral":1797,"Ġacross":1798,"cap":1799,"Ġrespect":1800,"Ġfellow":1801,"Ġfamily":1802,"une":1803,"Ġwomen":1804,"My":1805,"Ġfoot":1806,"Ġbes":1807,"dis":1808,"Ġking":1809,"OR":1810,"Ġhorse":1811,"Ġpossible":1812,"ination":1813,"Ġcommon":1814,"Ġview":1815,"Ġshow":1816,"airs":1817,"uss":1818,"Ġvar":1819,"ices":1820,"Ġmaking":1821,"Ġdeal":1822,"Ġinf":1823,"mon":1824,"Ġpat":1825,"ES":1826,"Ġpa":1827,"Ġcharacter":1828,"isf":1829,"Ġir":1830,"iar":1831,"Ġfort":1832,"meric":1833,"Ġlead":1834,"Ġevening":1835,"usband":1836,"Ġable":1837,"Ġseems":1838,"Ġearth":1839,"Ġsch":1840,"Ġought":1841,"rie":1842,"Ġdem":1843,"When":1844,"Ġpast":1845,"Ġpain":1846,"Ġbecome":1847,"Ġprof":1848,"ned":1849,"Ġdiffic":1850,"Ġbit":1851,"ones":1852,"ĠSc":1853,"Ġmem":1854,"aged":1855,"light":1856,"owers":1857,"Ġseveral":1858,"Ġglad":1859,"val":1860,"Ġdidn":1861,"Ġmount":1862,"Ġcut":1863,"Ġtherefore":1864,"inct":1865,"antly":1866,"Ġproper":1867,"Ġidea":1868,"ric":1869,"anger":1870,"arent":1871,"Ġmid":1872,"Ġthousand":1873,"Ġtou":1874,"ĠHar":1875,"Ġsit":1876,"Ġexcept":1877,"Ġra":1878,"Ġdecl":1879,"Ġfree":1880,"ĠQ":1881,"Ġquick":1882,"off":1883,"ondon":1884,"Ġslow":1885,"alth":1886,"Ġfive":1887,"dle":1888,"Ġconc":1889,"Ġut":1890,"Ġblood":1891,"ctor":1892,"ches":1893,"Ġready":1894,"Ġroad":1895,"So":1896,"ces":1897,"cons":1898,"Ġca":1899,"Ġbegin":1900,"bo":1901,"Ġarri":1902,"Ġmist":1903,"Ġaccount":1904,"Ġdifferent":1905,"Ġstory":1906,"Ġye":1907,"when":1908,"Ġprob":1909,"Ġbecame":1910,"some":1911,"utes":1912,"ement":1913,"Ġtable":1914,"ives":1915,"Ġcold":1916,"mp":1917,"hand":1918,"Ġsurpr":1919,"tern":1920,"Ġbig":1921,"more":1922,"Ġspoke":1923,"Ġappro":1924,"Ġsleep":1925,"Ġexcl":1926,"Ġ.":1927,"iment":1928,"orge":1929,"ality":1930,"ges":1931,"cious":1932,"Ġjud":1933,"go":1934,"bled":1935,"Ġremember":1936,"pose":1937,"ots":1938,"ased":1939,"itude":1940,"Ġworth":1941,"ĠWith":1942,"uthor":1943,"Ġrose":1944,"iver":1945,"Ġprodu":1946,"Ġeng":1947,"To":1948,"Ġaround":1949,"Ġgold":1950,"Ġwatch":1951,"ii":1952,"Now":1953,"Ġequ":1954,"Ġbreak":1955,"ĠX":1956,"ĠĠĠĠĠĠĠĠĠĠĠĠĠĠĠĠĠĠĠĠĠĠĠĠ":1957,"Ġstep":1958,"yond":1959,"fra":1960,"Ġ4":1961,"Th":1962,"Ġparty":1963,"Ġforg":1964,"ĠGe":1965,"Ġfav":1966,"Ġfollowed":1967,"rank":1968,"iff":1969,"Ġgentleman":1970,"come":1971,"Ġsucc":1972,"Ġpay":1973,"Ġtra":1974,"been":1975,"inter":1976,"Ġest":1977,"ours":1978,"Why":1979,"Ġdraw":1980,"ths":1981,"ledge":1982,"ĠOf":1983,"Ġsto":1984,"Ġfig":1985,"Ġrock":1986,"arch":1987,"ift":1988,"orm":1989,"Ġduring":1990,"Ġpublic":1991,"Ġpretty":1992,"Ġlearn":1993,"Ġarms":1994,"Ġdut":1995,"Ġfeeling":1996,"Ġimag":1997,"riage":1998,"How":1999,"attle":2000,"can":2001,"ĠNew":2002,"Ġheav":2003,"Ġce":2004,"Ġcent":2005,"els":2006,"Ġfight":2007,"Ġcross":2008,"ĠFrench":2009,"pre":2010,"Ġfine":2011,"Ġhusband":2012,"medi":2013,"At":2014,"Ġbeautiful":2015,"Ġforward":2016,"imp":2017,"sm":2018,"reed":2019,"Ġsuddenly":2020,"ĠBy":2021,"Ġappeared":2022,"Ġstay":2023,"Ġstri":2024,"Ġoffic":2025,"ĠAmeric":2026,"Ġconst":2027,"Ġparticular":2028,"Ġstud":2029,"ging":2030,"Ġmur":2031,"Ġoccasion":2032,"Ġthee":2033,"Ġdirect":2034,"CHA":2035,"ĠDo":2036,"ancy":2037,"gl":2038,"Wh":2039,").":2040,"Ġline":2041,"Ġstra":2042,"ump":2043,"Ġcast":2044,"Ġcommand":2045,"Ġself":2046,"Ġtem":2047,"Ġmove":2048,"Ġadded":2049,"eal":2050,"ament":2051,"gy":2052,"ior":2053,"inner":2054,"resent":2055,"Ġquar":2056,"ists":2057,"Ġele":2058,"Ġhair":2059,"cumst":2060,"ĠLondon":2061,"Ġdoing":2062,"ĠUn":2063,"ract":2064,"Ġscar":2065,"cour":2066,"oe":2067,"aimed":2068,"Ġdream":2069,"ĠNor":2070,"fraid":2071,"Ġport":2072,"ously":2073,"For":2074,"Ġcontinued":2075,"Ġsqu":2076,"ushed":2077,"inary":2078,"PTER":2079,"could":2080,"ounded":2081,"wo":2082,"Ġexam":2083,"ĠWill":2084,"resh":2085,"ĠCaptain":2086,"pper":2087,"idge":2088,"house":2089,"irt":2090,"Ġcomple":2091,"otion":2092,"ĠCol":2093,"Ġleg":2094,"Not":2095,"Ġled":2096,"Ġrequ":2097,"Ġhill":2098,"together":2099,"Ġmus":2100,"Ġcal":2101,"essed":2102,"Ġsend":2103,"Ġlate":2104,"Ġtaking":2105,"Ġsoci":2106,"Ġund":2107,"ĠBl":2108,"ls":2109,"Ġexper":2110,"ilt":2111,"ĠTom":2112,"Ġsold":2113,"itten":2114,"âĢĶ":2115,"Ġhappy":2116,"Ġcomes":2117,"rupt":2118,"Ġsometimes":2119,"ified":2120,"Ġaffect":2121,"Ġregard":2122,"Ġsoft":2123,"Ġbeyond":2124,"ald":2125,"Ġmine":2126,"Ġcertainly":2127,"ler":2128,"aining":2129,"ĠĠĠĠĠĠĠ":2130,"Ġfront":2131,"Ġru":2132,"Ġsecret":2133,"ening":2134,"Ġlaugh":2135,"gu":2136,"Ġdiv":2137,"Ġdanger":2138,"Ġhours":2139,"Ġbright":2140,"Ġhot":2141,"ining":2142,"Ġve":2143,"Ġchange":2144,"Ġacqu":2145,"ĠOne":2146,"ounds":2147,"ics":2148,"bert":2149,"Ġnone":2150,"Ġcoll":2151,"Ġopin":2152,"uct":2153,"Ġplain":2154,"cont":2155,"On":2156,"ossible":2157,"Ġbene":2158,"usion":2159,"Ġchief":2160,"isted":2161,"Ġfurther":2162,"Ġbreat":2163,"Ġcarried":2164,"Ġvisit":2165,"Ġimport":2166,"vern":2167,"ron":2168,"Ġanim":2169,"Ġriver":2170,"sha":2171,"Ġvill":2172,"reg":2173,"Ġwanted":2174,"Ġyourself":2175,"ĠDe":2176,"Ġprov":2177,"oured":2178,"Ġenem":2179,"CHAPTER":2180,"Ġdet":2181,"iece":2182,"Ġeverything":2183,"Ġsn":2184,"dd":2185,"ĠCom":2186,"Ġdisp":2187,"bers":2188,".,":2189,"Ġwrong":2190,"irm":2191,"ize":2192,"anced":2193,"rance":2194,"Ġtwenty":2195,"Ġnatural":2196,"ror":2197,"has":2198,"Ġlonger":2199,"Ġfaith":2200,"Ġhop":2201,"sequ":2202,"Ġtrust":2203,"Ġdaughter":2204,"Ġfail":2205,"Ġsaying":2206,"ray":2207,"Ġboat":2208,"IS":2209,"che":2210,"Ġreached":2211,"ĠNot":2212,"itions":2213,"after":2214,"Ġmaster":2215,"Ġboys":2216,"iam":2217,"ested":2218,"Ġsatisf":2219,"Ġanx":2220,"Ġdog":2221,"que":2222,"Ġsol":2223,"Ġval":2224,"Ġnearly":2225,"Ġtry":2226,"Ġafraid":2227,"Ġtried":2228,"Ġnumber":2229,"Ġescap":2230,"Ġchance":2231,"Ġcomfort":2232,"Ġhast":2233,"Ġreceived":2234,"Ġwindow":2235,"ĠOF":2236,"should":2237,"arr":2238,"Ġdest":2239,"St":2240,"Ġsweet":2241,"Ġcause":2242,"Ġpict":2243,"Ġage":2244,"Ġauthor":2245,"min":2246,"exp":2247,"Ġtend":2248,"Ġcreat":2249,"Ġsett":2250,"Ġdelight":2251,"Ġcity":2252,"Ġhardly":2253,"Ġforce":2254,"ius":2255,"hard":2256,"ically":2257,"ceive":2258,"Ġcompan":2259,"ĠChar":2260,"cend":2261,"lled":2262,"oly":2263,"ength":2264,"Ġsad":2265,"Ġcorn":2266,"Ġlater":2267,"Ġschool":2268,"kes":2269,"iol":2270,"Ġshad":2271,"pec":2272,"about":2273,"Ġposition":2274,"then":2275,"ĠLe":2276,"Ġearly":2277,"Ġsail":2278,"your":2279,"joy":2280,"Ġattempt":2281,"Ġwalked":2282,"ection":2283,"Ġminutes":2284,"Ġsuccess":2285,"bec":2286,"Ġwhis":2287,"Ġbear":2288,"ask":2289,"Ġfool":2290,"set":2291,"ences":2292,"ĠPar":2293,"Ġtrouble":2294,"ustom":2295,"ues":2296,"Ġago":2297,"Ġslight":2298,"Ġopened":2299,"Ġremark":2300,"ume":2301,"Ġjo":2302,"Ġpriv":2303,"Ġliving":2304,"Ġsugg":2305,"said":2306,"Ġsilence":2307,"Ġwit":2308,"io":2309,"Ġexpect":2310,"hood":2311,"Ġmag":2312,"Ġpray":2313,"rible":2314,"ighb":2315,"Ġfast":2316,"onel":2317,"ager":2318,"Ġpract":2319,"Ġchair":2320,"flu":2321,"ission":2322,"erv":2323,"acy":2324,"wise":2325,"Ġsister":2326,"bs":2327,"Ġhat":2328,"Ġforth":2329,"ĠEd":2330,"Ġnecessary":2331,"Ġsuper":2332,"icked":2333,"Ġspo":2334,"Ġsmile":2335,"cent":2336,"Ġinqu":2337,"ries":2338,"Ġmouth":2339,"Ġtrave":2340,"kn":2341,"eed":2342,"into":2343,"Ġhist":2344,"bel":2345,"Do":2346,"ĠGeorge":2347,"Ġeff":2348,"angu":2349,"ming":2350,"Ġpurpose":2351,"....":2352,"olute":2353,"uke":2354,"Ġfif":2355,"ĠWhy":2356,"oose":2357,"rit":2358,"iding":2359,"Ġwat":2360,"Ġprot":2361,"ĠĠĠĠĠĠĠĠĠĠĠĠĠĠĠĠĠĠĠĠĠĠĠĠĠĠĠĠĠĠĠĠ":2362,"Ġmeant":2363,"Ġlaid":2364,"count":2365,"Ġmad":2366,"Ġ5":2367,"ixed":2368,"Ġvol":2369,"again":2370,"fer":2371,"little":2372,"ively":2373,"Ġlab":2374,"ply":2375,"ghed":2376,"Ġmiles":2377,"just":2378,"pping":2379,"dom":2380,"ogn":2381,"ech":2382,"time":2383,"orses":2384,"Ġentered":2385,"Ġcircumst":2386,"ĠLet":2387,"ĠHere":2388,"LE":2389,"Ġpleasure":2390,"rough":2391,"Ġsens":2392,"Ġtrans":2393,"Ġ17":2394,"oman":2395,"Ġpal":2396,"stood":2397,"Ġscarce":2398,"Ġthinking":2399,"ases":2400,"cell":2401,"Ġduty":2402,"Ġdistance":2403,"Ġgrave":2404,"asure":2405,"hel":2406,"than":2407,"upon":2408,"Ġbird":2409,"Ġentire":2410,"iers":2411,"Ġlength":2412,"ike":2413,"Ġyes":2414,"rowd":2415,"eterm":2416,"Ġslowly":2417,"vol":2418,"Ġaccom":2419,"Ġneither":2420,"Ġheavy":2421,"Ġgetting":2422,"while":2423,"Ġpeace":2424,"Ġweek":2425,"Ġdesp":2426,"Ġbroken":2427,"ĠCar":2428,"ze":2429,"Ġsave":2430,"Ġknows":2431,"ops":2432,"Ġda":2433,"Ġwis":2434,"Ġprinc":2435,"Ġlived":2436,"Ġlips":2437,"ency":2438,"sem":2439,"Ġtro":2440,"Ġdescri":2441,"ngth":2442,"resp":2443,"des":2444,"Ġtreat":2445,"ĠWell":2446,"Ġblue":2447,"arden":2448,"Ġimmedi":2449,"face":2450,"Ġlord":2451,"ference":2452,"Ġprobably":2453,"Ġgrand":2454,"Ġstanding":2455,"ustr":2456,"ĠPro":2457,"Ġexclaimed":2458,"raw":2459,"Ġdisapp":2460,"Ġtrees":2461,"Ġstruck":2462,"Ġexact":2463,"oom":2464,"Ġjoy":2465,"chan":2466,"Ġav":2467,"bet":2468,"Ġhappened":2469,"gan":2470,"amed":2471,"ole":2472,"bling":2473,"ĠOr":2474,"aded":2475,"Ġpost":2476,"Ġproceed":2477,"ĠRe":2478,"Is":2479,"Ġtop":2480,"ĠGer":2481,"ching":2482,"Ġdie":2483,"Ġaccord":2484,"great":2485,"Ġsafe":2486,"Ġyouth":2487,"Ġeasy":2488,"Ġchurch":2489,"Ġver":2490,"All":2491,"Ġmor":2492,"AT":2493,"olog":2494,"eneral":2495,"certain":2496,"Ġcompany":2497,"comp":2498,"Ġopinion":2499,"iling":2500,"Ġrepe":2501,"comm":2502,"long":2503,"Ġgreen":2504,"An":2505,"Ġpoet":2506,"Ġmakes":2507,"before":2508,"Ġobl":2509,"rang":2510,"Ġeight":2511,"AL":2512,"aff":2513,"Ġdied":2514,"OU":2515,"cha":2516,"ires":2517,"Ġdinner":2518,"Ġweak":2519,"ĠMary":2520,"Ġknowledge":2521,"Ġdrew":2522,"Ġdress":2523,"Ġprep":2524,"Ġshar":2525,"ises":2526,"Ġconv":2527,"Ġgun":2528,"ĠDick":2529,"Ġstopped":2530,"noon":2531,"Ġwritten":2532,"osp":2533,"ays":2534,"urs":2535,"Ġprison":2536,"irty":2537,"Ġsal":2538,"Ġclass":2539,"eks":2540,"athe":2541,"oes":2542,"ories":2543,"Ġremained":2544,"ma":2545,"Ġincl":2546,"ĠBar":2547,"Ġdeg":2548,"ivid":2549,"Ġlie":2550,"Ġgovern":2551,"Ġwrite":2552,"Ġcaptain":2553,"ples":2554,"Ġheaven":2555,"ashion":2556,"Ġexist":2557,"THE":2558,"Ġcry":2559,"Ġalthough":2560,"Ġaccept":2561,"ored":2562,"eness":2563,"ellow":2564,"nest":2565,"Ġhig":2566,"ĠOh":2567,"Ġlaughed":2568,"ulty":2569,"ext":2570,"Ġpen":2571,"na":2572,"Ġfield":2573,"Ġrich":2574,"Ġtor":2575,"ĠThese":2576,"Ġbott":2577,"place":2578,"Ġneighb":2579,"fast":2580,"wood":2581,"Ġann":2582,"Ġmention":2583,"ĠBrit":2584,"Ġsitting":2585,"ĠDr":2586,"oved":2587,"Ġtone":2588,".)":2589,"Ġcompl":2590,"Ġservice":2591,"Ġconvers":2592,"Ġmark":2593,"Ġcrowd":2594,"Ġcourt":2595,"ĠAd":2596,"Ġpaper":2597,"pecially":2598,"ĠSe":2599,"Ġmerc":2600,"Ġjour":2601,"Ġsilent":2602,"arm":2603,"dy":2604,"Ġplan":2605,"Ġbelow":2606,";--":2607,"Ġresult":2608,"Ġbuild":2609,"Ġwhatever":2610,"unity":2611,"With":2612,"Ġori":2613,"rief":2614,"Ġusual":2615,"Ġfollowing":2616,"Ġang":2617,"requ":2618,"Of":2619,"Ġshout":2620,"know":2621,"Ġlatter":2622,"ina":2623,"Ġcaught":2624,"Ġhorses":2625,"Ġstraight":2626,"mn":2627,"ĠCon":2628,"arer":2629,"aching":2630,"road":2631,"Ġintell":2632,"ĠAfter":2633,"Ġhonour":2634,"Ġisland":2635,"aul":2636,"Ġgall":2637,"Ġshore":2638,"Ġdifficult":2639,"ĠGr":2640,"ibly":2641,"ishing":2642,"ĠFl":2643,"happ":2644,"Ġcamp":2645,"action":2646,"Ġfigure":2647,"Ġ6":2648,"new":2649,"see":2650,"Ġthoughts":2651,"Ġfut":2652,"rill":2653,"Ġstrength":2654,"ploy":2655,"Ġtrem":2656,"Ġforget":2657,"arrow":2658,"iety":2659,"ision":2660,"Ġdesire":2661,"orry":2662,"Ġmoved":2663,"Ġfresh":2664,"Ġbeauty":2665,"never":2666,"Ġbound":2667,"Ġgrow":2668,"Ġenjoy":2669,"Ġlim":2670,"Ġwarm":2671,"Ġfollow":2672,"Ġconcl":2673,"ocked":2674,"Ġbroke":2675,"Ġmed":2676,"Ġwait":2677,"Ġwide":2678,"Ġboard":2679,"Ġloved":2680,"Ġgrew":2681,"bur":2682,"Ġgaz":2683,"ston":2684,"bered":2685,"sec":2686,"morrow":2687,"Ġthick":2688,"IT":2689,"ital":2690,"osing":2691,"gar":2692,"Ġtree":2693,"Ġformer":2694,"Ġden":2695,"ouses":2696,"Ġcarry":2697,"only":2698,"iod":2699,"Ġdemand":2700,"himself":2701,"iced":2702,"orted":2703,"Ġnote":2704,"Ġsingle":2705,"Ġeat":2706,"Ġshowed":2707,"Ġspot":2708,"Ġfing":2709,"ivers":2710,"Ġdrink":2711,"thought":2712,"ĠâĢľ":2713,"ivil":2714,"Ġgoes":2715,"Ġdeterm":2716,"Ġsomewhat":2717,"vere":2718,"erhaps":2719,"ords":2720,"down":2721,"Ġnews":2722,"Ġinflu":2723,"Ġmarried":2724,"Ġdread":2725,"Ġseeing":2726,"Ġmonths":2727,"Ġenemy":2728,"bles":2729,"Ġgreater":2730,"Ġoccup":2731,"othes":2732,"Ġrelig":2733,"teen":2734,"arked":2735,"Ġplaced":2736,"Ġattack":2737,"hys":2738,"Ġtoward":2739,"Mrs":2740,"car":2741,"Ġorigin":2742,"Ġbelong":2743,"RE":2744,"Ġburn":2745,"ĠSam":2746,"Ġinstead":2747,"Ġimm":2748,"Ġattention":2749,"ĠDon":2750,"zen":2751,"Ġpolit":2752,"esty":2753,"cient":2754,"oon":2755,"sy":2756,"Ġcab":2757,"Ġstone":2758,"Ġexpected":2759,"Ġcontr":2760,"Ġlangu":2761,"Ġcre":2762,"ending":2763,"unk":2764,"Ġpresence":2765,"Ġstarted":2766,"ork":2767,"uliar":2768,"every":2769,"Ġmerely":2770,"even":2771,"Ġsac":2772,"Ġpull":2773,"father":2774,"Ġarmy":2775,"mit":2776,"Ġnoble":2777,"uous":2778,"Ġglass":2779,"ĠMad":2780,"uly":2781,"Ġremain":2782,"Ġcloud":2783,"bre":2784,"tic":2785,"Ġwaiting":2786,"Ġimpossible":2787,"Ġmass":2788,"ajor":2789,"Ġevil":2790,"ĠSome":2791,"kind":2792,"reme":2793,"otten":2794,"Ġappearance":2795,"Ġcomplete":2796,"heart":2797,"think":2798,"Ġevent":2799,"Ġlikely":2800,"ests":2801,"Ġpec":2802,"Ã©":2803,"Ġfat":2804,"idered":2805,"ĠJack":2806,"itation":2807,"Ġletters":2808,"Ġladies":2809,"His":2810,"ford":2811,"Ġbreath":2812,"pass":2813,"illy":2814,"Ġmer":2815,"Ġpleasant":2816,"Ġfavour":2817,"Ġstreet":2818,"back":2819,"Ġeffort":2820,"Ġfit":2821,"IL":2822,"Ġcru":2823,"zz":2824,"somet":2825,"Ġsav":2826,"cceed":2827,"Ġsnow":2828,"ented":2829,"rey":2830,"ners":2831,"Ġhung":2832,"pri":2833,"Ġscene":2834,"rid":2835,"urope":2836,"Ġresol":2837,"itary":2838,"Ġrap":2839,"roy":2840,"Ġsimple":2841,"ĠAm":2842,"ĠRob":2843,"Ġsole":2844,"rodu":2845,"lend":2846,"ĠĠĠĠĠĠĠĠĠ":2847,"ales":2848,"ris":2849,"atic":2850,"Ġhun":2851,"hold":2852,"Ġviol":2853,"Ġplaces":2854,"lling":2855,"alley":2856,"uge":2857,"Ġhistory":2858,"...":2859,"Ġrecogn":2860,"good":2861,"Ġemb":2862,"Ġsuffic":2863,"formed":2864,"ĠPeter":2865,"Ġarrived":2866,"Ġpap":2867,"ĠMan":2868,"Ġtalking":2869,"Ġguard":2870,"Ġshook":2871,"Ġexpression":2872,"Ġgrace":2873,"Ġcircumstances":2874,"Ġobserved":2875,"Ġfuture":2876,"orough":2877,"Ġwouldn":2878,"Ġraised":2879,"Ġoccur":2880,"een":2881,"ague":2882,"Ah":2883,"rs":2884,"Ġbeside":2885,"Ġpop":2886,"ĠZ":2887,"Ġpassion":2888,"Ġutter":2889,"Ġrid":2890,"Ġfal":2891,"Ġworse":2892,"nat":2893,"imate":2894,"Ġcoun":2895,"jo":2896,"Ġcou":2897,"pers":2898,"Ġshot":2899,"Ġ|":2900,"Let":2901,"Ġsky":2902,"reet":2903,"Ġafternoon":2904,"ĠHen":2905,"Ġaltogether":2906,"worth":2907,"Ġspeaking":2908,"Ġexpress":2909,"might":2910,"Ġplease":2911,"Ġafterwards":2912,"Don":2913,"Ġminute":2914,"Ġmess":2915,"known":2916,"Ġfilled":2917,"Al":2918,"Ġfancy":2919,"Ġbroad":2920,"Ġgiving":2921,"Ġsin":2922,"Ġvillage":2923,"ribut":2924,"Ġdoctor":2925,"Ġer":2926,"EL":2927,"Ġkiss":2928,"aste":2929,"did":2930,"Ġfle":2931,"ean":2932,"Ġsorry":2933,"Ġsurprise":2934,"cr":2935,"Ġneg":2936,"âĢĺ":2937,"Ġincre":2938,"uded":2939,"Ġuncle":2940,"dist":2941,"ruct":2942,"Ġbeginning":2943,"much":2944,"ĠFrom":2945,"Ġdim":2946,"Ġstream":2947,"Ġbooks":2948,"Ġgen":2949,"Ġgirls":2950,"Ġsusp":2951,"Be":2952,"Ġcouldn":2953,"Ġhang":2954,"ĠGl":2955,"Ġstrugg":2956,"idly":2957,"Ġtears":2958,"Ġsick":2959,"itable":2960,"ora":2961,"ett":2962,"icate":2963,"Ġleaving":2964,"ĠGerman":2965,"may":2966,"ĠAb":2967,"Ġgarden":2968,"Ġpock":2969,"Ġfamil":2970,"ulation":2971,"Ġdepart":2972,"Ġturning":2973,"Ġadmir":2974,"Ġfun":2975,"Ġbattle":2976,"olly":2977,"Ġconsequ":2978,"eless":2979,"Ġcorner":2980,"umed":2981,"iction":2982,"Ġemploy":2983,"Ġspecies":2984,"mar":2985,"ption":2986,"ueen":2987,"Ġpath":2988,"IC":2989,"overn":2990,"Ġfly":2991,"Ġoutside":2992,"alled":2993,"Ġlives":2994,"ĠPhil":2995,"Ġty":2996,"antage":2997,"Ġshut":2998,"such":2999,"Ġprincip":3000,"ils":3001,"ĠYet":3002,"rif":3003,"gment":3004,"inite":3005,"ranger":3006,"Ġjourney":3007,"Ġoffice":3008,"Ġprev":3009,"asp":3010,"ND":3011,"Ġlooks":3012,"Ġsmo":3013,"Ġentirely":3014,"mber":3015,"Ġconversation":3016,"made":3017,"Ġgod":3018,"Ġtrying":3019,"sl":3020,"Ġwrote":3021,"ĠPl":3022,"bey":3023,"add":3024,"Ġisn":3025,"Ġ8":3026,"Ġdeclared":3027,"wr":3028,"bar":3029,"bly":3030,"bing":3031,"ĠMay":3032,"Ġmiss":3033,"ING":3034,"Ġperiod":3035,"Ġaction":3036,"By":3037,"Ġpaid":3038,"Ġlean":3039,"through":3040,"Ġhall":3041,"Ġeager":3042,"Ġsake":3043,"Ġeasily":3044,"Ġespecially":3045,"Ġ7":3046,"Ġgenerally":3047,"Ġign":3048,"Ġfro":3049,"Ġthird":3050,"Ch":3051,"elled":3052,"Ġpeculiar":3053,"Ġnation":3054,"rav":3055,"Ġescape":3056,"Ġsymp":3057,"ĠPrince":3058,"retched":3059,"Ġi":3060,"note":3061,"Ġvarious":3062,"Ġliter":3063,"Ġla":3064,"Ġmut":3065,"Ġconduct":3066,"Ġpale":3067,"Ġmil":3068,"Ġimmediately":3069,"Ġoblig":3070,"uation":3071,"Ġbeneath":3072,"Ġinstant":3073,"ades":3074,"Ġcondition":3075,"Ġscarcely":3076,"ram":3077,"Ġreply":3078,"Ġrate":3079,"Ġprec":3080,"rect":3081,"Ġabsolute":3082,"iant":3083,"Ġhero":3084,"ashed":3085,"Ġlearned":3086,"Ġspeech":3087,"bes":3088,"Ġapparent":3089,"Ġpiece":3090,"Ġquickly":3091,"Ġconcern":3092,"Ġfaint":3093,"Ġconn":3094,"Ġpersons":3095,"Ġprevent":3096,"enn":3097,"osop":3098,"Ġdirection":3099,"18":3100,"Ġsmiled":3101,"stem":3102,"ĠAmerican":3103,"ĠCan":3104,"Ġlif":3105,"Ġcharge":3106,"Ġsucceed":3107,"ille":3108,"rec":3109,"don":3110,"ĠFrance":3111,"Ġmarry":3112,"Ġperfectly":3113,"clock":3114,"Ġmoon":3115,"Ġenter":3116,"eds":3117,"looking":3118,"char":3119,"ĠChristian":3120,"ĠEurope":3121,"Ġobt":3122,"without":3123,"Ġii":3124,"Ġparts":3125,"!--":3126,"Ġvain":3127,"Here":3128,"Ġprivate":3129,"Ġcapt":3130,"lected":3131,"Ġtouch":3132,"ument":3133,"idently":3134,"Ġfloor":3135,"Ġris":3136,"Ġtall":3137,"spir":3138,"Ġstop":3139,"Ġexactly":3140,"Ġspoken":3141,"Ġhonest":3142,"One":3143,"gel":3144,"ox":3145,"chief":3146,"two":3147,"ĠEl":3148,"Ġcompanion":3149,"Ġfood":3150,"oses":3151,"After":3152,"Ġunless":3153,"Ġlines":3154,"Ġchanged":3155,"Ġsupposed":3156,"ĠEm":3157,"Ġterrible":3158,"anch":3159,"Ġfirm":3160,"pered":3161,"Ġcost":3162,"Ġban":3163,"seem":3164,"Ġsociety":3165,"ĠPe":3166,"ĠColonel":3167,"work":3168,"Ġvict":3169,"Ġwished":3170,"Ġwise":3171,"Ġrepeated":3172,"Ġspring":3173,"estions":3174,"these":3175,"Ġproc":3176,"Ġsimply":3177,"velop":3178,"ails":3179,"hant":3180,"essel":3181,"Ġfallen":3182,"iently":3183,"Ġearnest":3184,"must":3185,"ancing":3186,"Ġthank":3187,"ipped":3188,"Ġid":3189,"Ġrunning":3190,"Ġrepresent":3191,"Ġfashion":3192,"ointed":3193,"lly":3194,"Ġfright":3195,"ator":3196,"Ġforest":3197,"Ġcalm":3198,"ĠQu":3199,"\"'":3200,"cher":3201,"anted":3202,"Ġpleased":3203,"osite":3204,"Ġtender":3205,"Ġunderstood":3206,"Ġwand":3207,"Ġdom":3208,"Ġhabit":3209,"stone":3210,"Ġmarriage":3211,"Ġpursu":3212,"ĠHouse":3213,"umb":3214,"Ġbank":3215,"ieve":3216,"Ġneck":3217,"Ġkilled":3218,"yn":3219,"Ġcurious":3220,"say":3221,"Ġmatters":3222,"--------":3223,"Ġet":3224,"onder":3225,"Ġbitter":3226,"ĠWhere":3227,"ividual":3228,"Ġgentlemen":3229,"Ġkill":3230,"Ġvessel":3231,"Ġdifficulty":3232,"ites":3233,"Ġnotice":3234,"Ġfeelings":3235,"rig":3236,"Ġfixed":3237,"Ġlower":3238,"col":3239,"Ġmain":3240,"ĠSha":3241,"Ġdare":3242,"ousin":3243,"ral":3244,"Ġcivil":3245,"ication":3246,"ĠQueen":3247,"Ġburst":3248,"Ġinfluence":3249,"Ġmaid":3250,"Ġsummer":3251,"ingu":3252,"friend":3253,"Ġnarrow":3254,"af":3255,"fortun":3256,"ibility":3257,"Ġcheer":3258,"Ġwalls":3259,"occ":3260,"Ġhealth":3261,"Ġmel":3262,"first":3263,"Ġears":3264,"Ġsteps":3265,"Ġmiddle":3266,"por":3267,"gain":3268,"Ġcler":3269,"rop":3270,"Ġvan":3271,"Ġimportant":3272,"Ġfier":3273,"Ġpure":3274,"Ġextreme":3275,"sit":3276,"Ġleaves":3277,"ien":3278,"Ġallowed":3279,"gress":3280,"ipp":3281,"rap":3282,"Ġanxious":3283,"nothing":3284,"ember":3285,"Ġdistinct":3286,"ST":3287,"itive":3288,"leep":3289,"Ġreach":3290,"ortunity":3291,"inst":3292,"reen":3293,".âĢĿ":3294,"Ġvirt":3295,"ky":3296,"Ġbeat":3297,"Ġbelieved":3298,"Ġpit":3299,"ashing":3300,"Ġapart":3301,"Ġshadow":3302,"rep":3303,"aled":3304,"Ġlying":3305,"field":3306,"aly":3307,"Ġdrawing":3308,"Ġsepar":3309,"Ġpun":3310,"Ġborn":3311,"antic":3312,"nce":3313,"Ġthrew":3314,"Ġexperience":3315,"Ġgrass":3316,"ĠJames":3317,"Ġallow":3318,"Ġpicture":3319,"Ġarg":3320,"itor":3321,"Ġhath":3322,"Ġtrain":3323,"Ġbecom":3324,"acher":3325,"oted":3326,"ĠHarry":3327,"law":3328,"Ġball":3329,"Ġhost":3330,"Ġrain":3331,"Ġremarked":3332,"Ġiron":3333,"ishment":3334,"Ġmurm":3335,"Ġcat":3336,"Ġflowers":3337,"Ġsand":3338,"Ġconsidered":3339,"key":3340,"ium":3341,"Ġstat":3342,"Ġbow":3343,"Ġtemper":3344,"tering":3345,"Ġconscious":3346,"Ġproud":3347,"Ġrace":3348,":--":3349,"Ġclaim":3350,"erve":3351,"vation":3352,"round":3353,"Ġmusic":3354,"arily":3355,"OL":3356,"Ġpassage":3357,"Ġpi":3358,"Ġdegree":3359,"Ġserious":3360,"rees":3361,"Foot":3362,"Ġvent":3363,"aving":3364,"Ġancient":3365,"Ġsharp":3366,"acc":3367,"Ġfalse":3368,"Ġclosed":3369,"Ġmill":3370,"vey":3371,"Ġharm":3372,"Ġquietly":3373,"Ġwatched":3374,"Ġgate":3375,"Ġwonderful":3376,"eav":3377,"Ġchap":3378,"Ġdifference":3379,"Ġglance":3380,"keep":3381,"TH":3382,"Ġfifty":3383,"ding":3384,"Ġoffer":3385,"Ġresp":3386,"arest":3387,"uses":3388,"Ġstranger":3389,"elve":3390,"Ġloss":3391,"ann":3392,"Ġourselves":3393,"Ġpromise":3394,"Ġdarkness":3395,"Ġways":3396,"omen":3397,"Ġstro":3398,"Ġain":3399,"Ġlanguage":3400,"ees":3401,"Ġtong":3402,"Ġbox":3403,"ĠBritish":3404,"Ġseat":3405,"Ġvast":3406,"Ġimpro":3407,"Ġloud":3408,"ĠDuke":3409,"dif":3410,"sur":3411,"ĠWho":3412,"Ġdrawn":3413,"Ġwriting":3414,"Ġnorth":3415,"Ġpra":3416,"Ġcovered":3417,"ify":3418,"Ġagree":3419,"bro":3420,"Ġyours":3421,"Ġgro":3422,"ception":3423,"Ġphys":3424,"Ġconce":3425,"irth":3426,"Ġseven":3427,"Ġpassing":3428,"Ġspite":3429,"Ġformed":3430,"orse":3431,"umn":3432,"ĠGu":3433,"kin":3434,"Ġtalked":3435,"Ġbell":3436,"Ġfem":3437,"Ġexcell":3438,"Where":3439,"aves":3440,"Ã¦":3441,"Ġpresently":3442,"Ġfond":3443,"Ġpress":3444,"Ġrise":3445,"Ġgame":3446,"asc":3447,"view":3448,"Ġfra":3449,"Footnote":3450,"supp":3451,"Ġengaged":3452,"Ġdetermined":3453,"Ġhy":3454,"ker":3455,"Ġstar":3456,"Ġmemory":3457,"ajesty":3458,"ĠJim":3459,"Ġdecided":3460,"fle":3461,"Ġcrit":3462,"isto":3463,"hum":3464,"ilar":3465,"Ġdue":3466,"erable":3467,"Ġdesert":3468,"Ġoffered":3469,"Ġgrou":3470,"Ġhouses":3471,"Ġappl":3472,"Ġdropped":3473,"Ġguess":3474,"orne":3475,"Ġrough":3476,"OM":3477,"Ġgovernment":3478,"Ġcreature":3479,"ĠYork":3480,"Ġfurn":3481,"Ġspent":3482,"iven":3483,"Ġmodern":3484,"play":3485,"Ġcra":3486,"sub":3487,"Who":3488,"Ġtrou":3489,"Ġdry":3490,"aked":3491,"Ġphil":3492,"Ġcatch":3493,"being":3494,"Ġfol":3495,"Ġap":3496,"ĠTr":3497,"Ġempt":3498,"Ġclothes":3499,"ulous":3500,"ounced":3501,"ĠIndian":3502,"Ġheads":3503,"osity":3504,"Ġmountain":3505,"ĠEvery":3506,"Ġreck":3507,"ĠLa":3508,"Ġorders":3509,"ĠWest":3510,"Ġaffection":3511,"ichard":3512,"Ġpocket":3513,"fall":3514,"those":3515,"dec":3516,"Ġlot":3517,"arl":3518,"ocks":3519,"spe":3520,"Ġmot":3521,"ĠSh":3522,"half":3523,"soci":3524,"turn":3525,"Ġproduced":3526,"reek":3527,"ĠMart":3528,"Ġassist":3529,"ĠWilliam":3530,"icated":3531,"lar":3532,"Ġcases":3533,"ED":3534,"cience":3535,"Ġforms":3536,"ĠHenry":3537,"Ġsearch":3538,"inging":3539,"Ġspread":3540,"ĠEven":3541,"Ġcustom":3542,"Ġsystem":3543,"Ġproperty":3544,"something":3545,"ulated":3546,"Ġdescend":3547,"Ġhid":3548,"Ġdiscovered":3549,"Ġbirds":3550,"urally":3551,"Ġpride":3552,"agg":3553,"Ġblow":3554,"Ġeld":3555,"III":3556,"Ġfault":3557,"Ġsword":3558,"sed":3559,"ĠYes":3560,"Ġvalley":3561,"Eng":3562,"hern":3563,"Ġliked":3564,"Ġreading":3565,"Ġ16":3566,"Ġfortune":3567,"pan":3568,"Ġsorrow":3569,"Ġadvent":3570,"Ġshoulder":3571,"Ġbold":3572,"Ġcolour":3573,"inci":3574,"formation":3575,"aret":3576,"oned":3577,"Ġstick":3578,"Ar":3579,"uted":3580,"Ġstir":3581,"Ġbottom":3582,"ĠSm":3583,"away":3584,"aterial":3585,"Ġpersonal":3586,"mitted":3587,"Ġappre":3588,"Ġangry":3589,"mind":3590,"ĠParis":3591,"raph":3592,"Ġur":3593,"Ġbreakfast":3594,"Ġprepared":3595,"hest":3596,"tw":3597,"Ġcommun":3598,"Ġgreatest":3599,"Ġthin":3600,"Ġaston":3601,"AM":3602,"Ġ-":3603,"Ġaccording":3604,"acing":3605,"Ġwaited":3606,"Ġfrequ":3607,"nec":3608,"Ġfru":3609,"Ġblind":3610,"oid":3611,"Ġbab":3612,"Ġaware":3613,"Ġbeast":3614,"lt":3615,"iments":3616,"Ġones":3617,"ere":3618,"Ġwinter":3619,"Ġforgotten":3620,"found":3621,"Ġadvantage":3622,"ushing":3623,"ĠFather":3624,"Ġopposite":3625,"Ġpounds":3626,"pet":3627,"Ġsplend":3628,"Ġsong":3629,"Ġshare":3630,"athy":3631,"Ġreve":3632,"arther":3633,"Ġthrown":3634,"Ġthirty":3635,"ethod":3636,"Ġknowing":3637,"000":3638,"Ġstation":3639,"Ġrising":3640,"Ġestab":3641,"Ġwine":3642,"Ġbreast":3643,"ĠSw":3644,"Ġdiscuss":3645,"attered":3646,"ux":3647,"last":3648,"Ġ9":3649,"Come":3650,"Ġsurprised":3651,"Ġ10":3652,"Ġbrave":3653,"Ġworks":3654,"Ġant":3655,"enance":3656,"erved":3657,"Ġpity":3658,"Ġdam":3659,"Ġquarter":3660,"eces":3661,"eg":3662,"Ġevidence":3663,"Ġthro":3664,"ĠCha":3665,"Ġmoral":3666,"Ġsettled":3667,"Ġmeeting":3668,"Ġhigher":3669,",âĢĿ":3670,"Ġdust":3671,"llen":3672,"Ġjudge":3673,"ishop":3674,"Ġcand":3675,"Ġwear":3676,"Ġignor":3677,"Ġnames":3678,"Ġfinished":3679,"ĠSpan":3680,"Ġstudy":3681,"itution":3682,"Ġattend":3683,"Ġcover":3684,"leg":3685,"?--":3686,"fit":3687,"Ġspace":3688,"Ġwid":3689,"Ġlose":3690,"Ġjustice":3691,"Ġshown":3692,"Ġaunt":3693,"Ġremembered":3694,"Ġintrodu":3695,"Ġband":3696,"ION":3697,"Ġnice":3698,"Ġindividual":3699,"Ġinterrupt":3700,"still":3701,"ailed":3702,"iny":3703,"ĠLou":3704,"Ġintended":3705,"Ġmonth":3706,"ĠGeneral":3707,"iring":3708,"boy":3709,"quis":3710,"Ġcourage":3711,"Ġdoll":3712,"Ġfaces":3713,"oyal":3714,"Ġph":3715,"ses":3716,"ĠCount":3717,"Ġsoldiers":3718,"Ġsouth":3719,"Ġgreatly":3720,"AD":3721,"Ġweather":3722,"Ġfacts":3723,"Miss":3724,"conc":3725,"istic":3726,"Ġterms":3727,"eas":3728,"Ġtea":3729,"ables":3730,"Ġordinary":3731,"Ġextra":3732,"Ġsolemn":3733,"ait":3734,"Ġdepend":3735,"Ġess":3736,"course":3737,"Ġbill":3738,"using":3739,"Ġmagn":3740,"Her":3741,"Ġlaws":3742,"Ġofficer":3743,"acious":3744,"Ġamount":3745,"water":3746,"Ġweeks":3747,"Ġobliged":3748,"bury":3749,"ordinary":3750,"Ġnative":3751,"Ġmort":3752,"Ġinno":3753,"Ġvalue":3754,"fact":3755,"Ġbare":3756,"Ġheight":3757,"Ġtaste":3758,"Ġopportunity":3759,"Ġdeb":3760,"essor":3761,"Ġbrown":3762,"Ġpack":3763,"Ġmeaning":3764,"sw":3765,"Your":3766,"Ġregular":3767,"came":3768,"Ġhurt":3769,"Ġmotion":3770,"Ġ15":3771,"Ġwel":3772,"Ġofficers":3773,"ruction":3774,"mother":3775,"ĠChurch":3776,"Ġinstance":3777,"Ġaffairs":3778,"Ġluck":3779,"Ġcruel":3780,"hether":3781,"Ġwhispered":3782,"ification":3783,"Ġequal":3784,"Ġcred":3785,"athered":3786,"icious":3787,"Ġrail":3788,"Ġclim":3789,"Ġproved":3790,"Ġbread":3791,"umber":3792,"ĠFrank":3793,"ste":3794,"because":3795,"ĠAND":3796,"isters":3797,"ading":3798,"Ġholding":3799,"Ġreceive":3800,"Ġspirits":3801,"ĠEx":3802,"Ġpointed":3803,"del":3804,"Ġbesides":3805,"Ġ&":3806,"Ġendeav":3807,"Ġwalking":3808,"ĠTheir":3809,"Ġwasn":3810,"Ġideas":3811,"people":3812,"agement":3813,"Ġsituation":3814,"Ġtired":3815,"Ġforced":3816,"OT":3817,"Ġprove":3818,"Ġquestions":3819,"asons":3820,"Ġfate":3821,"Ġkeeping":3822,"host":3823,"Ġshoulders":3824,"sat":3825,"Ġhills":3826,"orious":3827,"Ġsuggested":3828,"ok":3829,"theless":3830,"wind":3831,"ferent":3832,"__":3833,"Ġdeck":3834,"ĠScot":3835,"Ġservant":3836,"ardon":3837,"Ġrode":3838,"Ġphilosop":3839,"Ġsilver":3840,"Ġtroops":3841,"Ġcrossed":3842,"IR":3843,"ĠXX":3844,"bell":3845,"another":3846,"life":3847,"Ġexistence":3848,"Ġlies":3849,"Ġaside":3850,"vis":3851,"ainted":3852,"Ġeduc":3853,"Ġweight":3854,"hens":3855,"igned":3856,"child":3857,"ems":3858,"Ġfamiliar":3859,"cing":3860,"Ġcomb":3861,"Ġtwelve":3862,"Ġdistant":3863,"Ġroof":3864,"Ġclean":3865,"Ġintellig":3866,"aper":3867,"ĠCharles":3868,"Ġ12":3869,"tis":3870,"conf":3871,"Ġsmoke":3872,"Ġshame":3873,"Ġtouched":3874,"acle":3875,"Ġedge":3876,"ye":3877,"Ġalive":3878,"asant":3879,"ĠOld":3880,"Ġaffair":3881,"Ġanimals":3882,"Ġcabin":3883,"ortion":3884,"Ġdign":3885,"udden":3886,"Ġyellow":3887,"Ġcaused":3888,"Ġbod":3889,"epend":3890,"ĠDan":3891,"Ġfingers":3892,"Ġrocks":3893,"Ġexample":3894,"ĠHeaven":3895,"Ġworst":3896,"Ġhappiness":3897,"Ġgrat":3898,"IV":3899,"Ġlegs":3900,"Ġtelling":3901,"Ġcop":3902,"Ġanimal":3903,"vi":3904,"Ġcousin":3905,"Ġpromised":3906,"Ġnobody":3907,"Ġgives":3908,"ĠPaul":3909,"ĠLuc":3910,"Ġreport":3911,"Ġknight":3912,"shall":3913,"standing":3914,"ĠYour":3915,"Ġexplained":3916,"Ġleap":3917,"Ġwilling":3918,"Ġpair":3919,"Ġotherwise":3920,"Ġreader":3921,"Ġlover":3922,"Ġcott":3923,"rose":3924,"ĠAmerica":3925,"Ġcoat":3926,"AS":3927,"aval":3928,"Ġstern":3929,"Ġswift":3930,"UR":3931,"astle":3932,"Ġwoods":3933,"Ġrevol":3934,"reck":3935,"Ġgloom":3936,"terday":3937,"Ġaddress":3938,"Ġtwice":3939,"ĠDav":3940,"stairs":3941,"lo":3942,"ipe":3943,"Ġtakes":3944,"lection":3945,"enth":3946,"Ġdestroy":3947,"Ġcoast":3948,"Ġoper":3949,"Good":3950,"Ġarrange":3951,"ĠFran":3952,"interest":3953,"Ġcrown":3954,"Ġdull":3955,"ĠCour":3956,"Sir":3957,"hib":3958,"Ġspeed":3959,"Ġwitness":3960,"Ġdistur":3961,"Ġtongue":3962,"isc":3963,"Ġbuilt":3964,"Ġsides":3965,"Ġagreed":3966,"jud":3967,"Ġcarriage":3968,"10":3969,"Ġfill":3970,"Ġconsiderable":3971,"Ġimper":3972,"Ġdistingu":3973,"Ġapparently":3974,"Ġlisten":3975,"mission":3976,"Ġevidently":3977,"Ġwatching":3978,"amb":3979,"Ġarch":3980,"Ġsteam":3981,"Ġhaven":3982,"things":3983,"Ġthreat":3984,"book":3985,"ENT":3986,"ĠBo":3987,"lin":3988,"ias":3989,"ugust":3990,"Ġempty":3991,"Ġhurried":3992,"ability":3993,"Ġfarther":3994,"Ġauthority":3995,"Ġhate":3996,"habit":3997,"Ġartic":3998,"Ġasp":3999,"Ġheat":4000,"Ġpapers":4001,"Ġhide":4002,"Ġconfidence":4003,"ĠCr":4004,"Ġdevelop":4005,"Ġgrad":4006,"',":4007,"Ġstreets":4008,"Ġpubl":4009,"ĠOur":4010,"Ġcool":4011,"Ġattract":4012,"nal":4013,"17":4014,"Ġstore":4015,"Ġsocial":4016,"Ġsaved":4017,"ĠRichard":4018,"Ġrule":4019,"aries":4020,"Ġmighty":4021,"unch":4022,"Ġsufficient":4023,"happy":4024,"Ġinteresting":4025,"Ġreligion":4026,"Ġcow":4027,"Ġbull":4028,"ĠBen":4029,"Ġparent":4030,"Ġpet":4031,"Ġsubst":4032,"Ġwants":4033,"yal":4034,"respond":4035,"Ġhappen":4036,"Ġworking":4037,"Ġpoints":4038,"Ġwealth":4039,"Ġpossession":4040,"liament":4041,"ouring":4042,"Ġhesit":4043,"Ġmountains":4044,"Ġ19":4045,"Ġdevil":4046,"pany":4047,"Ġride":4048,"Ġsurely":4049,"Ġspecial":4050,"Ġexcellent":4051,"Ġmentioned":4052,"Ġputting":4053,"ival":4054,"suff":4055,"ĠThus":4056,"itement":4057,"thur":4058,"against":4059,"usted":4060,"Ġimagine":4061,"Ġgrey":4062,"Ind":4063,"Ġnose":4064,"ĠPres":4065,"Ġworthy":4066,"ĠMaster":4067,"Ġdoesn":4068,"Ġinj":4069,"cal":4070,"Ġfinding":4071,"ččĊ":4072,"Ġlod":4073,"uzz":4074,"foll":4075,"Ġbless":4076,"Ġow":4077,"Ġsupport":4078,"ĠHad":4079,"Ġfailed":4080,"board":4081,"order":4082,"Ġdrive":4083,"ĠPerhaps":4084,"Ġtrade":4085,"three":4086,"ules":4087,"ground":4088,"acity":4089,"gged":4090,"Ġyards":4091,"iber":4092,"Ġregret":4093,"Ġfellows":4094,"overnment":4095,"urely":4096,"Ġfully":4097,"Ġordered":4098,"Ġforty":4099,"Ġorgan":4100,"Ġinstinct":4101,"Ġhandsome":4102,"held":4103,"Ġdozen":4104,"God":4105,"Ġacquaint":4106,"Ġmyst":4107,"Ġmoments":4108,"Ġpictures":4109,"Ġgrown":4110,"young":4111,"Ġwin":4112,"Ġrob":4113,"ĠThom":4114,"Ġthorough":4115,"Ġopening":4116,"ĠMac":4117,"Ġmaterial":4118,"aker":4119,"Ġforeign":4120,"bid":4121,"Ġsty":4122,"Ġstock":4123,"Ġbrief":4124,"Ġoccurred":4125,"Ġodd":4126,"eling":4127,"inted":4128,"Ġfierce":4129,"Ġring":4130,"Ġlistened":4131,"Ġwore":4132,"four":4133,"eping":4134,"Ġnoticed":4135,"ĠWal":4136,"Ġfish":4137,"iest":4138,"too":4139,"Ġcook":4140,"Ġrom":4141,"ĠBur":4142,"ĠGood":4143,"oop":4144,"make":4145,"inal":4146,"umph":4147,"ĠNorth":4148,"Ġwindows":4149,"orous":4150,"Ġwicked":4151,"Ġrare":4152,"Ġsavage":4153,"Ġhearts":4154,"Ġbent":4155,"opp":4156,"Ġshape":4157,"Ġbuilding":4158,"Ġassu":4159,"--'":4160,"Ġsuffer":4161,"Ġsatisfied":4162,"Ġsimilar":4163,"esides":4164,"erson":4165,"ulf":4166,"Ġnearer":4167,"Ġsurface":4168,"Ġdwell":4169,"Ġpossess":4170,"Ġsuspect":4171,"ĠWar":4172,"going":4173,"seen":4174,"Ġdrove":4175,"adv":4176,"Ġadvanced":4177,"Ġthrow":4178,"take":4179,"AC":4180,"unday":4181,"ĠGreat":4182,"Ġproof":4183,"tell":4184,"ĠSee":4185,"Ġabsolutely":4186,"Ġdism":4187,"Ġmovement":4188,"Ġhither":4189,"Ġstage":4190,"ander":4191,"serv":4192,"Ġsex":4193,"Ġlibert":4194,"Will":4195,"Ġz":4196,"ĠBrown":4197,"fa":4198,"ĠStill":4199,"bits":4200,"cond":4201,"Ġshoot":4202,"ndered":4203,"bu":4204,"Ġnoise":4205,"Ġstorm":4206,"Ġmethod":4207,"Ġdi":4208,"Ġhuge":4209,"necess":4210,"Ġspect":4211,"ais":4212,"ips":4213,"kins":4214,"mas":4215,"Ġnodd":4216,"Ġcontent":4217,"Ġep":4218,"Ġnovel":4219,"Ġrelief":4220,"ĠMor":4221,"Ġjudgment":4222,"Ġaud":4223,"estic":4224,"war":4225,"Ġdemanded":4226,"aud":4227,"Ġfanc":4228,"erous":4229,"Ġcouple":4230,"RO":4231,"Ġexec":4232,"ĠWil":4233,"ieved":4234,"looked":4235,"Ġteeth":4236,"Ġsettle":4237,"\"--":4238,"Ġdiscover":4239,"bus":4240,"From":4241,"woman":4242,"always":4243,"Ġbelief":4244,"Ġexplain":4245,"Ġsoldier":4246,"Ġpick":4247,"Ġbore":4248,"Ġadmitted":4249,"Ġusually":4250,"Ġener":4251,"Ġhotel":4252,"ustomed":4253,"Ġwest":4254,"15":4255,"between":4256,"Ġaid":4257,"atures":4258,"Ġglory":4259,"Ġanybody":4260,"cript":4261,"Ġho":4262,"ape":4263,"Ġbid":4264,"asped":4265,"Ġconqu":4266,"Ġequally":4267,"llustr":4268,"ĠSuch":4269,"tle":4270,"urd":4271,"Ġminds":4272,"Ġgrowing":4273,"Ġdriven":4274,"Ġfavor":4275,"Ġactually":4276,"Ġdesper":4277,"Ġtit":4278,"rows":4279,"many":4280,"Ġpolitical":4281,"Ġjoined":4282,"Ġupper":4283,"Ġexpressed":4284,"yl":4285,"Ġprince":4286,"Mar":4287,"Ġworked":4288,"ĠStreet":4289,"expected":4290,"Ġx":4291,"ĠBill":4292,"ĠRed":4293,"Ġpaused":4294,"Ġmoving":4295,"five":4296,"Ġpos":4297,"Ġvig":4298,"cir":4299,"far":4300,"oices":4301,"esh":4302,"Ġtest":4303,"Ġfarm":4304,"world":4305,"Did":4306,"fulness":4307,"Ġbusy":4308,"Ġinn":4309,"reedom":4310,"mb":4311,"ugg":4312,"Ġsmiling":4313,"Ġtruly":4314,".[":4315,"Ġnaturally":4316,"Ġappears":4317,"Ġpersu":4318,"conscious":4319,"inn":4320,"ational":4321,"ĠIN":4322,"Ġafford":4323,"chen":4324,"perhaps":4325,"Ġdisg":4326,"Ġexerc":4327,"Ġbuy":4328,"Ġshel":4329,"Ġseek":4330,"ĠCome":4331,"Ġgolden":4332,"ental":4333,"Ġsquare":4334,"Ġjoin":4335,"Ġmyster":4336,"Ġportion":4337,"Ġsooner":4338,"Ġcarefully":4339,"eer":4340,"Ġevents":4341,"Ġder":4342,"oring":4343,"Ġfoolish":4344,"atr":4345,"Ġprogress":4346,"Ġlifted":4347,"country":4348,"top":4349,"Ġlog":4350,"pres":4351,"Ġadvance":4352,"ĠMon":4353,"ranged":4354,"Ġsuit":4355,"Ġassured":4356,"Ġceased":4357,"ĠHigh":4358,"Ġseized":4359,"Ġaut":4360,"erry":4361,"itiz":4362,"Ġdangerous":4363,"Ġkeen":4364,"Ġplayed":4365,"Ġyield":4366,"Ġadvice":4367,"Ġpage":4368,"sing":4369,"Ġbegun":4370,"Ġgle":4371,"Ġmarked":4372,"Ġentertain":4373,"ealous":4374,"ĠSte":4375,"moment":4376,"lessly":4377,"Ġinside":4378,"Ġimportance":4379,"Ġhonor":4380,"Ġ14":4381,"abs":4382,"Ġfinally":4383,"Ġadmit":4384,"Ġtaught":4385,"Ġprefer":4386,"Ġtempt":4387,"Ġawful":4388,"Ġfighting":4389,"cil":4390,"foot":4391,"iance":4392,"Ġlaughing":4393,"comfort":4394,"Ġaccident":4395,"Ġsympathy":4396,"ternal":4397,"Ġsuffered":4398,"Ġleading":4399,"Ġpowers":4400,"Ġservants":4401,"eyes":4402,"Ġpieces":4403,"cur":4404,"ĠâĢĺ":4405,"Ġsigh":4406,"Ġflat":4407,"Ġdirectly":4408,"Ġdressed":4409,"ĠHall":4410,"Ġroyal":4411,"Ġgathered":4412,"pret":4413,"Ġsuspic":4414,"Ġnamed":4415,"Ġrank":4416,"Ġdreadful":4417,"Ġoccupied":4418,"Ġmir":4419,"met":4420,"Ġtale":4421,"Ġwounded":4422,"verse":4423,"Ġremind":4424,"ldom":4425,"Ġtail":4426,"Ġgar":4427,"pur":4428,"ensive":4429,"Ġmeasure":4430,"Ġeverybody":4431,"inciples":4432,"Ġcastle":4433,"Ġble":4434,"rate":4435,"Ġgather":4436,"Ġ13":4437,"Ġremarkable":4438,"These":4439,"icks":4440,"mod":4441,"inking":4442,"ĠJust":4443,"Very":4444,"Ġstead":4445,"Ġcompar":4446,"Ġships":4447,"Ġflo":4448,"ĠStates":4449,"Ġsucceeded":4450,"ustri":4451,"Ġinquir":4452,"Ġtran":4453,"ik":4454,"Ġobey":4455,"aver":4456,"ef":4457,"iosity":4458,"ĠSouth":4459,"Ġmile":4460,"Ġlear":4461,"ĠâĢĻ":4462,"yer":4463,"Ġmistake":4464,"Ġserve":4465,"fam":4466,"ĠRome":4467,"ĠRobert":4468,"Ġthinks":4469,"uddenly":4470,"Ġsingular":4471,"ology":4472,"Ġguns":4473,"went":4474,"rant":4475,"Ġresem":4476,"poss":4477,"Some":4478,"ams":4479,"Ġregarded":4480,"Ġknees":4481,"cis":4482,"Ġtum":4483,"Ġappeal":4484,"Ġmidst":4485,"ĠNe":4486,"Ġpause":4487,"Ġtur":4488,"Ġdesign":4489,"Ġseason":4490,"gypt":4491,"seemed":4492,"wild":4493,"pes":4494,"Ġdoct":4495,"Ġhopes":4496,"Ġwelcome":4497,"Ġlevel":4498,"Ġplants":4499,"Ġconcerned":4500,"etch":4501,"Ġshouted":4502,"Ġpulled":4503,"Ġcapital":4504,"put":4505,"abel":4506,"step":4507,"astic":4508,"low":4509,"Ġsupper":4510,"ĠMore":4511,"Ġoriginal":4512,"isher":4513,"Never":4514,"ĠNature":4515,"cy":4516,"Ġimpat":4517,"Ġabsence":4518,"Ġcountenance":4519,"ĠAnne":4520,"hall":4521,"Ġsize":4522,"ĠMarch":4523,"rol":4524,"Ġpartly":4525,"Ġnine":4526,"ĠBell":4527,"ville":4528,"ivered":4529,"Ġpot":4530,"Ġkindly":4531,"Ġsuperior":4532,"Ġpalace":4533,"ĠMajesty":4534,"Ġimpression":4535,"ĠIr":4536,"Ġpopular":4537,"Ġproceeded":4538,"Ġindign":4539,"Ġhearing":4540,"Ġfalling":4541,"mond":4542,"GE":4543,"ĠNever":4544,"Ġbrain":4545,"Ġhol":4546,"Ġrequired":4547,"Ġbirth":4548,"Ġmaint":4549,"Ġdespair":4550,"give":4551,"contin":4552,"Ġfruit":4553,"Ġgri":4554,"Perhaps":4555,"heard":4556,"Ġkey":4557,"Ġstands":4558,"Ġglanced":4559,"Ġfairly":4560,"ara":4561,"Ġqual":4562,"Ġsevere":4563,"Ġencour":4564,"12":4565,"Ġterror":4566,"Ġpossibly":4567,"Ġtim":4568,"Ġseated":4569,"once":4570,"osom":4571,"Ġsought":4572,"Jo":4573,"ims":4574,"ieur":4575,"Ġrefused":4576,"themselves":4577,"enced":4578,"plic":4579,"Ġexcitement":4580,"iqu":4581,"Ġconditions":4582,"Ġdrop":4583,"ĠWas":4584,"ĠDid":4585,"Ġgray":4586,"Ġconfess":4587,"Ġtask":4588,"16":4589,"Ġfortun":4590,"Ġhoped":4591,"ĠVen":4592,"Ġlovely":4593,"Ġgroup":4594,"nor":4595,"Ġcompanions":4596,"Ġrejo":4597,"Ġdaily":4598,"Ġmercy":4599,"Ġflesh":4600,"Ġundert":4601,"Ġwet":4602,"ighed":4603,"Ġpowerful":4604,"door":4605,"Ġliberty":4606,"Ġbal":4607,"Ġremains":4608,"Ġserved":4609,"Ġdouble":4610,"Ġcalling":4611,"Ġemp":4612,"Ġshop":4613,"Ġyesterday":4614,"Ġvague":4615,"hank":4616,"Ġresolved":4617,"Ġstruggle":4618,"unning":4619,"earing":4620,"amma":4621,"better":4622,"Ġcup":4623,"Ġintellect":4624,"CH":4625,"upp":4626,"Ġparticularly":4627,"Ġsatisfaction":4628,"Ġnecessity":4629,"Ġprospect":4630,"erning":4631,"master":4632,"illa":4633,"Ġcarrying":4634,"empl":4635,"case":4636,"ĠMadame":4637,"Ex":4638,"Ġstyle":4639,"ĠSunday":4640,"Ġice":4641,"hamed":4642,"agger":4643,"Ġloose":4644,"Are":4645,"Ġweary":4646,"Ġunknown":4647,"Ġasleep":4648,"Ġchoose":4649,"ĠAh":4650,"Ġimagination":4651,"ĠUncle":4652,"ĠMajor":4653,"Ġgrim":4654,"enough":4655,"Ġwholly":4656,"Ġstones":4657,"hal":4658,"ĠHel":4659,"Ġlone":4660,"Ġcheck":4661,"ads":4662,"Ġprice":4663,"Or":4664,"ois":4665,"rer":4666,"ĠTO":4667,"ĠRoman":4668,"pon":4669,"ĠArthur":4670,"Have":4671,"mes":4672,"Ġrooms":4673,"Ġamaz":4674,"ĠCourt":4675,"phe":4676,"Ġflower":4677,"wick":4678,"Ġboats":4679,"reason":4680,"osen":4681,"alian":4682,"having":4683,"Ġscience":4684,"Ġhighest":4685,"ĠLouis":4686,"ĠDor":4687,"ecause":4688,"icy":4689,"Ġmarch":4690,"irect":4691,"onsieur":4692,"line":4693,"agon":4694,"Ġrecoll":4695,"Ġinterested":4696,"atched":4697,"Ġpossessed":4698,"Ġresist":4699,"atory":4700,"aches":4701,"Ġfac":4702,"ET":4703,"Ġpriest":4704,"ulate":4705,"itch":4706,"return":4707,"Ġinstantly":4708,"mist":4709,"aming":4710,"cknow":4711,";\"":4712,"inced":4713,"Ġcentury":4714,"Ġsche":4715,"Ġcaut":4716,"Ġrub":4717,"iation":4718,"acks":4719,"Ġunfortun":4720,"Ġcig":4721,"fin":4722,"alt":4723,"ĠBob":4724,"itchen":4725,"Ġinformation":4726,"Ġruin":4727,"ĠSat":4728,"Ġextent":4729,"andy":4730,"Ġpresented":4731,"Ġcredit":4732,"yr":4733,"Ġprinciple":4734,"same":4735,"Ġacknow":4736,"ae":4737,"ointment":4738,"hus":4739,"Ġexceed":4740,"natural":4741,"Ġvoices":4742,"ollow":4743,"gentle":4744,"Ġdying":4745,"Ġdollars":4746,"eff":4747,"arse":4748,"Ġaccompl":4749,"rog":4750,"Ġghost":4751,"vention":4752,"Ġstars":4753,"uls":4754,"Ġasking":4755,"Ġearli":4756,"Ġcontrary":4757,"Ġexcited":4758,"itz":4759,"Ġclearly":4760,"Ġmurmured":4761,"present":4762,"rich":4763,"Ġblank":4764,"Ġcult":4765,"Ġdescribed":4766,"Ġextraordinary":4767,"matter":4768,"Ġnodded":4769,"ĠAugust":4770,"uel":4771,"Ġdoors":4772,"Ġmood":4773,"ares":4774,"called":4775,"equ":4776,"omin":4777,"Ġmult":4778,"ĠPh":4779,"ĠScott":4780,"mir":4781,"ĠState":4782,"Ġclosely":4783,"ĠGo":4784,"Ġunivers":4785,"cean":4786,"Ġease":4787,"Ġeast":4788,"Ġenemies":4789,"Ġsprang":4790,"ĠIndians":4791,"Ġsaf":4792,"13":4793,"Ġcurt":4794,"ĠThomas":4795,"Ġproduce":4796,"ID":4797,"ĠChe":4798,"ĠHowever":4799,"Ġanger":4800,"Ġstrike":4801,"lands":4802,"oyage":4803,"Ġretreat":4804,"Ġmurder":4805,"awn":4806,"Ġtrad":4807,"ĠHam":4808,"lie":4809,"Ġprisoner":4810,"udge":4811,"US":4812,"pless":4813,"yet":4814,"Ġcrew":4815,"Un":4816,"Ġkindness":4817,"acters":4818,"Ġlake":4819,"Ġdignity":4820,"win":4821,"utation":4822,"Lord":4823,"Look":4824,"Ġreasons":4825,"Ġquarrel":4826,"overy":4827,"Ġahead":4828,"Ġrelation":4829,"find":4830,"quite":4831,"Ġelder":4832,"Ġthrust":4833,"ĠIndeed":4834,"Ġprocess":4835,"Ġassert":4836,"ollo":4837,"Ġskin":4838,"Ġended":4839,"Ġsmooth":4840,"Ġere":4841,"ĠAunt":4842,"Ġinquired":4843,"oused":4844,"Ġetc":4845,"Ġacquaintance":4846,"uce":4847,"vious":4848,"Ġconsequence":4849,"ĠComm":4850,"Ġsplendid":4851,"oft":4852,"Ġuseful":4853,"ulse":4854,"Ġexped":4855,"Ġworn":4856,"Ġpill":4857,"izing":4858,"Ġprofession":4859,"Ġstup":4860,"got":4861,"Ġcomfortable":4862,"14":4863,"Ġgay":4864,"Ġwisdom":4865,"ilst":4866,"ĠWhile":4867,"Ġshr":4868,"Ġintention":4869,"oubted":4870,"Illustr":4871,"Can":4872,"Ġbrill":4873,"Ġelect":4874,"Ġwithd":4875,"Ġassoci":4876,"Ġwaters":4877,"Ġdelay":4878,"Ġarrival":4879,"iable":4880,"Ġcentre":4881,"Ġmach":4882,"ĠFred":4883,"Ġrapidly":4884,"Ġ20":4885,"Ġcoff":4886,"Ġcapable":4887,"Ġfamous":4888,"Ġtreated":4889,"Ġclouds":4890,"owned":4891,"anything":4892,"ĠCo":4893,"Ġexplan":4894,"Ġbridge":4895,"Ġconscience":4896,"Ġbetray":4897,"Ġmessage":4898,"Ġrisk":4899,"common":4900,"Ġamid":4901,"Ġcorrespond":4902,"Ġclever":4903,"almost":4904,"Ġplant":4905,"Ġinterrupted":4906,"Ġ(_":4907,"Ġfought":4908,"asing":4909,"acles":4910,"Ġplenty":4911,"Ġdesired":4912,"ĠDoctor":4913,"Pr":4914,"Ġimmense":4915,"ĠJew":4916,"Ġdelicate":4917,"Ġindif":4918,"Ġcareful":4919,"Ġpardon":4920,"Ġlarger":4921,"ĠMont":4922,"Ġdeeply":4923,"aging":4924,"Ġmilitary":4925,"Ġpressed":4926,"Ġescaped":4927,"ĠOnly":4928,"Ġguide":4929,"Ġwed":4930,"Ġaccepted":4931,"ateful":4932,"Ġfreedom":4933,"RS":4934,"onn":4935,"Ġfemale":4936,"IG":4937,"olution":4938,"usual":4939,"satisf":4940,"sent":4941,"question":4942,"Ġcompletely":4943,"uments":4944,"Ġburning":4945,"born":4946,"Ġperform":4947,"ators":4948,"Ġdogs":4949,"Ġmud":4950,"mis":4951,"Ġvision":4952,"love":4953,"Qu":4954,"rived":4955,"Ġsoftly":4956,"Ġholy":4957,"Ġfrank":4958,"Ġaccompan":4959,"Ġnur":4960,"ĠSch":4961,"ĠPort":4962,"uding":4963,"Ġbas":4964,"Ġhorror":4965,"Ġcorrect":4966,"eous":4967,"Ġchamber":4968,"sch":4969,"utch":4970,"Ġseldom":4971,"ĠPhilip":4972,"Ġrecord":4973,"Ġneeded":4974,"disc":4975,"Ġtheory":4976,"ĠPer":4977,"Ġmistress":4978,"Ġrum":4979,"Ġpor":4980,"wa":4981,"ĠJul":4982,"Ġflight":4983,"Ġkingdom":4984,"Ġrushed":4985,"point":4986,"urity":4987,"ĠLaw":4988,"Ġcomr":4989,"Ġbosom":4990,"Ġhosp":4991,"Ġbodies":4992,"oh":4993,"acon":4994,"Ġ[_":4995,"Ġgained":4996,"Ġvirtue":4997,"Ġrapid":4998,"fire":4999,"Ġvisible":5000,"Ġrepro":5001,"Ġdawn":5002,"ĠJan":5003,"Ġpractice":5004,"OW":5005,"Ġwhisper":5006,"ĠWor":5007,"Ġanxiety":5008,"Ġma":5009,"ĠCal":5010,"Ġevident":5011,"ĠMark":5012,"Ġmate":5013,"ĠTwo":5014,"Ġsevent":5015,"others":5016,"lying":5017,"ential":5018,"ancholy":5019,"zy":5020,"sil":5021,"beaut":5022,"ĠJoe":5023,"ration":5024,"Ġyounger":5025,"EC":5026,"bridge":5027,"fric":5028,"armed":5029,"eb":5030,"Ġstrang":5031,"pol":5032,"Ġobjects":5033,"rounded":5034,"Ġhelped":5035,"care":5036,"Nor":5037,"Ġwrit":5038,"estern":5039,"Ġsounds":5040,"stead":5041,"ĠLook":5042,"ule":5043,"Ġunable":5044,"ta":5045,"Ġstairs":5046,"Ġcuriosity":5047,"oked":5048,"Ġsomehow":5049,"ca":5050,"orts":5051,"respect":5052,"Ġcro":5053,"enes":5054,"Ġhidden":5055,"ĠII":5056,"Ġreligious":5057,"Ġgently":5058,"Ġamb":5059,"Ġassem":5060,"Ġhighly":5061,"Ġpoetry":5062,"oms":5063,"ĠEgypt":5064,"ĠJes":5065,"Ġthroat":5066,"break":5067,"Ġprompt":5068,"Ġashamed":5069,"Illustration":5070,"Ġinnocent":5071,"Ġcolor":5072,"lished":5073,"Ġrolled":5074,"Ġtells":5075,"Ġstuff":5076,"Ġsacred":5077,"ishes":5078,"Ġutterly":5079,"anim":5080,"Ġgrief":5081,"Ġmeas":5082,"Ġamuse":5083,"Ġhit":5084,"Ġgenius":5085,"Ġmiserable":5086,"ĠAnt":5087,"ĠHave":5088,"Ġcurrent":5089,"ĠCor":5090,"Ġbaby":5091,"Ġhadn":5092,"Ġsomewhere":5093,"sper":5094,"Ġsafety":5095,"==":5096,"Ġrefer":5097,"alph":5098,"atively":5099,"nes":5100,"uten":5101,"Ġmembers":5102,"Ġbag":5103,"arry":5104,"Just":5105,"umes":5106,"Christ":5107,"Ġchoice":5108,"ization":5109,"sue":5110,"Ġprinciples":5111,"const":5112,"Ġstepped":5113,"Ġtrail":5114,"Ġvolume":5115,"ilities":5116,"Ġsomebody":5117,"Ġtight":5118,"Ġtot":5119,"Ġbearing":5120,"Ġaccustomed":5121,"Ġspare":5122,"cles":5123,"Ġexcuse":5124,"Ġfrightened":5125,"20":5126,"ĠGrace":5127,"Ġfee":5128,"ĠCle":5129,"hon":5130,"Ġfinger":5131,"inent":5132,"Ġcontempt":5133,"Ġforgot":5134,"Ġinvol":5135,"hind":5136,"Go":5137,"Ġlonely":5138,"ĠMal":5139,"Ġfigures":5140,"unted":5141,"Ġaband":5142,"tow":5143,"Ġadop":5144,"Ġplaying":5145,"Ġarranged":5146,"Com":5147,"Ġfold":5148,"English":5149,"irgin":5150,"ĠLittle":5151,"among":5152,"Ġpipe":5153,"Ġscorn":5154,"rifice":5155,"Ġdistr":5156,"ountain":5157,"rand":5158,"van":5159,"ĠLy":5160,"Ġremoved":5161,"Ġobtained":5162,"Ġmanif":5163,"fessor":5164,"Ġspend":5165,"Ġneighbour":5166,"Ġweap":5167,"Ġrespons":5168,"Ġtriumph":5169,"Ġrust":5170,"spec":5171,"Ġstiff":5172,"since":5173,"Ġwondered":5174,"ĠMin":5175,"Ġgets":5176,"Ġsentiment":5177,"izab":5178,"Ġ186":5179,"ĠIrish":5180,"Ġbought":5181,"Ġinfinite":5182,"cor":5183,"Ġlit":5184,"Ġhut":5185,"white":5186,"Ġentrance":5187,"Ġsigns":5188,"ege":5189,"lex":5190,"ĠSomet":5191,"Ġproposed":5192,"Ġrude":5193,"Ġenthus":5194,"however":5195,"Ġfeatures":5196,"uries":5197,"hor":5198,"19":5199,"ĠEarl":5200,"Ġgradually":5201,"Ġrecei":5202,"morning":5203,"Ġapproached":5204,"Ġcircle":5205,"sa":5206,"Ġsuppl":5207,"Ġcritic":5208,"Ġtent":5209,"Ġmajor":5210,"Ġthoroughly":5211,"Ġnerv":5212,"ourn":5213,"ĠST":5214,"Ġmeal":5215,"Ġunto":5216,"ĠBesides":5217,"erves":5218,"Ġeducation":5219,"Ġrow":5220,"Ġobst":5221,"asions":5222,"quar":5223,"Ġsell":5224,"position":5225,"Ġexhib":5226,"done":5227,"Ġaddressed":5228,"Ġinhabit":5229,"Ġextremely":5230,"ounce":5231,"Ġbringing":5232,"Ġunf":5233,"Ġ{":5234,"Ġfifteen":5235,"garet":5236,"Ġsour":5237,"onstr":5238,"Ġconsideration":5239,"bow":5240,"ilty":5241,"Ġburied":5242,"oqu":5243,"ref":5244,"table":5245,"Ġgreet":5246,"ivity":5247,"Ġhom":5248,"Ġshade":5249,"years":5250,"Ġstories":5251,"Ġwishes":5252,"Ġing":5253,"Ġfriendly":5254,"ĠBet":5255,"ĠBlack":5256,"AY":5257,"strong":5258,"Ġthunder":5259,"Ġwound":5260,"ĠGreek":5261,"Ġbra":5262,"Ġshowing":5263,"Ġinstruct":5264,"power":5265,"ixt":5266,"person":5267,"Con":5268,"utions":5269,"ĠMer":5270,"Ġ...":5271,"asted":5272,"Ġswept":5273,"acqu":5274,"ĠSpanish":5275,"ama":5276,"ids":5277,"ĠWhite":5278,"Ġcitiz":5279,"Ġsubjects":5280,"Ġfields":5281,"Ġunhappy":5282,"Ġpublished":5283,"Ġchosen":5284,"Ġshock":5285,"Ġalarm":5286,"nel":5287,"Tis":5288,"Ġspr":5289,"Ġquality":5290,"Ġparties":5291,"Ġscream":5292,"Ġnewsp":5293,"Ġwaste":5294,"name":5295,"sk":5296,"Ġreckon":5297,"Ġhurry":5298,"Ġbecoming":5299,"Ġinclined":5300,"inger":5301,"Ġflying":5302,"ĠGreen":5303,"Ġaspect":5304,"Ġplainly":5305,"ĠRuss":5306,"Ġhole":5307,"plex":5308,"Ġmystery":5309,"Ġsheep":5310,"ĠRev":5311,"Ġcheeks":5312,"Ġfaithful":5313,"Ġrendered":5314,"turned":5315,"cut":5316,"Ġproportion":5317,"Ġenc":5318,"Ġapproach":5319,"Ġjealous":5320,"ault":5321,"Ġgain":5322,"bon":5323,"appear":5324,"boat":5325,"Ġstout":5326,"po":5327,"ĠLucy":5328,"Ġreward":5329,"Ġslept":5330,"ĠSmith":5331,"gen":5332,"ĠJane":5333,"cho":5334,"ĠFer":5335,"iture":5336,"Ġbecomes":5337,"eding":5338,"ĠSec":5339,"Ġreflect":5340,"Ġuneas":5341,"Ġslightly":5342,"ograph":5343,"Le":5344,"Ġnotion":5345,"Ġflung":5346,"itated":5347,"acked":5348,"Ġpicked":5349,"left":5350,"Ġconnected":5351,"Ġdivine":5352,"pleasant":5353,"aks":5354,"Ġincreased":5355,"Ġredu":5356,"gs":5357,"Ġsuffering":5358,"ette":5359,"Ġgazed":5360,"aur":5361,"othe":5362,"Ġobserve":5363,"ĠAre":5364,"Ġavoid":5365,"ĠBer":5366,"Ġkitchen":5367,"aints":5368,"_;":5369,"Ġdoctr":5370,"Ġfled":5371,"Ġolder":5372,"While":5373,"Ġabsurd":5374,"lebr":5375,"gone":5376,"Ġrush":5377,"olic":5378,"ĠSqu":5379,"lot":5380,"post":5381,"non":5382,"ells":5383,"Ġprecious":5384,"took":5385,"ĠDavid":5386,"Ġlaughter":5387,"May":5388,"ILL":5389,"Ġbehold":5390,"Ġlabour":5391,"omer":5392,"Ġpractical":5393,"Ġpushed":5394,"Ġrage":5395,"Ġrear":5396,"Ġnumbers":5397,"Ġkissed":5398,"herself":5399,"consider":5400,"Ġhabits":5401,"Ġblame":5402,"aling":5403,"udd":5404,"Ġcheek":5405,"dep":5406,"ocr":5407,"Ġmanners":5408,"Ġconfusion":5409,"icted":5410,"Ġdance":5411,"Ġimpress":5412,"Ġprevious":5413,"John":5414,"EAR":5415,"ode":5416,"inks":5417,"why":5418,"whether":5419,"prise":5420,"Ġadmiration":5421,"ephen":5422,"Ġstared":5423,"ĠFort":5424,"Ġadventure":5425,"Ġduties":5426,"Ġtitle":5427,"aning":5428,"Ġbrow":5429,"Ġactive":5430,"shine":5431,"Ġfer":5432,"ache":5433,"necessary":5434,"ĠHim":5435,"Ġfever":5436,"girl":5437,"Ġconclusion":5438,"gener":5439,"Ġbay":5440,"Ġlately":5441,"Ġcharming":5442,"Ġemotion":5443,"Ġmankind":5444,"Ġexha":5445,"Ġintense":5446,"ĠMag":5447,"udes":5448,"Ġabroad":5449,"Ġhers":5450,"olf":5451,"Ġthroughout":5452,"Ġprim":5453,"ĠMartin":5454,"Ġaim":5455,"usp":5456,"isions":5457,"Ġsteep":5458,"Ġcrim":5459,"Ġcharacters":5460,"Ġlest":5461,"Ġemployed":5462,"myself":5463,"ension":5464,"ĠNothing":5465,"AND":5466,"Ġclub":5467,"Ġbreaking":5468,"elling":5469,"Ġstrict":5470,"anny":5471,"uable":5472,"Ġreturning":5473,"coming":5474,"Ġprobable":5475,"Ġwings":5476,"arded":5477,"ĠEdward":5478,"rier":5479,"pter":5480,"Ġflag":5481,"Ġforgive":5482,"Ġdelighted":5483,"Ġlistening":5484,"enger":5485,"Ġmatch":5486,"Ġquant":5487,"Ġmysterious":5488,"ĠParliament":5489,"Ġdisappeared":5490,"Ġfriendship":5491,"Ġcattle":5492,"Ġclergy":5493,"achel":5494,"Ġheap":5495,"Ġcirc":5496,"Ġaccompanied":5497,"Ġsons":5498,"real":5499,"Ġstrongly":5500,"Ġcreatures":5501,"incess":5502,"Ġargument":5503,"Ġmal":5504,"ĠArch":5505,"hip":5506,"ums":5507,"Ġteach":5508,"utenant":5509,"lay":5510,"believe":5511,"Ab":5512,"amps":5513,"Ġcliff":5514,"Ġstriking":5515,"izabeth":5516,"hearted":5517,"----\"":5518,"ĠAnn":5519,"Ġapt":5520,"ella":5521,"ĠPal":5522,"ĠKe":5523,"ĠWood":5524,"Ġsteady":5525,"mo":5526,"Ġindepend":5527,"Ġphysical":5528,"Ġsouls":5529,"Ġvoyage":5530,"Ġfeared":5531,"Ġdrift":5532,"Ġdisplay":5533,"ills":5534,"vy":5535,"ller":5536,"ĠRom":5537,"Ġproject":5538,"Ed":5539,"Ġvers":5540,"early":5541,"Ġreven":5542,"Ġknock":5543,"plain":5544,"Ġtrial":5545,"Ġtravel":5546,"retch":5547,"brought":5548,"ores":5549,"ĠThough":5550,"alls":5551,"Am":5552,"ulgar":5553,"Ġ25":5554,"Ġbase":5555,"rather":5556,"Ġraise":5557,"appeared":5558,"Ġslave":5559,"rences":5560,"Ġbowed":5561,"Lady":5562,"ĠAfric":5563,"Ġsolid":5564,"Ġenergy":5565,"Ġrang":5566,"ĠScotland":5567,"Every":5568,"ĠSan":5569,"yes":5570,"ĠRose":5571,"urance":5572,"Ġrestr":5573,"Ġcottage":5574,"Ġforehead":5575,"Ġfo":5576,"onsense":5577,"Ġspark":5578,"lls":5579,"dri":5580,"Ġaver":5581,"Ġblaz":5582,"Ġimmediate":5583,"ulations":5584,"Ġclo":5585,"Ġarose":5586,"Ġdistinguished":5587,"Ġwhilst":5588,"Ġends":5589,"Ġminister":5590,"Ġliterature":5591,"ago":5592,",âĢĻ":5593,"Ġhint":5594,"ĠLong":5595,"Ġsufficiently":5596,"indeed":5597,"hands":5598,"Ġphr":5599,"character":5600,"Ġappreci":5601,"Ġdesperate":5602,"ĠTur":5603,"Ġmale":5604,"Ġaddition":5605,"ĠSoci":5606,"Ġindul":5607,"arth":5608,"Ġdistress":5609,"Ġqueen":5610,"gate":5611,"Ġconcerning":5612,"ecture":5613,"Ġdreams":5614,"Ġpuzz":5615,"Ġnotes":5616,"inate":5617,"arted":5618,"understand":5619,"bour":5620,"Ġgra":5621,"Ġeverywhere":5622,"Ġspl":5623,"ĠNat":5624,"riot":5625,"Ġneeds":5626,"astern":5627,"Ġconven":5628,"Ġframe":5629,"Ġnatives":5630,"Ġshows":5631,"Ġintim":5632,"Ġmagnific":5633,"Ġwretched":5634,"Ġexchan":5635,"Ġplans":5636,"ĠCastle":5637,"Ġmanaged":5638,"Ġcaval":5639,"Ġterm":5640,"Ġrelations":5641,"ds":5642,"Ġaffected":5643,"Ġpraise":5644,"ĠÂ":5645,"Ġprofound":5646,"ĠHon":5647,"ĠGovernment":5648,"orthern":5649,"Ġgods":5650,"Ġwhist":5651,"var":5652,"Ġfrequently":5653,"Ġrender":5654,"Our":5655,"Nothing":5656,"Ġmelancholy":5657,"Ġcharm":5658,"Ġchest":5659,"Ġmas":5660,"Ġ30":5661,"Ġcalls":5662,"umped":5663,"hur":5664,"Ġhal":5665,"aunt":5666,"Ġsinging":5667,"anches":5668,"appro":5669,"Ġexplanation":5670,"Ġqueer":5671,"Ġchiefly":5672,"Ġviolent":5673,"Ġskill":5674,"ban":5675,"ĠMother":5676,"Ġgaze":5677,"Ġprincipal":5678,"Ġbree":5679,"Ġweakness":5680,"ĠRalph":5681,"Ġconsent":5682,"onds":5683,"Ġriding":5684,"port":5685,"Ġcontinue":5686,"Ġnumerous":5687,"Ġconvinced":5688,"ĠFrancis":5689,"AP":5690,"Ġwhenever":5691,"ĠMen":5692,"otes":5693,"ĠAg":5694,"ĠSil":5695,"Ġperceived":5696,"sect":5697,"ĠDun":5698,"Ġsuggest":5699,"pen":5700,"Ġming":5701,"onies":5702,"Ġham":5703,"ĠIm":5704,"rock":5705,"Ġuttered":5706,"whole":5707,"iel":5708,"Col":5709,"stru":5710,"arewell":5711,"burg":5712,"ĠMil":5713,"otted":5714,"Ġassistance":5715,"elle":5716,"Ġprepar":5717,"Ġlights":5718,"Ġknife":5719,"Ġshining":5720,"Ġinterview":5721,"Ġleaned":5722,"osal":5723,"home":5724,"Ġsank":5725,"arms":5726,"Ġpoem":5727,"Ġfinal":5728,"Ġpatient":5729,"Ġattitude":5730,"Ġbrothers":5731,"ĠBefore":5732,"Ġjob":5733,"ĠIndia":5734,"arrass":5735,"Ġsupply":5736,"uced":5737,"Ġgenerous":5738,"ĠPo":5739,"30":5740,"exper":5741,"Ġdiscovery":5742,"ĠIre":5743,"Ġhelpless":5744,"Ġinfer":5745,"Ġarrest":5746,"Ġworship":5747,"Ġorn":5748,"hend":5749,"ĠĠĠĠĠĠĠĠĠĠĠ":5750,"istory":5751,"Ġabrupt":5752,"Ġsuspicion":5753,"each":5754,"Ġsees":5755,"geon":5756,"Ġconstant":5757,"Ġprayer":5758,"Ġunfortunate":5759,"black":5760,"Ġmisery":5761,"Ġeffects":5762,"Ġenorm":5763,"Ġgest":5764,"yard":5765,"Ġprotect":5766,"Ġinterests":5767,"bably":5768,"live":5769,"och":5770,"ĠGrand":5771,"Ġinformed":5772,"sey":5773,"Ġrope":5774,"ĠLove":5775,"Ġviews":5776,"saw":5777,"tran":5778,"utter":5779,"liness":5780,"posed":5781,"Ġblessed":5782,"Ġrefuse":5783,"bye":5784,"Ġbend":5785,"succ":5786,"Ġlandl":5787,"Ġturns":5788,"Ġmild":5789,"---":5790,"small":5791,"Ġsecure":5792,"Ġtype":5793,"ĠThose":5794,"worthy":5795,"Ġobsc":5796,"Ġemer":5797,"ele":5798,"Ġmember":5799,"echan":5800,"peror":5801,"making":5802,"Ġhastily":5803,"ata":5804,"amm":5805,"Ġactual":5806,"idering":5807,"ĠFirst":5808,"Ġhollow":5809,"Ġartist":5810,"Ġpreced":5811,"Ġconvey":5812,"prom":5813,"irs":5814,"Ġliterary":5815,"ĠEast":5816,"Ġefforts":5817,"Ġmounted":5818,"Ġpil":5819,"Ġansw":5820,"icer":5821,"Ġdoubtless":5822,"ĠMc":5823,"Ġparents":5824,"Ġcolumn":5825,"ese":5826,"Ġegg":5827,"Ġseries":5828,"ĠOnce":5829,"Cha":5830,"Ġacquainted":5831,"Ġcrime":5832,"exc":5833,"irit":5834,"rors":5835,"Ġsetting":5836,"Ġresumed":5837,"ique":5838,"Ġuseless":5839,"fr":5840,"edy":5841,"Ġannounced":5842,"maid":5843,"Ġmuttered":5844,"De":5845,"Ġunderstanding":5846,"agree":5847,"VI":5848,"ugh":5849,"Ġarmed":5850,"Ġprecise":5851,"Ġpred":5852,"days":5853,"Ġdomestic":5854,"Ġhorrible":5855,"Ġhanded":5856,"engers":5857,"Ġlux":5858,"ĠHard":5859,"vals":5860,"Ġdisposed":5861,"rated":5862,"Ġtow":5863,"Ġeagerly":5864,"Ġlamp":5865,"Ġthrone":5866,"osure":5867,"Ġfleet":5868,"Ġmental":5869,"Ġstretched":5870,"Ġtrembling":5871,"Thus":5872,"ands":5873,"Ġshru":5874,"Ġoccasionally":5875,"told":5876,"See":5877,"taken":5878,"iddle":5879,"Ġages":5880,"ertainly":5881,"Ġignorant":5882,"atin":5883,"bird":5884,"Ġflew":5885,"effect":5886,"Ġhence":5887,"iving":5888,"dark":5889,"past":5890,"Ġtroubles":5891,"Ġhell":5892,"Ġthanks":5893,"ĠDel":5894,"ĠCam":5895,"cross":5896,"Ġhanging":5897,"Ġwaist":5898,"Ġdelightful":5899,"till":5900,"Ġutmost":5901,"ĠBel":5902,"perfect":5903,"Ġlighted":5904,"arts":5905,"Ġshake":5906,"Ġwhence":5907,"compan":5908,"dr":5909,"lim":5910,"Ġgift":5911,"Ġash":5912,"avy":5913,"Ġascend":5914,"apers":5915,"sim":5916,"inity":5917,"forth":5918,"ington":5919,"Ġcloth":5920,"Ġwriter":5921,"Ġrequest":5922,"Ġshelter":5923,"Ġhesitated":5924,"either":5925,"Ġmission":5926,"Ġexception":5927,"Ġwarning":5928,"Ġleaning":5929,"Ġprisoners":5930,"Ġocean":5931,"Ġopinions":5932,"Ġexert":5933,"coat":5934,"mosp":5935,"Ġsurrounded":5936,"Ġwidow":5937,"ĠTem":5938,"Ġcerem":5939,"igs":5940,"Ġfatal":5941,"Ġdared":5942,"Ġbranches":5943,"inction":5944,"Ġcomposed":5945,"antry":5946,"tem":5947,"whom":5948,"ician":5949,"Ġdescription":5950,"Pro":5951,"ĠDave":5952,"Ġcord":5953,"Ġbrilliant":5954,"Ġunexpected":5955,"Ġhunting":5956,"lease":5957,"Ġprovided":5958,"Bl":5959,"Ġcalc":5960,"force":5961,"fortune":5962,"fell":5963,"ĠJesus":5964,"rous":5965,"outhern":5966,"ĠHol":5967,"ĠEn":5968,"Ġimage":5969,"ĠItalian":5970,"Ġretired":5971,"Ġchat":5972,"Ġhistor":5973,"XX":5974,"ĠWhich":5975,"Ġrequire":5976,"Ġnarr":5977,"Ġhitherto":5978,"Ġexercise":5979,"Ġpainted":5980,"rific":5981,"Ġintelligence":5982,"Ġ24":5983,"Ġidle":5984,"Ġslipped":5985,"Ġbeha":5986,"Ġperpet":5987,"Ġpolice":5988,"Ġscheme":5989,"Ġguilty":5990,"kward":5991,"Ġintent":5992,"Ġlawyer":5993,"Ġvac":5994,"Ġventure":5995,"ĠWalter":5996,"Ġcries":5997,"ĠSim":5998,"11":5999,"ĠSy":6000,"Captain":6001,"close":6002,"ĠTw":6003,"ĠWould":6004,"Ġguests":6005,"Ġappointed":6006,"ashington":6007,"Ġiv":6008,"ĠĠĠĠĠĠĠĠĠĠĠĠĠĠĠĠĠĠĠĠĠĠĠĠĠĠĠĠĠĠĠĠĠĠĠĠĠĠĠĠ":6009,"Ġrecomm":6010,"Ġillustr":6011,"Ġcollect":6012,"ĠItaly":6013,"ĠHal":6014,"Ġmeat":6015,"Ġrag":6016,"Ġwave":6017,"Ġglorious":6018,"account":6019,"Ġestablish":6020,"uated":6021,"eem":6022,"Thank":6023,"Ġdeny":6024,"children":6025,"Ġhorn":6026,"Ġbottle":6027,"Ġobtain":6028,"obody":6029,"la":6030,"Ġnearest":6031,"Ġsorts":6032,"twenty":6033,"stri":6034,"Ġsighed":6035,"Ġdig":6036,"Ġshouldn":6037,"Ġdeliber":6038,"Mad":6039,"Ġacted":6040,"Ġug":6041,"Ġalike":6042,"iform":6043,"Ġwaves":6044,"Ġlikewise":6045,"affect":6046,"Ġanywhere":6047,"six":6048,"hast":6049,"Ġfired":6050,"Ġours":6051,"Ġfollows":6052,"ench":6053,"Ġwarri":6054,"amped":6055,"Ġrecovered":6056,"Ġrange":6057,"Ġshadows":6058,"Ġassure":6059,"ĠProfessor":6060,"both":6061,"MRS":6062,"Ġnations":6063,"Ġridic":6064,"Ġinhabitants":6065,"stre":6066,"uary":6067,"Ġsubs":6068,"Ġbones":6069,"Ġwreck":6070,"Ġgrasp":6071,"abled":6072,"ĠMany":6073,"Ġamongst":6074,"Ġwheel":6075,"diffic":6076,"erness":6077,"Ġdiscour":6078,"Ġhumble":6079,"Ġleaf":6080,"IM":6081,"Ġkinds":6082,"Ge":6083,"Ġchanges":6084,"kerchief":6085,"Ġcraft":6086,"regular":6087,"endous":6088,"gments":6089,"ĠPark":6090,"SE":6091,"knew":6092,"Ġhousehold":6093,"Ġtransp":6094,"ula":6095,"Ġestate":6096,"Ġinstr":6097,"ĠLife":6098,"gent":6099,"va":6100,"aine":6101,"Ġrights":6102,"Ġtroubled":6103,"Br":6104,"Ġjew":6105,"Ġsuccessful":6106,"Ġvariety":6107,"Yet":6108,"ĠSer":6109,"Char":6110,"fellow":6111,"Ġpainful":6112,"ĠMe":6113,"Ġmistaken":6114,"ĠLike":6115,"glass":6116,"Ġlabor":6117,"Ġlands":6118,"doubt":6119,"ĠĠĠĠĠĠĠĠĠĠ":6120,"Ġshaking":6121,"high":6122,"aws":6123,"pent":6124,"Ġcoach":6125,"----------------":6126,"Ġscattered":6127,"ĠRep":6128,"Ġpatience":6129,"ĠVer":6130,"particular":6131,"ĠMargaret":6132,"Ġdescended":6133,"Ġresc":6134,"poses":6135,"Ġtal":6136,"Ġdivided":6137,"Ġconcluded":6138,"Ġtax":6139,"Ġnervous":6140,"acob":6141,"Ġtrack":6142,"Ġdate":6143,"Ġax":6144,"olation":6145,"Ġcopy":6146,"business":6147,"Ġboots":6148,"Ġspiritual":6149,"25":6150,"ĠSus":6151,"Ġpapa":6152,"Ġislands":6153,"Ġestablished":6154,"tree":6155,"Ġconsist":6156,"ĠEr":6157,"ĠSl":6158,"Sh":6159,"Re":6160,"Ġdevoted":6161,"atives":6162,"Ġnational":6163,"ĠArab":6164,"Ġdefence":6165,"ĠFair":6166,"Ġpisto":6167,"Ġvanished":6168,");":6169,"ends":6170,"het":6171,"ĠRog":6172,"import":6173,"hour":6174,"Ay":6175,"Ġtide":6176,"sight":6177,"burn":6178,"Ġwondering":6179,"Ġcoffee":6180,"dra":6181,"Ġcheerful":6182,"Ġcelebr":6183,"blem":6184,"Ġinvest":6185,"iveness":6186,"Ġsacrifice":6187,"ĠThou":6188,"Ġdegrees":6189,"except":6190,"Ġreference":6191,"Ġparted":6192,"until":6193,"lor":6194,"money":6195,"Ġshone":6196,"Ġprosper":6197,"Ġincrease":6198,"mosphere":6199,"aughters":6200,"Ġconnection":6201,"Ġseparate":6202,"apped":6203,"ardens":6204,"Ġwooden":6205,"lau":6206,"ĠAlice":6207,"ĠIII":6208,"steps":6209,"Ġbegged":6210,"Ġgoods":6211,"Ġcauses":6212,"Ġfancied":6213,"vert":6214,"ĠFar":6215,"Ġflood":6216,"ailing":6217,"atre":6218,"Ġven":6219,"Indeed":6220,"Ġforbid":6221,"Ġattended":6222,"Ġtransl":6223,"ifying":6224,"Ġattached":6225,"umm":6226,"owder":6227,"quisite":6228,"also":6229,"inet":6230,"NE":6231,"obser":6232,"Ġproperly":6233,"arling":6234,"Ġanch":6235,"Ġinsisted":6236,"Ġsunshine":6237,"thel":6238,"Ġhyp":6239,"poor":6240,"ipper":6241,"Ġbeheld":6242,"Ġdetails":6243,"ĠHelen":6244,"Ġcared":6245,"conom":6246,"oof":6247,"ĠBert":6248,"'.":6249,"best":6250,"ĠConst":6251,"Ġpan":6252,"ĠPope":6253,"Ġdrunk":6254,"cast":6255,"Ġmerry":6256,"Ġflame":6257,"].":6258,"Ġfreely":6259,"Ġhated":6260,"Ġpermitted":6261,"Ġcondem":6262,"Ġtrace":6263,"Ġdeparture":6264,"Ġpin":6265,"Ġcomplex":6266,"Ġdifficulties":6267,"Ġtied":6268,"Ġoccasions":6269,"Ġearlier":6270,"othing":6271,"oston":6272,"ns":6273,"Ġmat":6274,"piece":6275,"ĠMount":6276,"Ġsensible":6277,"ulted":6278,"ienced":6279,"ĠAny":6280,"Ġstaring":6281,"pat":6282,"Ġhopeless":6283,"Ġrenew":6284,"ĠPat":6285,"Ġdirected":6286,"Ġimprove":6287,"Ġcultiv":6288,"Ġident":6289,"Ġforces":6290,"Ġstupid":6291,"intell":6292,"mark":6293,"open":6294,"ĠUnited":6295,"racted":6296,"Ġconsciousness":6297,"Ġintroduced":6298,"Ġbul":6299,"Ġguest":6300,"Ġimagined":6301,"Ġcommanded":6302,"Ġbeach":6303,"Ġgates":6304,"Ġpron":6305,"Ġvictory":6306,"mouth":6307,"ĠStephen":6308,"ĠTe":6309,"human":6310,"Ġsisters":6311,"dem":6312,"Ġscr":6313,"Ġgravely":6314,"Ġenjoyed":6315,"isation":6316,"lad":6317,"large":6318,"Ġsan":6319,"Ġcrying":6320,"Ġremarks":6321,"sea":6322,"subject":6323,"ĠRu":6324,"Ġcircumstance":6325,"keeper":6326,"Ġnurse":6327,"oser":6328,"ĠBro":6329,"passed":6330,"Ġses":6331,"Ġpoison":6332,"Ġmamma":6333,"Ġugly":6334,"**":6335,"Ġsharply":6336,"Ġloves":6337,"Ġsteadily":6338,"Ġanyone":6339,"Ġprivile":6340,"lers":6341,"ĠBab":6342,"Ġknocked":6343,"Ġqualities":6344,"Ġstronger":6345,"ĠGra":6346,"Ġpages":6347,"Sc":6348,"ipping":6349,"pert":6350,"produ":6351,"hem":6352,"othy":6353,"Ġdefend":6354,"cture":6355,"Ġclerk":6356,"does":6357,"Ġlion":6358,"Ġthousands":6359,"cence":6360,"Ġscient":6361,"sued":6362,"ĠVan":6363,"Ġfolks":6364,"Ġplate":6365,"therefore":6366,"Ġnaked":6367,"ĠCompany":6368,"horse":6369,"Ġviolence":6370,"Ġsailor":6371,"Ġinvent":6372,"forward":6373,"grat":6374,"pril":6375,"talk":6376,"Ġborne":6377,"ura":6378,"Ġgrateful":6379,"Ġwra":6380,"Ġhaste":6381,"Ġapproaching":6382,"soon":6383,"Ġmanage":6384,"ĠJune":6385,"fur":6386,"fashion":6387,"Ġtrick":6388,"Ġsleeping":6389,"ELL":6390,"words":6391,"Ġsoil":6392,"Ġdiam":6393,"Ġcontained":6394,"Ġtoler":6395,"Ġ182":6396,"da":6397,"Ġloving":6398,"Ġaloud":6399,"henomen":6400,"Ġrifle":6401,"full":6402,"Ġhunt":6403,"Ġcontempl":6404,"Ġregiment":6405,"fig":6406,"Ġunusual":6407,"Ġdefe":6408,"za":6409,"Ġacknowled":6410,"leness":6411,"Nay":6412,"speak":6413,"Ġrecover":6414,"Ġdiff":6415,"Ġadmire":6416,"hundred":6417,"Ġcrept":6418,"cest":6419,"Ġlearning":6420,"ĠSpirit":6421,"Ġdestroyed":6422,"Ġfeather":6423,"Ġresults":6424,"circumst":6425,"Ġvisited":6426,"Ġstatement":6427,"lets":6428,"plicity":6429,"uit":6430,"Ġtear":6431,"ouch":6432,"Ġlock":6433,"illing":6434,"ĠBishop":6435,"Ġfears":6436,"Ġseriously":6437,"orence":6438,"everything":6439,"dig":6440,"whose":6441,"Ġcanoe":6442,"box":6443,"ĠPet":6444,"Ġcounsel":6445,"mag":6446,"Ġhungry":6447,"Ġrested":6448,"Ġnegro":6449,"Ġeternal":6450,"Ġmovements":6451,"Ġmarket":6452,"Ġideal":6453,"EM":6454,"Ġpier":6455,"Ġlap":6456,"Ġmortal":6457,"Ġbade":6458,"ships":6459,"Ġgent":6460,"ĠSal":6461,"____":6462,"Ġleader":6463,"aned":6464,"hers":6465,"iasm":6466,"Ġroar":6467,"bler":6468,"Ġslaves":6469,"evil":6470,"Ġslightest":6471,"Ġengine":6472,"Ġpursued":6473,"hael":6474,"gest":6475,"Ġagreeable":6476,"cannot":6477,"Ġ--":6478,"headed":6479,"Ġgazing":6480,"imag":6481,"Ġtreasure":6482,"list":6483,"ĠDuc":6484,"geant":6485,"ĠĠĠĠĠĠĠĠĠĠĠĠĠĠĠĠĠĠĠĠĠ":6486,"Ġlat":6487,"ĠDes":6488,"Ġswall":6489,"Ġcard":6490,"Ġbrig":6491,"ante":6492,"Ġcompre":6493,"ĠElizabeth":6494,"Ġprotection":6495,"Ġoath":6496,"nature":6497,"Ġattempted":6498,"Ġthine":6499,"susp":6500,"Ġneat":6501,"Ġsore":6502,"Ġsmaller":6503,"ĠBaron":6504,"pit":6505,"Ġheavily":6506,"Ġsne":6507,"Ġfirmly":6508,"otest":6509,"Ġimpl":6510,"ĠEnglishman":6511,"ological":6512,"Ġrecognized":6513,"oos":6514,"Ġbelonged":6515,"udent":6516,"Ġconviction":6517,"Ġincident":6518,"Ġreality":6519,"Ġbreeze":6520,"Ġsincere":6521,"compl":6522,"Ġdiss":6523,"Ġmode":6524,"Ġinher":6525,"Ġplun":6526,"ĠJones":6527,"Ġdish":6528,"Ġpace":6529,"Ġ26":6530,"Because":6531,"ĠRos":6532,"Ġswim":6533,"Ġignorance":6534,"cto":6535,"ributed":6536,"Ġliber":6537,"Ġvulgar":6538,"Ġbride":6539,"Ġstates":6540,"def":6541,"Ġenormous":6542,"Ġerect":6543,"icle":6544,"Ġrig":6545,"Ġoh":6546,"Ġtext":6547,"Ġsentence":6548,"Ġ29":6549,"feel":6550,"Ġobvious":6551,"swe":6552,"Ġcrowded":6553,"orable":6554,"Ġchose":6555,"ĠIreland":6556,"sign":6557,"Ġcounter":6558,"Ġouter":6559,"Ġfix":6560,"Ġtoss":6561,"Ġarticle":6562,"Ġelement":6563,"eman":6564,"brother":6565,"ĠMat":6566,"ada":6567,"ĠMill":6568,"Ġrul":6569,"ifted":6570,"exam":6571,"ĠRollo":6572,"mat":6573,"mere":6574,"alling":6575,"ĠPen":6576,"Ġwing":6577,"Ġyard":6578,"withstanding":6579,"zed":6580,"Ġ23":6581,"ressing":6582,"Ġfolly":6583,"want":6584,",[":6585,"Ġrad":6586,"Ġyonder":6587,"Ġthrowing":6588,"Ġcareer":6589,"chair":6590,"Ġquantity":6591,"apping":6592,"Ġimpulse":6593,"Ġvisitor":6594,"idents":6595,"isk":6596,"ĠAgain":6597,"porary":6598,"RA":6599,"asket":6600,"Ġfamilies":6601,"Ġvaluable":6602,"Such":6603,"Ġcountries":6604,"ercy":6605,"Ġsins":6606,"omb":6607,"Ġawake":6608,"OO":6609,"Ġcompass":6610,"Ġ27":6611,"closed":6612,"elly":6613,"Ġdelivered":6614,"Ġleaped":6615,"general":6616,"oping":6617,"Ġrepresented":6618,"llers":6619,"walk":6620,"Ġsurround":6621,"Ġmixed":6622,"Ġeleven":6623,"dest":6624,"Ġbanks":6625,"Ġinquiry":6626,"thr":6627,"Ġstayed":6628,"Ã¨":6629,"squ":6630,"Ġabund":6631,"expl":6632,"stra":6633,"Ġobed":6634,"othed":6635,"ĠRoyal":6636,".âĢĻ":6637,"ĠChristmas":6638,"Ġecho":6639,"within":6640,"Ġchapter":6641,"Ġconstantly":6642,"eral":6643,"Ġconsult":6644,"Ġlanded":6645,"Ġstartled":6646,"Ġlack":6647,"Ġlads":6648,"Ġawkward":6649,"Ġastonishment":6650,"Ġlibr":6651,"hess":6652,"different":6653,"Ġlan":6654,"Ġ28":6655,"iot":6656,"olen":6657,"Âł":6658,"possible":6659,"oration":6660,"super":6661,"inder":6662,"umbled":6663,"Ġdriving":6664,"Tr":6665,"Ġdoctrine":6666,"class":6667,"Ġfulf":6668,"Ġdeliver":6669,"Ġofficial":6670,"England":6671,"usk":6672,"Ġmanifest":6673,"ols":6674,"ĠSpani":6675,"Ġpurple":6676,"success":6677,"ĠHoly":6678,"ĠMic":6679,"Ġobservation":6680,"ĠPrincess":6681,"ĠColl":6682,"Ġfavourite":6683,"Ġmilk":6684,"Ġswear":6685,"Ġcontrol":6686,"ieties":6687,"Ġlocal":6688,"Ġeating":6689,"Ġseam":6690,"Ġsilk":6691,"Ġrent":6692,"Ġresolution":6693,"eight":6694,"ĠCity":6695,"Ġantic":6696,"Ġgrin":6697,"Ġfinds":6698,"asts":6699,"Ġastonished":6700,"orter":6701,"kespe":6702,"creat":6703,"ĠPol":6704,"ĠJer":6705,"ĠByron":6706,"Ġdragged":6707,"irk":6708,"Ġapartment":6709,"Ġpoured":6710,"towards":6711,"Ġseas":6712,"Ġtowns":6713,"oral":6714,"word":6715,"ĠMonsieur":6716,"Ġdancing":6717,"Ġdefinite":6718,"Ġdisposition":6719,"tri":6720,"UL":6721,"usions":6722,"ĠSept":6723,"itute":6724,"Ġselfish":6725,"Ġquarters":6726,"ĠSn":6727,"ĠDutch":6728,"Ġpointing":6729,"pher":6730,"Ġdeserted":6731,"Still":6732,"Ġsovere":6733,"ĠIts":6734,"Ġconceal":6735,"BER":6736,"ĠJose":6737,"cribed":6738,"erity":6739,"ribly":6740,"Ġuniversal":6741,"voice":6742,"suffic":6743,"Ġperplex":6744,"Ġglo":6745,"Ġdischar":6746,"Ġurged":6747,"Ġflour":6748,"Ġstrangers":6749,"Ġcas":6750,"Ġearnestly":6751,"ĠRiver":6752,"Ġdesir":6753,"Cl":6754,"Ġapplied":6755,"IE":6756,"Ġuncertain":6757,"friends":6758,"inated":6759,"Ġhumour":6760,"Ġsafely":6761,"Ġscientific":6762,"hered":6763,"kespeare":6764,"Ġgratitude":6765,"court":6766,"Ġ22":6767,"TON":6768,"felt":6769,"ograp":6770,"pleasure":6771,"uns":6772,"Ġembarrass":6773,"Ġvivid":6774,"Ġaccordingly":6775,"sometimes":6776,"omed":6777,"Ġashore":6778,"Ġaccur":6779,"Ġdisturbed":6780,"Ġling":6781,"dro":6782,"placed":6783,"ulating":6784,"lessness":6785,"Ġsteel":6786,"ĠTre":6787,"Poor":6788,"eches":6789,"render":6790,"quiet":6791,"Ġmechan":6792,"Ġsignal":6793,"IX":6794,"ĠĠĠĠĠĠĠĠĠĠĠĠĠ":6795,"ingham":6796,"unting":6797,"Ġknee":6798,"Ġintr":6799,"town":6800,"dev":6801,"Ġsenses":6802,"bear":6803,"Ġperceive":6804,"Ġbush":6805,"Ġlimbs":6806,"overnor":6807,"Ġobjection":6808,"Ġtower":6809,"wife":6810,"Ġod":6811,"pled":6812,"Ġsixty":6813,"Ġnest":6814,"Ġjump":6815,"Ġtorn":6816,"Ġeconom":6817,"iences":6818,"aps":6819,"Ġchim":6820,"pract":6821,"Ġnevertheless":6822,"Ġsuggestion":6823,"Ġnoon":6824,"Ġbranch":6825,"ĠSax":6826,"Ġsummon":6827,"urday":6828,"Ġbenefit":6829,"Americ":6830,"smith":6831,"Ġrighteous":6832,"change":6833,"Ġannoy":6834,"Ġ183":6835,"Ġnights":6836,"Ġassumed":6837,"deep":6838,"ĠSpain":6839,"given":6840,"ov":6841,"Ġdeclare":6842,"Ġkings":6843,"Ġbeard":6844,"Se":6845,"occasion":6846,"Ġdeeper":6847,"50":6848,"Ġmagnificent":6849,"fav":6850,"urred":6851,"Ġmarble":6852,"Ġclasses":6853,"Ġleis":6854,"itors":6855,"cipl":6856,"Ġdecision":6857,"Ġdise":6858,"Ġsailed":6859,"Ġanticip":6860,"amation":6861,"ĠHill":6862,"Ġgrounds":6863,"ĠĠĠĠĠĠĠĠĠĠĠĠĠĠĠĠĠĠĠ":6864,"ERS":6865,"ana":6866,"Ġstair":6867,"usive":6868,"Ġfame":6869,"Ġhoriz":6870,"Ġcommitted":6871,"ctober":6872,"Ġcart":6873,"Ġpir":6874,"Ġstated":6875,"icken":6876,"Ġawa":6877,"ORD":6878,"faced":6879,"Ġsob":6880,"ĠFanny":6881,"riedrich":6882,"ĠTell":6883,"Ġdrag":6884,"Ġmock":6885,"ĠVirgin":6886,"Ġexamined":6887,"Ġburned":6888,"Ġbeasts":6889,"ded":6890,"houses":6891,"pton":6892,"Ġremaining":6893,"already":6894,"occup":6895,"manner":6896,"Ġowing":6897,"UT":6898,"Ġbushes":6899,"Ġfrequent":6900,"Ġloyal":6901,"asked":6902,"Ġsolitary":6903,"Ġshoes":6904,"oper":6905,"gentleman":6906,"Ġreign":6907,"Ġbadly":6908,"iverse":6909,"Ġdoth":6910,"Ġextended":6911,"Ġlocked":6912,"Ġascertain":6913,"Two":6914,"Ġcrack":6915,"akened":6916,"Ġburden":6917,"Ġwandering":6918,"ĠAlex":6919,"Ġswiftly":6920,"icket":6921,"Ġplat":6922,"Ġbuck":6923,"Ġmidnight":6924,"Before":6925,"ai":6926,"Ġprint":6927,"scar":6928,"behind":6929,"Ġobserv":6930,"acco":6931,"Ġmarched":6932,"Ġflash":6933,"Tom":6934,"ĠFel":6935,"Ġuniform":6936,"Ġdistrict":6937,"Ġcontinually":6938,"broken":6939,"ĠLu":6940,"Tell":6941,"Ġgesture":6942,"haw":6943,"Ġpropri":6944,"coll":6945,"ĠJuly":6946,"athed":6947,"Ġscru":6948,"shire":6949,"Ġrout":6950,"ari":6951,"Ġirrit":6952,"zan":6953,"Ġsmoking":6954,"rag":6955,"ĠBilly":6956,"Ġdrank":6957,"Ġfourth":6958,"Even":6959,"Ġexcess":6960,"ouched":6961,"Ġcave":6962,"ĠBoston":6963,"ĠWashington":6964,"ĠJacob":6965,"Ġexpedition":6966,"resses":6967,"?âĢĿ":6968,"thousand":6969,"Ġrelieved":6970,"Ġlightly":6971,"ĠMel":6972,"Ġatmosphere":6973,"mount":6974,"ĠRo":6975,"Ġmagic":6976,"Ġwanting":6977,"Ġportra":6978,"Ġperil":6979,"Ġcompared":6980,"Ġreflection":6981,"andal":6982,"abor":6983,"Ġtort":6984,"Ġdebt":6985,"along":6986,"comfortable":6987,"otions":6988,"really":6989,"Ġinfl":6990,"Ġcompelled":6991,"Ġinner":6992,"Ġroll":6993,"Ġge":6994,"ayed":6995,"Ġsport":6996,"Ġtouching":6997,"Ġric":6998,"Ġfury":6999,"Ġsaddle":7000,"sal":7001,"Ġstrain":7002,"began":7003,"atching":7004,"ĠCorn":7005,"Ġconfident":7006,"Ġprejud":7007,"ĠĠĠĠĠĠĠĠĠĠĠĠĠĠĠĠĠ":7008,"Ġsilly":7009,"willing":7010,"Ġate":7011,"Ġcleared":7012,"Ġarrangement":7013,"Ġwrath":7014,"uine":7015,"Ġowe":7016,"beautiful":7017,"Ġbeings":7018,"ĠJean":7019,"least":7020,"ĠTH":7021,"ĠCath":7022,"Ġjoke":7023,"Ġentering":7024,"encies":7025,"wart":7026,"Ġcompet":7027,"actory":7028,"cription":7029,"Ġcell":7030,"Ġancest":7031,"Ġfolk":7032,"inqu":7033,"ĠPoor":7034,"Ġ11":7035,"Ġtemple":7036,"comple":7037,"Ġexquisite":7038,"Ġscenes":7039,"En":7040,"uv":7041,"ĠSea":7042,"ige":7043,"Ġservices":7044,"Pres":7045,"Ġinches":7046,"Ġdining":7047,"Ġangel":7048,"Ġremote":7049,"death":7050,"Ġreadily":7051,"feeling":7052,"trees":7053,"wit":7054,"ummer":7055,"Ġcheap":7056,"Ġdearest":7057,"--_":7058,"blood":7059,"mons":7060,"Ġmischief":7061,"Ġarticles":7062,"udence":7063,"ifts":7064,"Par":7065,"ĠGermany":7066,"Ġabsor":7067,"Ġinvited":7068,"tar":7069,"Ġpurposes":7070,"arrison":7071,"Ġcandle":7072,"Ġstraw":7073,"ĠCons":7074,"Ġvessels":7075,"General":7076,"hension":7077,"Ġslip":7078,"Ġpursuit":7079,"Ġacts":7080,"mine":7081,"Ġthence":7082,"Ġabsent":7083,"Ġsending":7084,"ĠAdam":7085,"Ġteacher":7086,"Ġsavages":7087,"Ġdeparted":7088,"spirit":7089,"ĠYe":7090,"wonder":7091,"sure":7092,"Ġdu":7093,"ifully":7094,"Ġchain":7095,"Ġfil":7096,"Ġswung":7097,"Ġdestruction":7098,"Ġach":7099,"Ġdistinctly":7100,"Ġsuspected":7101,"Ġpaint":7102,"oped":7103,"ESS":7104,"vest":7105,"rily":7106,"RI":7107,"Ġharsh":7108,"Ġphilosophy":7109,"agreeable":7110,"ĠStan":7111,"Ġreject":7112,"few":7113,"Ġverse":7114,"Ġingen":7115,"burgh":7116,"Ġsang":7117,"hope":7118,"asper":7119,"Ġspeaks":7120,"Ġaudience":7121,"Ġdil":7122,"gging":7123,"Ġfailure":7124,"Ġscore":7125,"ofty":7126,"Ġpolitics":7127,"Ġrespectable":7128,"AB":7129,"itself":7130,"Ġlift":7131,"Ġrelated":7132,"Ġruns":7133,"Ġeloqu":7134,"Ġtele":7135,"Ġintellectual":7136,"Sp":7137,"ĠIV":7138,"Ġmissed":7139,"UN":7140,"imony":7141,"Ġindifferent":7142,"Ġwake":7143,"ĠUnder":7144,"ĠEach":7145,"Ġdeed":7146,"ĠJimmy":7147,"ita":7148,"Ġdaughters":7149,"Ġseparated":7150,"Ġconfused":7151,"ITH":7152,"ording":7153,"Ġsubstance":7154,"bott":7155,"ĠBoth":7156,"spring":7157,"ĠMed":7158,"Ġowner":7159,"daughter":7160,"Ġunlike":7161,"chance":7162,"school":7163,"Ġrolling":7164,"Ġbewild":7165,"hab":7166,"resist":7167,"Ġalter":7168,"Ġdrinking":7169,"Ġfalls":7170,"Ġshed":7171,"Ġvex":7172,"alog":7173,"umption":7174,"antages":7175,"eyed":7176,"Ġelsewhere":7177,"istocr":7178,"Ġdismiss":7179,"lest":7180,"Ġcraw":7181,"olate":7182,"Ġdelic":7183,"Ġpunishment":7184,"ĠDar":7185,"Ġessential":7186,"Ġdirty":7187,"Ġ184":7188,"inion":7189,"iated":7190,"Ġtones":7191,"Ġdisturb":7192,"Ġdisappointed":7193,"ĠSon":7194,"Ġcharged":7195,"chas":7196,"nut":7197,"Only":7198,"Ġwi":7199,"Ġprecip":7200,"Ġped":7201,"ĠProv":7202,"Ġarchit":7203,"emy":7204,"Ġcommer":7205,"conven":7206,"asy":7207,"CE":7208,"Ġfires":7209,"Ġmaiden":7210,"Was":7211,"Ġabstr":7212,"Ġfarmer":7213,"Ġpopulation":7214,"Ġvic":7215,"Ġpolicy":7216,"Ġphenomen":7217,"grim":7218,"Ġlesson":7219,"Ġsen":7220,"Ġphrase":7221,"Certainly":7222,"run":7223,"ĠChan":7224,"Ġjest":7225,"ĠOther":7226,"ĠTake":7227,"ĠNed":7228,"Ġbegins":7229,"ĠMo":7230,"IST":7231,"Ġslope":7232,"ositions":7233,"Ġtribe":7234,"Ġheartily":7235,"Ġtrusted":7236,"Ġbark":7237,"umps":7238,"ĠHarold":7239,"Ġcoward":7240,"ĠAndrew":7241,"Ġhumanity":7242,"Ġclam":7243,"women":7244,"Ġyer":7245,"Ġwinds":7246,"draw":7247,"Ġfain":7248,"Ġsignific":7249,"object":7250,"justice":7251,"Ġga":7252,"Ġcolours":7253,"Ġabruptly":7254,"Ġgrav":7255,"bor":7256,"Ġexposed":7257,"Ġnoted":7258,"Ġsounded":7259,"Ġconstitution":7260,"ĠMur":7261,"ĠGree":7262,"Ġsalt":7263,"ictor":7264,"Ġspecim":7265,"Ġwha":7266,"rive":7267,"Ġdisgrace":7268,",)":7269,"Ġdeem":7270,"ĠKate":7271,"Ġcomment":7272,"Ġrecent":7273,"ĠRoger":7274,"Ġdevelopment":7275,"Ġreflected":7276,"Ġprofit":7277,"imm":7278,"Ġdisgu":7279,"Ġshortly":7280,"Ġaven":7281,"ĠOx":7282,"ĠFlorence":7283,"ctions":7284,"bacco":7285,"Ġnois":7286,"Ġcollected":7287,"Ġglow":7288,"Ġromantic":7289,"short":7290,"Ġexceedingly":7291,"ĠApp":7292,"lock":7293,"verted":7294,"ĠCHA":7295,"scape":7296,"Ġmarks":7297,"iner":7298,"ulpt":7299,"Ġconsidering":7300,"ADY":7301,"Ġgoodness":7302,"Ġinsist":7303,"rat":7304,"ĠGold":7305,"Ġjack":7306,"need":7307,"Ġtoil":7308,"Ġlibrary":7309,"ĠUpon":7310,"Ġpretend":7311,"Ġdiscussion":7312,"Ġcavalry":7313,"ĠFore":7314,"Ġ187":7315,"alone":7316,"Ġgloomy":7317,"direct":7318,"Ġrules":7319,"ĠMir":7320,"Ġ180":7321,"ica":7322,"ĠJon":7323,"Ġveget":7324,"Ġinch":7325,"Ġendure":7326,"Ġexperiment":7327,"opes":7328,"Ġventured":7329,"Ġfurnished":7330,"Ġbutter":7331,"Ġgovernor":7332,"mus":7333,"Ġlun":7334,"Ġnonsense":7335,"Ġsober":7336,"blance":7337,"Ġexpense":7338,"remember":7339,"inations":7340,"olt":7341,"Ġunconscious":7342,"Ġschol":7343,"ĠSometimes":7344,"cely":7345,"phew":7346,"uously":7347,"Ġsust":7348,"ĠĠĠĠĠĠĠĠĠĠĠĠĠĠ":7349,"Ġedition":7350,"Ġgeneration":7351,"proper":7352,"Ġstructure":7353,"Ġgranted":7354,"Ġwives":7355,"Ġentreat":7356,"Ġlively":7357,"Ġsmell":7358,"iolet":7359,"Ġreputation":7360,"prov":7361,"Ġbatt":7362,"wing":7363,"ufact":7364,"Ġmodest":7365,"Ġinev":7366,"Ġliqu":7367,"Ġenthusiasm":7368,"Ġsailors":7369,"incl":7370,"Ġreduced":7371,"fight":7372,"ico":7373,"Ġpoems":7374,"Ġsmart":7375,"Ġpolite":7376,"Ġprinted":7377,"Ġpup":7378,"Dear":7379,"sett":7380,"Take":7381,"Ġshy":7382,"Ġreasonable":7383,"Ġprotest":7384,"Ġflow":7385,"Ġaccompany":7386,"Ġnephew":7387,"Ġmingled":7388,"ĠCap":7389,"Ġrecollect":7390,"Ġcam":7391,"mad":7392,"Ġprocl":7393,"Ġsteamer":7394,"rified":7395,"Ġcommission":7396,"ĠTar":7397,"Ġseed":7398,"Ġcomrades":7399,"ĠEve":7400,"Ġborrow":7401,"Ġrev":7402,"Ġlikes":7403,"Ġamused":7404,"Ġfetch":7405,"strange":7406,"rison":7407,"lady":7408,"Ġinsp":7409,"Ġgang":7410,"ĠRem":7411,"gave":7412,"Ġacquired":7413,"liver":7414,"Ġpossibility":7415,"UM":7416,"anda":7417,"ĠThree":7418,"Ġjumped":7419,"Ġmadam":7420,"attering":7421,"Ġlaying":7422,"anting":7423,"ĠHast":7424,"Ġprayers":7425,"Ġdecide":7426,"arson":7427,"Ġarrive":7428,"Ġcher":7429,"ĠEuropean":7430,"Ġpuzzled":7431,"Ġmeantime":7432,"Ġbeaten":7433,"Ġhed":7434,"Ġchin":7435,"ulties":7436,"Ġagony":7437,"ĠMa":7438,"Ġsunk":7439,"Ġcities":7440,"Ġexhausted":7441,"\";":7442,"Ġsovereign":7443,"itate":7444,"ouncil":7445,"Ġbrid":7446,"Which":7447,"Ġregion":7448,"uming":7449,"Ġfeast":7450,"ounter":7451,"ovember":7452,"ĠDeath":7453,"Ġthread":7454,"fere":7455,"Somet":7456,"wall":7457,"Ġconsequences":7458,"Ġstarting":7459,"ĠCamp":7460,"gels":7461,"ena":7462,"Ġdesk":7463,"Ġacting":7464,"Ġindignation":7465,"Ġrefuge":7466,"fol":7467,"Ġwandered":7468,"ĠĠĠĠĠĠĠĠĠĠĠĠĠĠĠĠĠĠĠĠĠĠ":7469,"Ġtravelling":7470,"Ġprevented":7471,"VER":7472,"Ġgover":7473,"King":7474,"ĠBay":7475,"Ġfinish":7476,"Ġgallant":7477,"igation":7478,"second":7479,"Ġnon":7480,"ĠBible":7481,"often":7482,"bable":7483,"New":7484,"ĠAngel":7485,"itan":7486,"Ġkeeps":7487,"Again":7488,"Ġstuck":7489,"Ġpropose":7490,"ĠAN":7491,"Ġamusement":7492,"Ġgrowth":7493,"Ġrival":7494,"cham":7495,"icable":7496,"Ġneighbor":7497,"ĠHaw":7498,"ĠPeople":7499,"esses":7500,"Ġclock":7501,"sun":7502,"erate":7503,"Ġnamely":7504,"ighted":7505,"ĠPri":7506,"Ġtriump":7507,"ATION":7508,"Ġthither":7509,"Ġdirections":7510,"Ġcommenced":7511,"prof":7512,"Ġbrings":7513,"Ġautumn":7514,"Ġafterward":7515,"Ġruined":7516,"ioned":7517,"whe":7518,"Ġsilently":7519,"iday":7520,"especially":7521,"Ġrud":7522,"ĠĠĠĠĠĠĠĠĠĠĠĠĠĠĠĠĠĠĠĠĠĠĠ":7523,"bb":7524,"mediately":7525,"isl":7526,"Ġfasc":7527,"fles":7528,"ĠTherefore":7529,"Ġdeer":7530,"Ġnewspaper":7531,"Phil":7532,"Ġbarbar":7533,"Ġrespects":7534,"ua":7535,"ola":7536,"Ġ185":7537,"Ġinsult":7538,"Ġinform":7539,"ĠIsland":7540,"ĠVal":7541,"ĠJud":7542,"Ġrisen":7543,"Ġlou":7544,"grand":7545,"Ġcunning":7546,"times":7547,"above":7548,"ĠSar":7549,"VII":7550,"Ġheels":7551,"Ġfurniture":7552,"gend":7553,"onnet":7554,"Ġcloser":7555,"Ġcontrast":7556,"gedy":7557,"Ġdoubtful":7558,"Ġerror":7559,"Ġopposition":7560,"Ġengagement":7561,"oles":7562,"Ġforever":7563,"Ġreminded":7564,"hair":7565,"Ġdescribe":7566,"Ġaltered":7567,"Ġunw":7568,"ĠKen":7569,"Ġtremendous":7570,"continued":7571,"Ġcurse":7572,"ĠAnother":7573,"ĠĠĠĠĠĠĠĠĠĠĠĠĠĠĠĠĠĠĠĠ":7574,"Would":7575,"ittee":7576,"thy":7577,"Ġsheet":7578,"lla":7579,"Ġlofty":7580,"Ġult":7581,"Ġgiant":7582,"Ġsuperst":7583,"Ġrailway":7584,"Ad":7585,"Ġconfl":7586,"Ġniece":7587,"Ġscale":7588,"eries":7589,"ĠVol":7590,"Ġwarn":7591,"ĠAfrica":7592,"Ġcanv":7593,"Ġaccomplished":7594,"Ġintimate":7595,"Ġfitted":7596,"Ġreaders":7597,"ilight":7598,"Ġfeels":7599,"aign":7600,"letter":7601,"Ġfeeble":7602,"appearance":7603,"bal":7604,"azz":7605,"Ġmoonlight":7606,"Ġ179":7607,"Ġbust":7608,"Ġteaching":7609,"Ġwedding":7610,"Ġhappens":7611,"Ġfearful":7612,"west":7613,"izz":7614,"Ġraising":7615,"ĠHugh":7616,"party":7617,"Ġdimin":7618,"Ġpoets":7619,"ashes":7620,"Ġaltern":7621,"Ġstudied":7622,"Ġtid":7623,"Ġheed":7624,"ĠApril":7625,"anded":7626,"icles":7627,"Ġgig":7628,"Ġplot":7629,"convers":7630,"Ġstrangely":7631,"Ġadopted":7632,"Ġpains":7633,"Ġrepeat":7634,"circumstances":7635,"certainly":7636,"Ġfert":7637,"rage":7638,"shad":7639,"Ġpatron":7640,"ushes":7641,"Ġpermit":7642,"meet":7643,"Ġcloak":7644,"Ġdepth":7645,"ĠOff":7646,"Ġexecution":7647,"ived":7648,"prop":7649,"Ġromance":7650,"OP":7651,"shot":7652,"idel":7653,"Ġconcealed":7654,"minded":7655,"anche":7656,"Ġactions":7657,"Ġtiny":7658,"irmed":7659,"Ġblew":7660,"Ġoutward":7661,"Ġtrip":7662,"Ġobeyed":7663,"icking":7664,"Ġdram":7665,"Ġperman":7666,"ĠTemple":7667,"ĠLand":7668,"Ġpasses":7669,"family":7670,"AIN":7671,"Ġpenet":7672,"erted":7673,"Ġparish":7674,"inch":7675,"Ġdistinction":7676,"avery":7677,"eanwhile":7678,"ĠYOU":7679,"ĠJoseph":7680,"aments":7681,"eck":7682,"Ġperformed":7683,"Ġmerit":7684,"DER":7685,"itively":7686,"ester":7687,"Ġsource":7688,"build":7689,"Ġupstairs":7690,"Ġ:":7691,"dog":7692,"Ġprize":7693,"earth":7694,"Ġsweep":7695,"Ġholds":7696,"Ġpositive":7697,"Ġattacked":7698,"feet":7699,"ierre":7700,"Ġsway":7701,"Ġdang":7702,"ĠLatin":7703,"Ġgoin":7704,"prot":7705,"Ġrealized":7706,"author":7707,"Ġincred":7708,"year":7709,"Ġshield":7710,"iana":7711,"guard":7712,"ĠCro":7713,"Ġsunset":7714,"itty":7715,"Ġmachine":7716,"Ġdashed":7717,"Ġmillion":7718,"grow":7719,"London":7720,"reath":7721,"Ġintend":7722,"ĠOut":7723,"Ġdre":7724,"arly":7725,"conce":7726,"Ġstirred":7727,"Ġcutting":7728,"Ġattent":7729,"24":7730,"sense":7731,"ĠSol":7732,"boys":7733,"Ġmajority":7734,"Ġbelonging":7735,"Ġtrifle":7736,"Ġfortunate":7737,"Ġ\"_":7738,"French":7739,"Ġmart":7740,"rian":7741,"sell":7742,"irts":7743,"aying":7744,"ĠBoy":7745,"Ġdisappointment":7746,"oup":7747,"Ġroads":7748,"Ġbloom":7749,"Ġgracious":7750,"ĠPresident":7751,"borough":7752,"Ġfed":7753,"ĠEthel":7754,"Ġmasters":7755,"erton":7756,"George":7757,"eenth":7758,"Ġmerchant":7759,"Ġneighbourhood":7760,"Ġconceive":7761,"ĠDay":7762,"Ġfund":7763,"ements":7764,"Ġdeveloped":7765,"Ġast":7766,"bound":7767,"Ġissue":7768,"itality":7769,"Ġinsect":7770,"Ġdaylight":7771,".'\"":7772,"Ġmonarch":7773,"div":7774,"Ġpine":7775,"ĠRover":7776,"Ġpool":7777,"Ġexisted":7778,"Ġpile":7779,"tes":7780,"Ġcrossing":7781,"dered":7782,"hot":7783,"Ġornament":7784,"Ġpink":7785,"begin":7786,"Ġcouncil":7787,"iege":7788,"ĠLight":7789,"Thou":7790,"whel":7791,"elf":7792,"several":7793,"ooner":7794,"Ġfarewell":7795,"allel":7796,"olved":7797,"rim":7798,"Ġflashed":7799,"Ġcalmly":7800,"quet":7801,"achment":7802,"viously":7803,"Ġfet":7804,"Ġwherever":7805,"contr":7806,"Ġmotive":7807,"ĠMost":7808,"Ġambition":7809,"Ġgathering":7810,"Ġchimney":7811,"Ġprovisions":7812,"ĠSen":7813,"Ġgenuine":7814,"ĠClara":7815,"Ġcharacteristic":7816,"Ġintervals":7817,"Ġvictim":7818,"isp":7819,"Ġbeating":7820,"leave":7821,"impse":7822,"ĠCont":7823,"Ġcreated":7824,"evening":7825,"vo":7826,"Ġaccounts":7827,"inous":7828,"istence":7829,"pict":7830,"hin":7831,"ĠĠĠĠĠĠĠĠĠĠĠĠĠĠĠĠĠĠ":7832,"adise":7833,"Ġabandoned":7834,"ĠMort":7835,"umble":7836,"ĠShall":7837,"gram":7838,"Ġlanding":7839,"ĠTurn":7840,"ugged":7841,"oard":7842,"Ġresting":7843,"org":7844,"Ġadmin":7845,"Sid":7846,"fts":7847,"olutely":7848,"Ġprecisely":7849,"Ġrab":7850,"itudes":7851,"Ġmasses":7852,"ys":7853,"ravag":7854,"din":7855,"Ġstor":7856,"VIII":7857,"Ġlust":7858,"Ġenabled":7859,"Chapter":7860,"essie":7861,"Any":7862,"Ġsadly":7863,"Ġfan":7864,"Ġhandkerchief":7865,"Ġanchor":7866,"ĠAmy":7867,"followed":7868,"ustace":7869,"Ġeleg":7870,"ĠTim":7871,"Ġbund":7872,"uity":7873,"ĠCur":7874,"Ġeaten":7875,"Ġseeking":7876,"dead":7877,"ivering":7878,"Ġbedroom":7879,"ĠNorman":7880,"ĠSav":7881,"Ġclergyman":7882,"ĠSu":7883,"Ġagent":7884,"roll":7885,"wen":7886,"else":7887,"chase":7888,"Ġmessenger":7889,"gered":7890,"Ġadmirable":7891,"enses":7892,"although":7893,"Â§":7894,"Ġresent":7895,"Ġusing":7896,"Ġimmort":7897,"Ġinferior":7898,"ĠGlad":7899,"Ġgrie":7900,"Ġfaded":7901,"Ġselection":7902,"Ġtendency":7903,"Ġgraceful":7904,"Ġelectric":7905,"MY":7906,"Ġeh":7907,"represent":7908,"call":7909,"Ġslain":7910,"Ġdoorway":7911,"thus":7912,"Ġfeed":7913,"Ġlordship":7914,"iency":7915,"idity":7916,"ĠSince":7917,"ĠCa":7918,"Ġconception":7919,"umbling":7920,"Ġrejoined":7921,"ĠTommy":7922,"Ġfortnight":7923,"Ġrav":7924,"ĠSk":7925,"TO":7926,"ĠCong":7927,"giving":7928,"Ġhiding":7929,"ĠĠĠĠĠĠĠĠĠĠĠĠ":7930,"Ġhundreds":7931,"sty":7932,"ĠSaturday":7933,"Ġpreserved":7934,"Ġaverage":7935,"neighb":7936,"coloured":7937,"TS":7938,"green":7939,"Ġgrandfather":7940,"Ġavo":7941,"Ġsimplicity":7942,"Ġconfessed":7943,"Ġvel":7944,"ĠScotch":7945,"geance":7946,"ggy":7947,"suppose":7948,"Ġ188":7949,"bene":7950,"Ġexamine":7951,"Ġraces":7952,"Ġsensation":7953,"Ġgroups":7954,"Ġblessing":7955,"Ġxx":7956,"Ġard":7957,"ender":7958,"Ġfoul":7959,"Ġwrought":7960,"true":7961,"Ġeggs":7962,"luck":7963,"inson":7964,"Ġfairy":7965,"Ġthreatened":7966,"onday":7967,"Ġwilderness":7968,"Ġcenturies":7969,"truth":7970,"greg":7971,"Ġdarling":7972,"Ġdevotion":7973,"Ġmoreover":7974,"Ġceremony":7975,"ĠLaura":7976,"ĠBook":7977,"answered":7978,"Ġstole":7979,"ĠEmperor":7980,"ĠAlf":7981,"covered":7982,"ĠAcc":7983,"ĠOctober":7984,"taking":7985,"Ġcigar":7986,"Ġpluck":7987,"cial":7988,"ĠShakespeare":7989,"Ġadventures":7990,"ĠLow":7991,"Ġspell":7992,"Ġextrem":7993,"Ġinquire":7994,"ĠMAR":7995,"Ġveil":7996,"Ġflushed":7997,"Ġnorthern":7998,"ĠFriedrich":7999,"Ġdetail":8000,"natured":8001,"writing":8002,"Ġexperienced":8003,"Ġarrangements":8004,"iser":8005,"Ġdeadly":8006,"berg":8007,"ĠGil":8008,"Ġridiculous":8009,"Ġbears":8010,"Ġcuriously":8011,"ĠDou":8012,"ensity":8013,"Ġdocum":8014,"suddenly":8015,"Ġclimb":8016,"ĠTime":8017,"ĠBritain":8018,"regard":8019,"First":8020,"jac":8021,"Ġoil":8022,"cember":8023,"Ġsupported":8024,"ineas":8025,"Ġtobacco":8026,"consequ":8027,"fair":8028,"itled":8029,"Ġthrill":8030,"Ġcollege":8031,"spo":8032,"Ġparting":8033,"Ġaffectionate":8034,"ino":8035,"Ġchances":8036,"Ġtenderness":8037,"Ġbitterly":8038,"husband":8039,"Ġclimbed":8040,"Ġreproach":8041,"Ġroused":8042,"spic":8043,"Ġcease":8044,"Ġdivision":8045,"ĠRachel":8046,"Ġnecessarily":8047,"Ġwrites":8048,"ĠAmong":8049,"Ġwhirl":8050,"Ġreluct":8051,"Ġinduced":8052,"enny":8053,"bery":8054,"thinking":8055,"23":8056,"hill":8057,"Ġconfined":8058,"Ġcolonel":8059,"next":8060,"ĠPresently":8061,"ato":8062,"Ġpover":8063,"deal":8064,"Ġdetect":8065,"Ġpistol":8066,"Ġexamination":8067,"Ġmurmur":8068,"Ġcoal":8069,"trave":8070,"emb":8071,"leton":8072,"Ġcompliment":8073,"Ġmultitude":8074,"Ġpoverty":8075,"Ġlandlord":8076,"acted":8077,"Ġstag":8078,"quick":8079,"LY":8080,"inth":8081,"Ġox":8082,"Ġcorrupt":8083,"rington":8084,"Ġrevolution":8085,"Ġsed":8086,"Ġcapacity":8087,"Ġpaying":8088,"Had":8089,"ospel":8090,"owl":8091,"sold":8092,"welt":8093,"Ġbeds":8094,"Ġcommunication":8095,"vell":8096,"Ġpassions":8097,"icing":8098,"Ġcounty":8099,"Ġglit":8100,"Ġmeanwhile":8101,"ĠCarol":8102,"ĠOxford":8103,"Ġeighteen":8104,"ĠSociety":8105,"Ġ\"'":8106,"Ġrhy":8107,"Ġaffl":8108,"Ġnerves":8109,"Ġunited":8110,"ĠPolly":8111,"Ġpassages":8112,"Ġgrant":8113,"Ġelements":8114,"Ġshirt":8115,"However":8116,"Ġsits":8117,"asures":8118,"Ġlaz":8119,"ĠAng":8120,"Ġbeloved":8121,"Ġavail":8122,"Ġdisgust":8123,"sac":8124,"uty":8125,"Ġplays":8126,"knowledge":8127,"ĠWy":8128,"Ġsuccession":8129,"Ġlegal":8130,"vill":8131,"Ġenable":8132,"rels":8133,"ĠSeptember":8134,"Ġproblem":8135,"Ġretire":8136,"Ġlunch":8137,"ĠThy":8138,"owning":8139,"uppose":8140,"IGH":8141,"Ġinstrument":8142,"aith":8143,"Ġbatter":8144,"Ġcho":8145,"Ġunpleasant":8146,"Ġindependent":8147,"EST":8148,"ĠDem":8149,"Ġpark":8150,"ĠCould":8151,"Ġburnt":8152,"oiselle":8153,"Ġweapons":8154,",_":8155,"Ġlend":8156,"Ġoffence":8157,"Ġsink":8158,"Ġbishop":8159,"across":8160,"Car":8161,"ĠWild":8162,"intellig":8163,"Ġmead":8164,"gold":8165,"orig":8166,"Ġsecurity":8167,"Ġmusk":8168,"uscript":8169,"Ġpriests":8170,"Ġheir":8171,"Ġpartner":8172,"Ġhorizon":8173,"inf":8174,"Ġthirst":8175,"ĠEmily":8176,"atherine":8177,"Ġbetrayed":8178,"27":8179,"Old":8180,"Ġnay":8181,"vet":8182,"Ġchamp":8183,"IF":8184,"Ġrepent":8185,"Ġeasier":8186,"ĠSher":8187,"Ġdepends":8188,"cipline":8189,"Ġcompleted":8190,"Ġtomb":8191,"Ġcontents":8192,"Ġletting":8193,"Another":8194,"athetic":8195,"pop":8196,"Ġded":8197,"miral":8198,"iah":8199,"alem":8200,"Fl":8201,"Ġreferred":8202,"Ġbasket":8203,"Ġovercome":8204,"probably":8205,"Ġcontro":8206,"Ġuneasy":8207,"inburgh":8208,"illings":8209,"Ġcareless":8210,"returned":8211,"ĠJudge":8212,"corn":8213,"Ġwhereas":8214,"ĠAlso":8215,"itious":8216,"Ġheavens":8217,"nold":8218,"olas":8219,"Ġprey":8220,"Ġcontrad":8221,"Ġreaching":8222,"ooped":8223,"miss":8224,"Ġwaved":8225,"Ġcrest":8226,"Ġdepos":8227,"Ġlosing":8228,"bad":8229,"actly":8230,"Ġsculpt":8231,"Ġcommunity":8232,"Ġfatig":8233,"Ġhes":8234,"Ġsofa":8235,"inding":8236,"ĠRuth":8237,"det":8238,"Ġdecent":8239,"frey":8240,"ĠPut":8241,"Ġalarmed":8242,"Ġresidence":8243,"Ġtreatment":8244,"Ġdine":8245,"Ġmend":8246,"Ġbalance":8247,"anx":8248,"Ġinvitation":8249,"Ġlearnt":8250,"Ġrevenge":8251,"mel":8252,"ĠAct":8253,"Ġstroke":8254,"public":8255,"Ġwash":8256,"forms":8257,"Ġeditor":8258,"Ġsecured":8259,"Ġclaims":8260,"ĠVery":8261,"Ġren":8262,"ĠLie":8263,"fold":8264,"Ġfog":8265,"Ġesteem":8266,"Say":8267,"Ġmedic":8268,"Ġtrump":8269,"Ġanxiously":8270,"Ġknights":8271,"cad":8272,"Ġblows":8273,"Ġinterfere":8274,"Ġarts":8275,"aph":8276,"Ġbehalf":8277,"ĠĠĠĠĠĠĠĠĠĠĠĠĠĠĠĠĠĠĠĠĠĠĠĠĠ":8278,"Ġreported":8279,"Ġinterior":8280,"OND":8281,"conv":8282,"Ġneglect":8283,"rene":8284,"bot":8285,"ĠSaint":8286,"_--":8287,"Ġcaptured":8288,"Ġvanity":8289,"Ġtradition":8290,"sole":8291,"El":8292,"elia":8293,"Ġcitizens":8294,"uan":8295,"urches":8296,"Ġwearing":8297,"ĠVenice":8298,"ictions":8299,"iary":8300,"ĠAustri":8301,"Ġdoubts":8302,"Ġputs":8303,"Ġmourn":8304,"Ġfathers":8305,"Ġrestored":8306,"uk":8307,"Ġquestioned":8308,"aston":8309,"Ġclay":8310,"rael":8311,"near":8312,"Ġgown":8313,"ĠOt":8314,"sugg":8315,"Ġsupre":8316,"Ġesc":8317,"Ġcontented":8318,"yourself":8319,"More":8320,"castle":8321,"Ã±":8322,"Ġbuildings":8323,"ras":8324,"Ġcontract":8325,"Ġsubtle":8326,"Ġsupreme":8327,"Ġprophe":8328,"unless":8329,"ĠNay":8330,"Ġfastened":8331,"iate":8332,"commun":8333,"mund":8334,"chard":8335,"ridge":8336,"Ġdew":8337,"Ġdeeds":8338,"ĠXXX":8339,"ications":8340,"ĠPur":8341,"Ġstruggling":8342,"Ġawe":8343,"ribution":8344,"Ġtheatre":8345,"ilda":8346,"Ġpolic":8347,"'--":8348,"bright":8349,"Ġsubsequ":8350,"Ġinspect":8351,"Ġcannon":8352,"Ġproposition":8353,"gings":8354,"Ġcock":8355,"mean":8356,"About":8357,"Ġpressure":8358,"ĠWall":8359,"bra":8360,"ciously":8361,"Ġwarned":8362,"Ġpersuaded":8363,"jour":8364,"Ġimperfect":8365,"Ġconquer":8366,"Ġpassengers":8367,"conn":8368,"ceiving":8369,"Ġwashed":8370,"ĠFle":8371,"Ġweapon":8372,"Their":8373,"Ġreceiving":8374,"ĠIsabel":8375,"glas":8376,"RY":8377,"Ġoccasional":8378,"Ġpond":8379,"ĠCy":8380,"Ġinterval":8381,"Ġwalks":8382,"become":8383,"ĠArt":8384,"Ġjolly":8385,"rers":8386,"Ġshooting":8387,"usually":8388,"ĠGri":8389,"ĠMaria":8390,"inkle":8391,"Ġdwelling":8392,"Ġbrush":8393,"Mary":8394,"Ġsem":8395,"Ġglimpse":8396,"Ġdressing":8397,"Ġcounted":8398,"Ġplatform":8399,"Ġdemonstr":8400,"Ġgarrison":8401,"etty":8402,"Ġcharity":8403,"Ġsigned":8404,"Ġsolic":8405,"state":8406,"Ġ40":8407,"ĠHastings":8408,"cas":8409,"Ġoak":8410,"Ger":8411,"ĠEmp":8412,"ibilities":8413,"ĠThrough":8414,"Ġfre":8415,"ĠHaving":8416,"Ġrevel":8417,"Ġoperation":8418,"itations":8419,"ints":8420,"Ġstring":8421,"Ġconceived":8422,"Ġgorge":8423,"Ġram":8424,"Ġmillions":8425,"Ġcomparison":8426,"hear":8427,"Ġadmired":8428,"ho":8429,"Ġmant":8430,"Ġguessed":8431,"whatever":8432,"Ġmisfortune":8433,"ĠWat":8434,"ĠMarquis":8435,"Dr":8436,"ĠDom":8437,"means":8438,"ĠBa":8439,"ĠÃ":8440,"esy":8441,"Ġmeasures":8442,"pain":8443,"Ġsails":8444,"ball":8445,"orders":8446,"Ġvirtues":8447,"grave":8448,"Ġupright":8449,"Ġclimate":8450,"emoiselle":8451,"Ġleather":8452,"26":8453,"orus":8454,"Pl":8455,"Ye":8456,"ĠMax":8457,"Ġblock":8458,"rick":8459,"Ġgifts":8460,"ĠSpaniards":8461,"Ġrecall":8462,"====":8463,"Ġafore":8464,"Ġwages":8465,"immer":8466,"help":8467,"Ġlantern":8468,"Ġformerly":8469,"ĠPan":8470,"danger":8471,"Ġinward":8472,"Ġchairs":8473,"answer":8474,"Ġtwilight":8475,"Ġtreacher":8476,"Ġbeer":8477,"ĠRO":8478,"Ġvisitors":8479,"Man":8480,"Ġpled":8481,"remark":8482,"Ġdenied":8483,"Ġtales":8484,"Ġiii":8485,"Ġdreamed":8486,"Ġpp":8487,"Ġcares":8488,"Ġhesitation":8489,"omach":8490,"ĠON":8491,"Ġcelebrated":8492,"fear":8493,"Ġdiver":8494,"Dick":8495,"Ġprem":8496,"ĠYoung":8497,"Ġincome":8498,"ĠLeon":8499,"determ":8500,"Ġaristocr":8501,"Ġimpressed":8502,"Ġhalted":8503,"Ġsolitude":8504,"Ġload":8505,"Ġtin":8506,"inkled":8507,"Ġleisure":8508,"Ġfishing":8509,"RAN":8510,"office":8511,"vous":8512,"Ġresistance":8513,"ĠBurn":8514,"Ġconstit":8515,"Ġregarding":8516,"Ġpockets":8517,"prep":8518,"HER":8519,"unce":8520,"Ġsurvey":8521,"Ġhearty":8522,"Ġreconc":8523,"Ġquit":8524,"Ġstaff":8525,"prison":8526,"Ġenterprise":8527,"arian":8528,"Ġmob":8529,"udder":8530,"Peter":8531,"Ġadapt":8532,"important":8533,"Ġtrembled":8534,"phan":8535,"Ġlucky":8536,"Ġwestern":8537,"Ġreb":8538,"Ġhorrid":8539,"lyn":8540,"places":8541,"Ġloc":8542,"Ġbargain":8543,"unction":8544,"Ġresour":8545,"CT":8546,"Ġassembled":8547,"Ġsymb":8548,"ĠSusan":8549,"Ġretorted":8550,"enote":8551,"ĠJoan":8552,"IA":8553,"Ġappet":8554,"Ġsubl":8555,"Ġpermission":8556,"smond":8557,"ĠFour":8558,"Sidenote":8559,"ĠPart":8560,"Ġshouting":8561,"complete":8562,"Ġduck":8563,"famil":8564,"Ġdisease":8565,"ĠRow":8566,"Ġguilt":8567,"Ġcoarse":8568,"Ġinquiries":8569,"Ġpatter":8570,"Ġopposed":8571,"Ġcoo":8572,"riages":8573,"40":8574,"mem":8575,"Pe":8576,"Ġdecor":8577,"Ġbrute":8578,"decl":8579,"Ġrushing":8580,"ĠOliver":8581,"window":8582,"Ġintelligent":8583,"Ġpreferred":8584,"Ġlur":8585,"ortun":8586,"Ġcentral":8587,"Rob":8588,"faith":8589,"zing":8590,"Ġdumb":8591,"try":8592,"čč":8593,"Ġpitch":8594,"Ġrevealed":8595,"retary":8596,"Ġwriters":8597,"Ġhideous":8598,"front":8599,"Ġmould":8600,"Ġcontaining":8601,"Ġmanufact":8602,"Ġpowder":8603,"advantage":8604,"Ġfootsteps":8605,"offrey":8606,"Ġadvancing":8607,"Ġwarmth":8608,"iger":8609,"ĠGovernor":8610,"quarters":8611,"Ġrepose":8612,"Ġpassionate":8613,"Ġdivers":8614,"illery":8615,"ĠĠĠĠĠĠĠĠĠĠĠĠĠĠĠĠĠĠĠĠĠĠĠĠĠĠ":8616,"aton":8617,"Ġfaintly":8618,"cause":8619,"reading":8620,"aneous":8621,"ĠHence":8622,"ĠFelix":8623,"Ġroot":8624,"._]":8625,"Ġsettlement":8626,"ĠDuring":8627,"lour":8628,"Ġstopping":8629,"Ġnarrative":8630,"eur":8631,"Ġwont":8632,"Ġirregular":8633,"company":8634,"Ġestablishment":8635,"Ġfox":8636,"strous":8637,"Ġmaintain":8638,"grad":8639,"Ġtroop":8640,"Ġdwelt":8641,"ĠDen":8642,"Ġunion":8643,"Ġconvenient":8644,"iquity":8645,"sters":8646,"Ġinstances":8647,"oubtedly":8648,"Ġmostly":8649,"28":8650,"Ġgross":8651,"Ġber":8652,"carried":8653,"cel":8654,"Ġstolen":8655,"soever":8656,"Ġimpatient":8657,"ustry":8658,"Ġrecognised":8659,"thren":8660,"Ġhumor":8661,"tra":8662,"Ġgardens":8663,"oughs":8664,"vin":8665,"fish":8666,"Ġhaz":8667,"ĠGrey":8668,"Ġphot":8669,"fif":8670,"entered":8671,"Ġtribes":8672,"iron":8673,"ĠAp":8674,"enery":8675,"Ġskipper":8676,"ĠWorld":8677,"Ġcitizen":8678,"Ġleads":8679,"angled":8680,"Ġneighbours":8681,"Ġsacrific":8682,"ĠKnight":8683,"ĠDE":8684,"ĠRay":8685,"ĠMoreover":8686,"ĠCham":8687,"ĠNovember":8688,"Ġshaken":8689,"Ġreef":8690,"Ġranks":8691,"Ġdamp":8692,"Ġseats":8693,"Ġlawn":8694,"Ġwrapped":8695,"Ġalas":8696,"Ġrelative":8697,"ĠDorothy":8698,"ebru":8699,"ĠTown":8700,"Ġspear":8701,"ĠCatholic":8702,"VE":8703,"mot":8704,"Ġgasped":8705,"Ġprodig":8706,"ĠTra":8707,"Ġlandscape":8708,"Ġlimited":8709,"Ġhoarse":8710,"\"_":8711,"Ġbreathing":8712,"Ġeldest":8713,"Ġobedience":8714,"says":8715,"Ġtrunk":8716,"ĠClare":8717,"received":8718,"orial":8719,"Ġrebell":8720,"Once":8721,"Ġsatisfy":8722,"ebruary":8723,"ĠMars":8724,"Ġfloating":8725,"Ġlament":8726,"Ġacknowledged":8727,"ifications":8728,"Ġplunged":8729,"ĠDry":8730,"Ġchuck":8731,"Ġwander":8732,"Ġinstructions":8733,"iations":8734,"Ġfaced":8735,"istr":8736,"doing":8737,"Ġdin":8738,"relig":8739,"Ġboldly":8740,"married":8741,"Ġemployment":8742,"Ġsupplied":8743,"Ġbrood":8744,"Ġartific":8745,"........":8746,"pson":8747,"erer":8748,"Ġbrut":8749,"Father":8750,"KE":8751,"kept":8752,"incip":8753,"ĠĠĠĠĠĠĠĠĠĠĠĠĠĠĠĠĠĠĠĠĠĠĠĠĠĠĠ":8754,"brance":8755,"ĠĠĠĠĠĠĠĠĠĠĠĠĠĠĠĠĠĠĠĠĠĠĠĠĠĠĠĠ":8756,"ĠĠĠĠĠĠĠĠĠĠĠĠĠĠĠĠĠĠĠĠĠĠĠĠĠĠĠĠĠ":8757,"29":8758,"Ġgleam":8759,"during":8760,"ĠCraw":8761,"Ġsym":8762,"retion":8763,"Ġfisher":8764,"esc":8765,"Ġseventy":8766,"Ġlightning":8767,"Ġexisting":8768,"Ġdaring":8769,"Ġarise":8770,"ogue":8771,"sleep":8772,"Ġassume":8773,"INE":8774,"ribute":8775,"Ġattracted":8776,"attempt":8777,"Ġcurtain":8778,"apa":8779,"ĠWater":8780,"ĠJos":8781,"Ġslavery":8782,"priv":8783,"Ġseconds":8784,"Ġpersec":8785,"Ġcomrade":8786,"Ġinspir":8787,"Ġfollowers":8788,"nation":8789,"Ġtu":8790,"Ġelev":8791,"Ġfunny":8792,"Ġadvantages":8793,"Ġtragedy":8794,"learn":8795,"berry":8796,"inces":8797,"Ġkne":8798,"During":8799,"inv":8800,"Ġdismay":8801,"Ġjustified":8802,"Ġwithdraw":8803,"rise":8804,"Ġthoughtful":8805,"Ġchase":8806,"iii":8807,"Ġlegend":8808,"Ġfounded":8809,"Ġbuff":8810,"Ġpretended":8811,"ICK":8812,"ĠVI":8813,"Ġproceedings":8814,"seeing":8815,"herent":8816,"Ġenjoyment":8817,"Ġbelongs":8818,"gall":8819,"Ã¡":8820,"rooms":8821,"Ġdece":8822,"Ġdepths":8823,"Bar":8824,"Ġgrows":8825,"Ġthir":8826,"Ġawakened":8827,"ĠBern":8828,"estab":8829,"ĠCec":8830,"ĠVictor":8831,"Ġdoubted":8832,"ril":8833,"fallen":8834,"Gu":8835,"ounding":8836,"Ġhandle":8837,"former":8838,"onial":8839,"Ġpig":8840,"Ġcomparatively":8841,"free":8842,"Ġhaul":8843,"Ġrasc":8844,"sar":8845,"became":8846,"Ġmotives":8847,"oa":8848,"tre":8849,"ieu":8850,"Ġcollection":8851,"organ":8852,"urious":8853,"ĠCouncil":8854,"Ġrestless":8855,"Ġperfection":8856,"Ġrespond":8857,"azed":8858,"aved":8859,"Ġprincess":8860,"concern":8861,"Ġcards":8862,"inally":8863,"Ġrescue":8864,"Ġindicated":8865,"Ġneglected":8866,"Ġruff":8867,"Ġ189":8868,"Ġprepare":8869,"recogn":8870,"Ġyielded":8871,",--\"":8872,"getting":8873,"Ġexchange":8874,"thou":8875,"ĠJerry":8876,"Ġpurchas":8877,"aus":8878,"ĠMah":8879,"ĠBon":8880,"Ġincluding":8881,"Ġfolded":8882,"mal":8883,"Ġgoss":8884,"ĠMex":8885,"Ġinduce":8886,"Ġwasted":8887,"Ġcommonly":8888,"Like":8889,"ĠHy":8890,"Ġoffering":8891,"Ġabandon":8892,"ĠSop":8893,"Ġzeal":8894,"Ġerrand":8895,"Ġsquire":8896,"oster":8897,"proceed":8898,"Ġowned":8899,"Ġ$":8900,"Ġcongrat":8901,"Having":8902,"distance":8903,"Ġconducted":8904,"Ġfurious":8905,"Ġhatred":8906,"Ġnet":8907,"ĠCat":8908,"ĠNevertheless":8909,"Ġbench":8910,"ĠSab":8911,"Ġembr":8912,"influ":8913,"Ġpuff":8914,"Ġpressing":8915,"Ġcriticism":8916,"Ġdeserve":8917,"Ġnut":8918,"Ġsubmit":8919,"Shall":8920,"ĠLake":8921,"Ġsummit":8922,"lines":8923,"sn":8924,"Ġexagger":8925,"Ġproposal":8926,"dale":8927,"gle":8928,"isten":8929,"isible":8930,"Ġdiscourse":8931,"ĠWhether":8932,"erick":8933,"Ġindifference":8934,"bank":8935,"cre":8936,"dear":8937,"Ġhook":8938,"ĠGuy":8939,"pherd":8940,"apan":8941,"Ġhind":8942,"Ġgale":8943,"Ġbrass":8944,"Though":8945,"idd":8946,"unken":8947,"Ġfant":8948,"Ġgrain":8949,"sens":8950,"Ġmorn":8951,"Ġentitled":8952,"ARD":8953,"Ġindividuals":8954,"Ġangels":8955,"ĠWere":8956,"Ġdrowned":8957,"Ġruins":8958,"riday":8959,"Ġmast":8960,"istent":8961,"Ġslender":8962,"stud":8963,"Ġau":8964,"Ġunjust":8965,"skin":8966,"ange":8967,"Ġassurance":8968,"ĠCountess":8969,"Ġverses":8970,"Ġseeds":8971,"ĠJews":8972,"Ġreverence":8973,"Ġportrait":8974,"Ġpear":8975,"uthors":8976,"Ġshell":8977,"Ġfinest":8978,"Ġ----":8979,"Ġchecked":8980,"ĠWithout":8981,"Ġhasn":8982,"blue":8983,"Ġincreasing":8984,"Ġtie":8985,"Ġdesires":8986,"Ġcanvas":8987,"fert":8988,"Ġparticulars":8989,"gers":8990,"iano":8991,"wed":8992,"avement":8993,"Ġawoke":8994,"ensions":8995,"ĠMAN":8996,"Ġscandal":8997,"azine":8998,"cott":8999,"Ġrecommend":9000,"Ġstandard":9001,"Ġillness":9002,"expression":9003,"Ġsongs":9004,"bod":9005,"Ġfoe":9006,"ĠGive":9007,"Ġminor":9008,"opened":9009,"Ġemotions":9010,"Ġspared":9011,"ĠNich":9012,"Ġcontact":9013,"grown":9014,"Ġratt":9015,"Ġcorp":9016,"Ġmotionless":9017,"Ġstores":9018,"inence":9019,"ordered":9020,"chers":9021,"impossible":9022,"Ġupward":9023,"Ġproceeding":9024,"Har":9025,"Ġthrong":9026,"ĠPruss":9027,"ulus":9028,"inating":9029,"Ġworry":9030,"Ġwhither":9031,"sex":9032,"laugh":9033,"Ġsailing":9034,"Ġmethods":9035,"Ġmaintained":9036,"ĠĠĠĠĠĠĠĠĠĠĠĠĠĠĠ":9037,"Ġreserve":9038,"Ġextravag":9039,"Ġmurdered":9040,"Ġtorment":9041,"mill":9042,"rain":9043,"Ġsaving":9044,"ĠBecause":9045,"Ġperformance":9046,"reve":9047,"Ġtravelled":9048,"Ġoverwhel":9049,"pretty":9050,"keness":9051,"Ġboast":9052,"Ġpush":9053,"agle":9054,"Ġlin":9055,"Ġissued":9056,"Ġprofess":9057,"understood":9058,"around":9059,"Ġgas":9060,"OS":9061,"Ġsom":9062,"Ġattempts":9063,"conversation":9064,"LADY":9065,"ranny":9066,"pock":9067,"Ġcaution":9068,"changed":9069,"Ġsullen":9070,"Ġglancing":9071,"Ġpersuade":9072,"dream":9073,"Ġbarn":9074,"Ġfence":9075,"books":9076,"ĠMonday":9077,"Ġrarely":9078,"ĠMess":9079,"ART":9080,"Ġinjury":9081,"Ġstaying":9082,"uttered":9083,"ĠCross":9084,"Ġincap":9085,"ferred":9086,"Upon":9087,"lost":9088,"unter":9089,"ĠJeff":9090,"ĠTill":9091,"Ġmonkey":9092,"Ġschools":9093,"escap":9094,"Ġswords":9095,"aux":9096,"teenth":9097,"Ġhunter":9098,"move":9099,"Ġdriver":9100,"written":9101,"Ġbloody":9102,"pest":9103,"Ġjer":9104,"Ġsummoned":9105,"treat":9106,"Ġpatriot":9107,"Ġviolently":9108,"struck":9109,"Ġlip":9110,"Ġdislike":9111,"sort":9112,"ĠProtest":9113,"Ġanyway":9114,"Ġpractically":9115,"Ġwarriors":9116,"ĠAmericans":9117,"ĠIS":9118,"!_":9119,"ĠBas":9120,"Ġbrisk":9121,"added":9122,"ĠMichael":9123,"Ġdifferences":9124,"stock":9125,"OH":9126,"Ġresign":9127,"Ġcoloured":9128,"Ġsurv":9129,"Ġpreparing":9130,"Ġridge":9131,"Ġgenerations":9132,"Ġoft":9133,"Ġdiffer":9134,"ĠChristians":9135,"Ġsteal":9136,"vived":9137,"Ġtriumphant":9138,"Ġtotal":9139,"ĠRussian":9140,"Ġsugar":9141,"express":9142,"HAT":9143,"Ġcritical":9144,"story":9145,"olph":9146,"afterwards":9147,"ĠGerald":9148,"ĠHart":9149,"Ġvengeance":9150,"ĠEv":9151,"Ġwars":9152,"Ġpalm":9153,"Ġvener":9154,"ĠFox":9155,"ursed":9156,"umerable":9157,"whis":9158,"attention":9159,"cheon":9160,"alia":9161,"ka":9162,"ĠRE":9163,"Ġappropri":9164,"polit":9165,"Ġoccupation":9166,"Ġcigaret":9167,"ourable":9168,"Ġjoint":9169,"separ":9170,"Ġselected":9171,"Ġpreparations":9172,"pal":9173,"pi":9174,"Ġvillages":9175,"Ġhunger":9176,"ieves":9177,"Ġyourselves":9178,"omp":9179,"Ġsaints":9180,"Ġpresume":9181,"purpose":9182,"spicuous":9183,"ĠPers":9184,"Those":9185,"ixture":9186,"Ġaltar":9187,"Ġcommander":9188,"fashioned":9189,"Ġapply":9190,"Ġsouthern":9191,"Ġfoundation":9192,"ĠJohnson":9193,"Ġinvolved":9194,"Ġvaried":9195,"Ġschooner":9196,"altogether":9197,"ĠFOR":9198,"ustrious":9199,"lk":9200,"Ġinfant":9201,"oubled":9202,"Ġgarments":9203,"Jack":9204,"Ġtraveller":9205,"Ġtempted":9206,"ĠAL":9207,"Ġfragments":9208,"start":9209,"Ġpronounced":9210,"Ġtables":9211,"Ġsinking":9212,"ĠEll":9213,"Ġshores":9214,"Ġanswers":9215,"Ġmutual":9216,"Ġvisits":9217,"path":9218,"hable":9219,"pleased":9220,"Ġcertainty":9221,"Ġrivers":9222,"Ġmadness":9223,"Ġpromptly":9224,"eve":9225,"Ġderived":9226,"Ġtip":9227,"apsed":9228,"Ġthereby":9229,"Ġvarieties":9230,"Ġpainter":9231,"quer":9232,"Ġarrested":9233,"ĠDuchess":9234,"Ġcrimson":9235,"Presently":9236,"ignor":9237,"Ġlonging":9238,"appre":9239,"Ġnotwithstanding":9240,"Ġclung":9241,"Ġ35":9242,"offic":9243,"Ġaught":9244,"Ġpresents":9245,"Ġmoss":9246,"church":9247,"Ġconsequently":9248,"condition":9249,"Ġengage":9250,"Ġthankful":9251,"Ġendless":9252,"ĠAustr":9253,"Ġaboard":9254,"Ġlimits":9255,"Ġmanuscript":9256,"everal":9257,"ez":9258,"Ġashes":9259,"ĠSto":9260,"Ġactivity":9261,"ĠGladstone":9262,"ĠTer":9263,"ĠLion":9264,"ordingly":9265,"Ġexpecting":9266,"Ġdisagreeable":9267,"Ġformal":9268,"ĠRepublic":9269,"beyond":9270,"ĠWind":9271,"Ġpicturesque":9272,"send":9273,"Ġsolemnly":9274,"Ġcampaign":9275,"Ġprime":9276,"comes":9277,"Ġlargely":9278,"Ġstately":9279,"elic":9280,"Ġbrook":9281,"Ġwip":9282,"ĠHoll":9283,"unte":9284,"Ġinjured":9285,"Ġpositively":9286,"city":9287,"Ġgriev":9288,"ungle":9289,"Ġhomes":9290,"addle":9291,"Ġclust":9292,"Ġtumult":9293,"Ġenchan":9294,"Ġhastened":9295,"OUR":9296,"Ġconfession":9297,"Ġforming":9298,"obl":9299,"Ġuncommon":9300,"Ġroses":9301,"Ġretain":9302,"kers":9303,"ilised":9304,"Ġmajesty":9305,"Ġmour":9306,"slow":9307,"civil":9308,"ĠWords":9309,"Ġrealize":9310,"further":9311,"ties":9312,"Ġpeaceful":9313,"Ġcryst":9314,"Ġsecretary":9315,"Ġrecently":9316,"Ġmurde":9317,"Ġgallery":9318,"Ġinex":9319,"ĠPick":9320,"etta":9321,"Ġblowing":9322,"concl":9323,"ĠBarn":9324,"isms":9325,"Ġvest":9326,"Ġblown":9327,"Ġscra":9328,"Ġshalt":9329,"aggage":9330,"Ġdeceived":9331,"rob":9332,"ĠHas":9333,"ĠGen":9334,"'\"":9335,"asses":9336,"Ġchildhood":9337,"Ġoperations":9338,"Ġrises":9339,"Ġpainting":9340,"onet":9341,"Ġfrost":9342,"stro":9343,"dued":9344,"Ġbelieving":9345,"allow":9346,"Ġ21":9347,"Ġnigh":9348,"ector":9349,"Ġwagon":9350,"ĠEle":9351,"leby":9352,"icism":9353,"laid":9354,"Ġvice":9355,"Ġroots":9356,"Ġhospital":9357,"sufficient":9358,"ĠCH":9359,"Ġinsol":9360,"Give":9361,"Ġresponsibility":9362,"ography":9363,"Ġwheels":9364,"Ġtheirs":9365,"Ġtar":9366,"Ġlane":9367,"imately":9368,"Ġopenly":9369,"Ġbone":9370,"Ġdrops":9371,"Ġspectacle":9372,"ĠNi":9373,"anks":9374,"Ġstudent":9375,"Ġassault":9376,"straight":9377,"Ġbath":9378,"Ġwaving":9379,"Ġsets":9380,"service":9381,"Ġstret":9382,"ĠOs":9383,"expect":9384,"gun":9385,"Ġdict":9386,"Ġbrick":9387,"Ġpleasures":9388,"Ġthief":9389,"Ġward":9390,"sto":9391,"didn":9392,"ructed":9393,"ĠRomans":9394,"Ġwot":9395,"ĠMS":9396,"ĠIsa":9397,"ym":9398,"Ġcure":9399,"Ġquaint":9400,"Ġrecollection":9401,"Ġchanging":9402,"Ġlovers":9403,"Ġamazement":9404,"Ġflames":9405,"Ġneedn":9406,"Ġhealthy":9407,"Ġpenny":9408,"ousers":9409,"Ġdisplayed":9410,"ĠSaxon":9411,"usalem":9412,"idable":9413,"Ġtun":9414,"ona":9415,"ria":9416,"Ġanswering":9417,"Ġstretch":9418,"inda":9419,"Ġnaught":9420,"ĠSun":9421,"Ġwarrant":9422,"Ġtrap":9423,"Ġduke":9424,"Ġhoney":9425,"inine":9426,"Ġamusing":9427,"Ġlessons":9428,"Ġdishon":9429,"pence":9430,"Ġconsisted":9431,"Ġwilt":9432,"odd":9433,"Ġmans":9434,"ĠEustace":9435,"oming":9436,"Ġthoughtfully":9437,"Ġgravity":9438,"Ġtranqu":9439,"mur":9440,"Ġstomach":9441,"combe":9442,"seven":9443,"ĠRock":9444,"Ġuniverse":9445,"Ġremove":9446,"Ġregions":9447,"Ġdescent":9448,"ĠHerbert":9449,"Ġwax":9450,"22":9451,"lder":9452,"Ġmaybe":9453,"Ġstamp":9454,"Ġbloss":9455,"cloth":9456,"Ġlasted":9457,"Ġsixteen":9458,"ĠBal":9459,"Ġelbow":9460,"Ġstruggled":9461,"Ġprocession":9462,"ĠProvidence":9463,"hole":9464,"Ġwolf":9465,"Ġrailroad":9466,"won":9467,"Ġconvent":9468,"isting":9469,"Ġcreep":9470,"Ġcomprehend":9471,"cold":9472,"Ġbelt":9473,"Ġrighteousness":9474,"cks":9475,"paper":9476,"ĠTarzan":9477,"ĠSally":9478,"ĠEarth":9479,"Ġtraining":9480,"Ġmustn":9481,"Ġleaders":9482,"rad":9483,"ĠAT":9484,"Ġchanced":9485,"Ġtore":9486,"Ġfortunes":9487,"AG":9488,"rah":9489,"apole":9490,"ĠReg":9491,"ĠJanuary":9492,"Ġdreary":9493,"EW":9494,"entire":9495,"ĠPercy":9496,"unks":9497,"Ġamiable":9498,"cra":9499,"Ġinevitable":9500,"command":9501,"!âĢĿ":9502,"Ġrecalled":9503,"ĠGre":9504,"Ġregards":9505,"nox":9506,"Ġillum":9507,"Ġstreams":9508,"NOT":9509,"Ġweep":9510,"Ġtravellers":9511,"Ġresponsible":9512,"ĠArmy":9513,"Ġfaults":9514,"ĠDouglas":9515,"number":9516,"atha":9517,"Ġswore":9518,"Ġproduct":9519,"Ġprivilege":9520,"Ġscarlet":9521,"Ġincluded":9522,"Ġink":9523,"urable":9524,"arently":9525,"Brit":9526,"Ġrash":9527,"Ġyouthful":9528,"Ġintercourse":9529,"slight":9530,"desp":9531,"itutions":9532,"neither":9533,"Ġpeep":9534,"Ġcomplain":9535,"Ġarguments":9536,"Me":9537,"Ġparallel":9538,"OHN":9539,"Ġdropping":9540,"Ġprolong":9541,"ello":9542,"ĠFitz":9543,"Ġjudged":9544,"uing":9545,"Ġadvise":9546,"Ġoars":9547,"Ġreception":9548,"Ġshrie":9549,"Ġsurrender":9550,"Ġafforded":9551,"Ġrightly":9552,"Ġinspired":9553,"Ġwillingly":9554,"Ġsentiments":9555,"dam":9556,"Ġmodel":9557,"die":9558,"Ġbutt":9559,"ĠÂ£":9560,"Ġobscure":9561,"SON":9562,"ĠEnd":9563,"Ġaccess":9564,"Ġfiercely":9565,"horses":9566,"Ġawhile":9567,"ĠHor":9568,"Ġinvisible":9569,"ettle":9570,"ĠDecember":9571,"Ġsatisfactory":9572,"soul":9573,"ĠSay":9574,"Ġglasses":9575,"mil":9576,"Ġpul":9577,"Ġgladly":9578,"fresh":9579,"ado":9580,"Ġ33":9581,"symp":9582,"ito":9583,"artment":9584,"Ġpurchase":9585,"ĠJohnny":9586,";'":9587,"rewd":9588,"Does":9589,"Ġweeping":9590,"Ġbackward":9591,"Ġdiscern":9592,"amy":9593,"Ġheroic":9594,"ĠCommons":9595,"ĠBuck":9596,"Ġentertained":9597,"forced":9598,"pool":9599,"Ġchapel":9600,"Ġbrains":9601,"ĠNext":9602,"inery":9603,"Bet":9604,"ĠHans":9605,"Ġsaint":9606,"Ġsuitable":9607,"ĠBeing":9608,"Christian":9609,"Ġdefeat":9610,"Ġshan":9611,"Ġlowered":9612,"inge":9613,"Ġsaith":9614,"ĠDis":9615,"Ġcruelty":9616,"ĠScottish":9617,"ĠCharlie":9618,"ĠHenri":9619,"immediately":9620,"iast":9621,"Ġgam":9622,"Ġwept":9623,"Ġacknowledge":9624,"reement":9625,"isle":9626,"Ġdiscipline":9627,"num":9628,"gotten":9629,"excl":9630,"Ġpursue":9631,"throw":9632,"irie":9633,"inese":9634,"satisfied":9635,"Sha":9636,"atus":9637,"Ġoffices":9638,"Ġ50":9639,"Ġloaded":9640,"Ġconquered":9641,"sister":9642,"emp":9643,"lead":9644,"trouble":9645,"Ġpulling":9646,"Ġbells":9647,"Ġdangers":9648,"Ġstable":9649,"Ġappar":9650,"Ġenvy":9651,"Ġphenomena":9652,"pical":9653,"Ġsar":9654,"itating":9655,"cry":9656,"sis":9657,"era":9658,"Ġshillings":9659,"Ġdeserved":9660,"sail":9661,"ĠSquare":9662,"ba":9663,"Ġvary":9664,"Ġchill":9665,"Ġ100":9666,"Ġmissing":9667,"bran":9668,"Ġmonstrous":9669,"Ġwhip":9670,"Ġclosing":9671,"Ġcorners":9672,"Ġwounds":9673,"Ġlecture":9674,"ĠGoth":9675,"ĠAbout":9676,"reshold":9677,"observed":9678,"alo":9679,"Ġseize":9680,"assad":9681,"Ġcollar":9682,"Ġpeasant":9683,"Ġhasty":9684,"vial":9685,"Ġsuited":9686,"Ġeffic":9687,"Ġvote":9688,"neg":9689,"izes":9690,"incre":9691,"addy":9692,"Ġsale":9693,"Ġjealousy":9694,"Ġhappily":9695,"conduct":9696,"Ġladder":9697,"Ġplains":9698,"ĠSpe":9699,"Ġaccum":9700,"Ġ`":9701,"Ġincons":9702,"ĠDEAR":9703,"Ġvolumes":9704,"Ġhaw":9705,"Ġdeaf":9706,"Ġbullet":9707,"Ġcontain":9708,"liest":9709,"agues":9710,"Ġcliffs":9711,"aggie":9712,"zes":9713,"nant":9714,"Ġstudies":9715,"Ġdispute":9716,"Ġstrictly":9717,"Ġeyeb":9718,"Ġabsorbed":9719,"ĠAss":9720,"ients":9721,"Ġpenc":9722,"Ġnotions":9723,"Ġpreviously":9724,"Ġmail":9725,"ĠHa":9726,"Ġtrades":9727,"Ġflies":9728,"gence":9729,"Ġfiery":9730,"usal":9731,"Ġample":9732,"lantic":9733,"living":9734,"Ġdisappear":9735,"Ġsympath":9736,"Ġfourteen":9737,"Ġwoe":9738,"icating":9739,"Ġwholes":9740,"show":9741,"Ġpreserve":9742,"Ġfemales":9743,"Ġimpatience":9744,"osa":9745,"Ġecc":9746,"clear":9747,"Ġfrankly":9748,"ĠHot":9749,"seems":9750,"45":9751,"ĠNick":9752,"Ġcapture":9753,"cat":9754,"loc":9755,"Ġpip":9756,"Ġdiscussed":9757,"Ġbows":9758,"Ġrapt":9759,"consciously":9760,"ĠTri":9761,"Ġplac":9762,"interested":9763,"Ġtemptation":9764,"Ġperpetual":9765,"Ġrein":9766,"ĠEdinburgh":9767,"Ġvigorous":9768,"Ġvillain":9769,"Ġhonourable":9770,"speaking":9771,"Ġresemblance":9772,"sound":9773,"Ġstare":9774,"ĠCas":9775,"oln":9776,"Ġguards":9777,"apoleon":9778,"oting":9779,"ĠRod":9780,"Ġdraught":9781,"Ġsurprising":9782,"Ġliberal":9783,"Has":9784,"ĠDu":9785,"experience":9786,"ISS":9787,"Ġprayed":9788,"Ġdetermination":9789,"gus":9790,"antial":9791,"';":9792,"Ġupwards":9793,"Ġdeclined":9794,"Colonel":9795,"Ġmeek":9796,"Ġscant":9797,"following":9798,"Ġconflict":9799,"Ġapplication":9800,"Ġnewspapers":9801,"Ġteam":9802,"rection":9803,"Ġrespecting":9804,"Ġspoil":9805,"Ġthanked":9806,"Ġstreng":9807,"remem":9808,"grace":9809,"Ġtour":9810,"illes":9811,"Ġdistinguish":9812,"Ġaged":9813,"Ġloudly":9814,"Ġroared":9815,"icians":9816,"bara":9817,"Ġearthly":9818,"Besides":9819,"ĠSuddenly":9820,"ĠNight":9821,"faces":9822,"Ġrele":9823,"venture":9824,"Ġwithdrew":9825,"olves":9826,"Ġswell":9827,"Ġfeathers":9828,"ĠHead":9829,"Ġconj":9830,"Ġhearth":9831,"Ġmaterials":9832,"ican":9833,"Ġcorrespondence":9834,"Ġenv":9835,"Ġcheerfully":9836,"dire":9837,"sels":9838,"haired":9839,"ĠKent":9840,"Ġrenewed":9841,"ilton":9842,"rust":9843,"Ġta":9844,"asso":9845,"Ġwitch":9846,"Ġskull":9847,"moved":9848,"Ġboot":9849,"Ġmedicine":9850,"Ġfools":9851,"Ġendeavoured":9852,"nearly":9853,"angle":9854,"eye":9855,"Ġauthorities":9856,"oust":9857,"asants":9858,"ALL":9859,"Jim":9860,"ĠDown":9861,"Ġselect":9862,"Ġparlour":9863,"Ġsmallest":9864,"Three":9865,"Ġimproved":9866,"Ġmetal":9867,"Ġoriginally":9868,"Ġsever":9869,"Ġshrill":9870,"mid":9871,"Ġdun":9872,"Ġearn":9873,"liked":9874,"Ġpurse":9875,"Ġwildly":9876,"Ġseal":9877,"wanted":9878,"Ġton":9879,"Ġ36":9880,"ĠGeoffrey":9881,"iolog":9882,"Ġcandid":9883,"ini":9884,"Ġtrained":9885,"Ġflock":9886,"Ġdanced":9887,"ĠDi":9888,"Ġunwilling":9889,"ĠCarl":9890,"wixt":9891,"Ġpall":9892,"cloud":9893,"21":9894,"ĠWalk":9895,"Ġsmiles":9896,"ĠPortug":9897,"Ġbri":9898,"ĠVirginia":9899,"Ke":9900,"lived":9901,"Ġinval":9902,"Ġwishing":9903,"Ġeducated":9904,"Ġinherit":9905,"ĠEver":9906,"Ġempire":9907,"ĠSomething":9908,"Ġhistorical":9909,"urst":9910,"employ":9911,"UST":9912,"Ġdefect":9913,"Ġtramp":9914,"Ġphilosoph":9915,"Ġcombat":9916,"ĠWilson":9917,"etry":9918,"ĠCharley":9919,"Ġdense":9920,"ĠCart":9921,"ĠWhe":9922,"aze":9923,"ĠColumb":9924,"Ġlic":9925,"third":9926,"Ġcourtesy":9927,"street":9928,"river":9929,"Ġkilling":9930,"Ġcontrived":9931,"reached":9932,"Ġfuneral":9933,"aby":9934,"Ġadvised":9935,"Ġlowest":9936,"Ġhoping":9937,"Ġstatue":9938,"iless":9939,"Ġcarpet":9940,"Ġindustry":9941,"Ġteleg":9942,"ĠUnion":9943,"ĠVenet":9944,"ĠJulia":9945,"Ġcondemned":9946,"ĠNeither":9947,"nex":9948,"ĠSpr":9949,"ĠBY":9950,"Ġcouch":9951,"Ġtidings":9952,"wish":9953,"Ġclasped":9954,"_.\"":9955,"Ġoffended":9956,"Ġaccused":9957,"accept":9958,"ĠThink":9959,"Ġwoke":9960,"ĠBow":9961,"bring":9962,"ĠGraham":9963,"ĠBull":9964,"uncle":9965,"Ġjewels":9966,"Ġbrethren":9967,"ĠDiv":9968,"asping":9969,"ĠBE":9970,"Ġmanly":9971,"Ġupset":9972,"ruly":9973,"Hen":9974,"Ġsketch":9975,"ĠGal":9976,"educ":9977,"ĠBart":9978,"Ġbrows":9979,"lotte":9980,"iend":9981,"Ġdeemed":9982,"ĠLane":9983,"Lou":9984,"UD":9985,"Ġlonged":9986,"American":9987,"ĠGall":9988,"pron":9989,"Ġestim":9990,"saying":9991,"ĠFriend":9992,"Ġperf":9993,"ĠOver":9994,"esar":9995,"thew":9996,"ĠEs":9997,"Ġproduction":9998,"Ġnobles":9999,"incerity":10000,"Ġdried":10001,"ĠRes":10002,"viour":10003,"arched":10004,"Ġseeming":10005,"trem":10006,"utor":10007,"Ġcorps":10008,"Ġconnect":10009,"aire":10010,"Ġfest":10011,"eled":10012,"Ġdownstairs":10013,"Ġfavourable":10014,"MS":10015,"hester":10016,"ĠGrant":10017,"aternal":10018,"IGHT":10019,"urg":10020,"ĠAlb":10021,"Ġcontem":10022,"sweet":10023,"Great":10024,"liter":10025,"aration":10026,"comb":10027,"Ġconsiderably":10028,"Ġsurrounding":10029,"Ġprosperity":10030,"throp":10031,"Ġexult":10032,"Ġbitterness":10033,"Ġpole":10034,"Ġpurely":10035,"content":10036,"Ġcatching":10037,"Ġcrushed":10038,"Ġendeavour":10039,"lit":10040,"Ġwiser":10041,"ĠPass":10042,"phil":10043,"LD":10044,"Ġpious":10045,"Ġfiring":10046,"mediate":10047,"Ġapolog":10048,"Ġmap":10049,"Ġremorse":10050,"Ġbewildered":10051,"Ġfug":10052,"ĠMarian":10053,"Ġprevailed":10054,"ĠSecond":10055,"aired":10056,"Ġchurches":10057,"ĠSilver":10058,"riel":10059,"possession":10060,"ĠIsrael":10061,"ĠJanet":10062,"Ġbond":10063,"Ġelabor":10064,"Ġpersonally":10065,"Ġtram":10066,"Ġterrit":10067,"Ġspeedily":10068,"ĠMorris":10069,"Ġseverely":10070,"Ġearliest":10071,"none":10072,"Ġpour":10073,"mighty":10074,"Ġhired":10075,"stream":10076,"Ġlimit":10077,"Ġragged":10078,"Ġtune":10079,"Ġholiday":10080,"Ġsecrets":10081,"finished":10082,"Ġclut":10083,"Ġscent":10084,"Ġchildish":10085,"Ġmarvel":10086,"happened":10087,"Ġobserving":10088,"Ġinfinitely":10089,"Ġtemporary":10090,"Ġreadiness":10091,"trans":10092,"Ġwhit":10093,"ĠTor":10094,"Ġscri":10095,"Ġdesirable":10096,"Ġglowing":10097,"cer":10098,"ĠBall":10099,"istration":10100,"igate":10101,"Ġfrozen":10102,"Ġwag":10103,"entially":10104,"Ġstoop":10105,"ĠWestern":10106,"Ġbacks":10107,"sitting":10108,"Ġwits":10109,"Ġsho":10110,"Quite":10111,"Ġwhistle":10112,"spoken":10113,"Ġappetite":10114,"Ġrend":10115,"olo":10116,"stein":10117,"Ġimmortal":10118,"Ġrat":10119,"Ġplanted":10120,"Ġbreathed":10121,"Ġpermanent":10122,"oore":10123,"Ġremo":10124,"Ġencouraged":10125,"Ġinsects":10126,"camp":10127,"lley":10128,"Ġprofessional":10129,"Ġdat":10130,"Ġspecially":10131,"Ġdisguise":10132,"uting":10133,"Ġbreed":10134,"Ġbundle":10135,"Next":10136,"ONT":10137,"Em":10138,"Ġsunlight":10139,"Ġmedical":10140,"borne":10141,"ciation":10142,"Ġluxury":10143,"Ġadorn":10144,"Ġannounce":10145,"Ġdined":10146,"ĠJapan":10147,"harp":10148,"Ġgreeted":10149,"Ġavoided":10150,"ĠBu":10151,"incoln":10152,"Ġtrag":10153,"Ġaxe":10154,"ĠCape":10155,"ĠChief":10156,"Ġmeasured":10157,"erving":10158,"Ġharbour":10159,"Ġhappier":10160,"Ġarmies":10161,"Ġmemories":10162,"Wal":10163,"lier":10164,"ĠDer":10165,"Ġcomposition":10166,"Ġprotested":10167,"Ġtast":10168,"Ġjustly":10169,"ĠSurely":10170,"shore":10171,"Ġprett":10172,"Ġlikeness":10173,"sol":10174,"Ġarrow":10175,"aware":10176,"Ġharder":10177,"Ġlegisl":10178,"Ġmales":10179,"chie":10180,"Ġchallen":10181,"Ġrelax":10182,"ĠAlfred":10183,"phant":10184,"Ġwire":10185,"Ġconsented":10186,"Ġmerits":10187,"Ġbars":10188,"handed":10189,"ĠChristianity":10190,"Ġbills":10191,"ĠFe":10192,"Ġrepublic":10193,"Ġaffections":10194,"Ġinnocence":10195,"acific":10196,"outs":10197,"ĠChild":10198,"Ġtread":10199,"enet":10200,"acre":10201,"Ġtrif":10202,"Sm":10203,"government":10204,"Ġwheat":10205,"Ġrecognize":10206,"Ġsexes":10207,"avering":10208,"Ġpound":10209,"ĠBrother":10210,"respons":10211,"Ġbending":10212,"Ġjar":10213,"itably":10214,"Ġeighty":10215,"Ġcotton":10216,"Ġtalent":10217,"Ġsiege":10218,"imer":10219,"Ġterribly":10220,"warf":10221,"Ġwretch":10222,"usky":10223,"Ġelection":10224,"Ġconvention":10225,"occupied":10226,"Ġgossip":10227,"minster":10228,"ĠLib":10229,"ripp":10230,"longer":10231,"iliation":10232,"Ġarrows":10233,"Ġsimpl":10234,"ĠLieutenant":10235,"Ġauthors":10236,"acht":10237,"ceptible":10238,"secret":10239,"Ġoutline":10240,"compar":10241,"ĠChina":10242,"Ġconclude":10243,"langu":10244,"aneously":10245,"Ġtestimony":10246,"],":10247,"remained":10248,"ĠLords":10249,"hire":10250,"ĠSwift":10251,"ĠSid":10252,"Ġwherein":10253,"ĠNicholas":10254,"Ġske":10255,"Ġembrace":10256,"god":10257,"Ġhay":10258,"ĠWhatever":10259,"Ġfruits":10260,"Ġcultivated":10261,"Ġshine":10262,"ĠDec":10263,"Ġpropriet":10264,"bag":10265,"Ġinconven":10266,"Ġeastern":10267,"ĠGray":10268,"Ġjustify":10269,"Ġbreathe":10270,"Ġemphas":10271,"Ġwarrior":10272,"ĠRh":10273,"Ġveins":10274,"Ġhaunted":10275,"Ġconject":10276,"Ġladyship":10277,"minutes":10278,"Ġaddressing":10279,"Ġconveyed":10280,"ĠVII":10281,"END":10282,"Ġencounter":10283,"Ġster":10284,"ulously":10285,"ĠBax":10286,"delight":10287,"ĠTurk":10288,"Ġconcent":10289,"Ġrocky":10290,"guish":10291,"ARY":10292,"utt":10293,"keeping":10294,"Ġglittering":10295,"Ġdrama":10296,"Ġsternly":10297,"dinner":10298,"rude":10299,"Ġbaggage":10300,"Ġjournal":10301,"Ġtops":10302,"Ġasks":10303,"atrice":10304,"strength":10305,"Sam":10306,"ĠME":10307,"Ġmonot":10308,"ĠSquire":10309,"ĠFriday":10310,"Ġpleasing":10311,"ĠHistory":10312,"ĠAlexander":10313,"ĠGar":10314,"vellous":10315,"Ġintoler":10316,"ocation":10317,"passion":10318,"Ġguarded":10319,"35":10320,"Ġcris":10321,"Ġcivilization":10322,"ĠMass":10323,"Ġconspir":10324,"actions":10325,"Ġflatter":10326,"ĠLee":10327,"Ġreturns":10328,"Ġborder":10329,"urbed":10330,"prec":10331,"health":10332,"Ġhoof":10333,"ĠNobody":10334,"Ġfeature":10335,"Ġwinding":10336,"Ġholes":10337,"Luc":10338,"Ġescort":10339,"Ġshouts":10340,"direction":10341,"Ġraw":10342,"Ġphotograph":10343,"Ġprose":10344,"Ġcontains":10345,"ĠFebruary":10346,"ĠMiddle":10347,"Ġblaze":10348,"ANT":10349,"Gl":10350,"Sec":10351,"filled":10352,"lab":10353,"ĠSand":10354,"Ġshudder":10355,"idea":10356,"Ġdelicious":10357,"Ã¢":10358,"Ġgap":10359,"Ġcreation":10360,"ĠCent":10361,"Ġcommence":10362,"thoughts":10363,"satisfaction":10364,"Ġhaunt":10365,"garden":10366,"hours":10367,"blest":10368,"beginning":10369,"ithe":10370,"ĠPR":10371,"Ġdesolate":10372,"Ġintentions":10373,"Ġfri":10374,"ĠLarry":10375,"Ġcham":10376,"presence":10377,"ĠĠĠĠĠĠĠĠĠĠĠĠĠĠĠĠĠĠĠĠĠĠĠĠĠĠĠĠĠĠ":10378,"Ġimpatiently":10379,"ĠLeonard":10380,"Ġtrousers":10381,"Ġtwisted":10382,"ĠBetty":10383,"ront":10384,"inton":10385,"Ġattain":10386,"net":10387,"Ġverd":10388,"Ġforests":10389,"reasonable":10390,"Ġsanct":10391,"ĠĠčĊ":10392,"Ġchiefs":10393,"Ġexists":10394,"Ġambit":10395,"Ġspeaker":10396,"ĠRobin":10397,"Ġguardian":10398,"pot":10399,"Ġamazed":10400,"Ġsect":10401,"Ġvi":10402,"Ġagitation":10403,"pun":10404,"Ġtap":10405,"Ġweigh":10406,"plom":10407,"ordon":10408,"fool":10409,"Ġsteward":10410,"generally":10411,"_.--":10412,"Ġthet":10413,"clothes":10414,"ĠVIII":10415,"Ġpoliceman":10416,"FN":10417,"Ġtick":10418,"Ġshrewd":10419,"cia":10420,"Ġexpectation":10421,"Ġparson":10422,"Ġdemocr":10423,"instead":10424,"Ġpacked":10425,"lasting":10426,"Ġbonnet":10427,"ĠAlthough":10428,"perfectly":10429,"ĠOwen":10430,"Ġprobability":10431,"strugg":10432,"BY":10433,"Ġfountain":10434,"Ġlieutenant":10435,"Ġporch":10436,"opinion":10437,"Ġsubdued":10438,"Ġlinen":10439,"length":10440,"36":10441,"ĠOz":10442,"rans":10443,"Ġassented":10444,"viol":10445,"Ġ37":10446,"Ġstim":10447,"Ġdazz":10448,"Ġlodgings":10449,"Ġanyhow":10450,"Ġministers":10451,"interesting":10452,"Ġthereof":10453,"Ġcoldly":10454,"Ġstirring":10455,"omy":10456,"folk":10457,"Ġcens":10458,"Ġundertake":10459,"OY":10460,"ĠAy":10461,"Ġadding":10462,"Ġoccupy":10463,"poral":10464,"Ġadopt":10465,"princip":10466,"Ġpreceding":10467,"Ġsticks":10468,"big":10469,"Ġwidely":10470,"Ġability":10471,"fal":10472,"hings":10473,"ĠMas":10474,"Ġheroes":10475,"Ġninet":10476,"Ġbrandy":10477,"sav":10478,"ousins":10479,"inked":10480,"hardly":10481,"ĠLouise":10482,"Ġpromises":10483,"Ġaccommod":10484,"hastly":10485,"Ġyell":10486,"Ġapple":10487,"Ġprinces":10488,"Ġechoed":10489,"ĠSur":10490,"Ġdemands":10491,"ĠTed":10492,"Ġunworthy":10493,"Ġbodily":10494,"ĠHalf":10495,"Get":10496,"Ġhaught":10497,"familiar":10498,"gery":10499,"ĠCongress":10500,"inia":10501,"Ġprecaut":10502,"ups":10503,"overing":10504,"Ġmonster":10505,"ĠEnglishmen":10506,"ICE":10507,"ios":10508,"Ġfiction":10509,"Ġmanager":10510,"ĠLily":10511,"Ġidol":10512,"Ġdelicacy":10513,"Ġshocked":10514,"Ġtimber":10515,"raised":10516,"Ġtrim":10517,"meaning":10518,"Ġfavorite":10519,"ĠEmpire":10520,"ĠGro":10521,"Ġnewly":10522,"Ġbriefly":10523,"Ġcompassion":10524,"Ġarray":10525,"ĠNa":10526,"ovel":10527,"iforn":10528,"Ġvital":10529,"Ġrequires":10530,"Ġsearching":10531,"Ġsensitive":10532,"Ġdismissed":10533,"Ġreview":10534,"Ġanaly":10535,"happiness":10536,"Ġremainder":10537,"inement":10538,"Little":10539,"lings":10540,"Ġvap":10541,"Ġprovide":10542,"ĠFlora":10543,"silence":10544,"Ġ=":10545,"ĠAlan":10546,"Ġmusical":10547,"Ġpersp":10548,"Ġmiracle":10549,"Greek":10550,"Ġpreacher":10551,"Ġimprison":10552,"Ġsupposing":10553,"Ġelderly":10554,"bishop":10555,"dress":10556,"Ġspy":10557,"Ġchival":10558,"Ġwaiter":10559,"Ġformidable":10560,"Ġrecognition":10561,"Ġbud":10562,"considered":10563,"Prince":10564,"iage":10565,"Ġum":10566,"Ġdares":10567,"Ġvacant":10568,"Ġadditional":10569,"Ġdirt":10570,"burst":10571,"Ġneighborhood":10572,"wrong":10573,"agers":10574,"Ġgrasped":10575,"heads":10576,"Ġmirror":10577,"Ġimprovement":10578,"ĠLast":10579,"ĠPray":10580,"ĠMilton":10581,"dal":10582,"ulent":10583,"Ġartillery":10584,"ĠAdmiral":10585,"dinand":10586,"Ġwonderfully":10587,"PR":10588,"Ġappointment":10589,"search":10590,"tingu":10591,"Ġawfully":10592,"URE":10593,"Ġ38":10594,"fine":10595,"hol":10596,"fly":10597,"tro":10598,"ĠGreg":10599,"Ġcorrid":10600,"Ġlav":10601,"onse":10602,"Ġcove":10603,"Ġobviously":10604,"Ġfloated":10605,"Ġfaster":10606,"uttering":10607,"ĠDoes":10608,"Ġfifth":10609,"ĠLam":10610,"Ġinnumerable":10611,"oir":10612,"ferences":10613,"Ġthorn":10614,"somewhat":10615,"dened":10616,"ĠChinese":10617,"Ġtermin":10618,"ĠEp":10619,"._)":10620,"iating":10621,"qual":10622,"Ġrobbed":10623,"Ġdismal":10624,"Ġbehaved":10625,"ĠSoon":10626,"Ġhelping":10627,"Ġimagin":10628,"Ġcostume":10629,"ivable":10630,"Ġassisted":10631,"Ġexternal":10632,"istle":10633,"Ġflu":10634,"Ġdealt":10635,"enched":10636,"version":10637,"elcome":10638,"ubb":10639,"ĠWolf":10640,"inkling":10641,"Ġperish":10642,"Ġshallow":10643,"Ġarmour":10644,"Ġlifting":10645,"Ġcovering":10646,"Ġfist":10647,"Ġpavement":10648,"Ġscenery":10649,"Ġretained":10650,"Ġreports":10651,"mate":10652,"Ġtact":10653,"ĠMack":10654,"safe":10655,"habited":10656,"istered":10657,"imply":10658,"Ġsupplies":10659,"affection":10660,"hetic":10661,"riv":10662,"birds":10663,"Ġconfirmed":10664,"Ġcombined":10665,"Ġreform":10666,"ĠRich":10667,"Ġnerve":10668,"ernal":10669,"Ġcriminal":10670,"fat":10671,"Ġconsists":10672,"rary":10673,"Ġthreshold":10674,"ĠPierre":10675,"ĠShould":10676,"Ġintroduction":10677,"Ġcharms":10678,"Ġrelieve":10679,"Ġprovision":10680,"Ġhalt":10681,"iddy":10682,"ĠLew":10683,"Ġcommands":10684,"ĠHIS":10685,"works":10686,"ĠDean":10687,"Ġelegant":10688,"asty":10689,"Ġstillness":10690,"Rem":10691,"ĠHum":10692,"Ġvelvet":10693,"usively":10694,"Ġangrily":10695,"ĠRam":10696,"Ġblush":10697,"Ġpony":10698,"Ġshared":10699,"ĠUp":10700,"Ġremembrance":10701,"disapp":10702,"Ġeffected":10703,"ĠBad":10704,"ĠPre":10705,"companion":10706,"getic":10707,"boats":10708,"Ġtossed":10709,"ĠSatan":10710,"aun":10711,"Ġsheer":10712,"Ġuncomfortable":10713,"belong":10714,"Ġtimid":10715,"MAN":10716,"late":10717,"wl":10718,"Ġcomplexion":10719,"Ġmainly":10720,"ida":10721,"othesis":10722,"Per":10723,"peace":10724,"equal":10725,"LES":10726,"neath":10727,"Ġsack":10728,"ĠOl":10729,"Ġ34":10730,"Ġpines":10731,"ĠPlace":10732,"Ġhereafter":10733,"Ġfilling":10734,"waiting":10735,"Ġincapable":10736,"ĠDev":10737,"Ġunnecessary":10738,"Ġbits":10739,"istry":10740,"ga":10741,"rigg":10742,"Ġalongside":10743,"Ġintroduce":10744,"ĠThan":10745,"Ġdamned":10746,"Ġ39":10747,"Ġreckless":10748,"Ġdeliberately":10749,"Ġundoubtedly":10750,"!)":10751,"Ġcolumns":10752,"Ġkid":10753,"ĠSecretary":10754,"Ġjun":10755,"shop":10756,"Ġangle":10757,"soft":10758,"arers":10759,"Ġbon":10760,"ĠHope":10761,"Ġbron":10762,"Ġslumber":10763,"akers":10764,"figure":10765,"ĠCrown":10766,"Ġpillow":10767,"Ġfoam":10768,"iversity":10769,"Ġreserved":10770,"Ġfrown":10771,"Ġcathed":10772,"Ġapprehension":10773,"pocket":10774,"Ġresponded":10775,"ouching":10776,"ĠInst":10777,"Ġmomentary":10778,"Ġancestors":10779,"ĠRus":10780,"bull":10781,"dozen":10782,"Ġdilig":10783,"AST":10784,"Ġscram":10785,"ĠMarie":10786,"main":10787,"Ġlent":10788,"wear":10789,"Ġdoub":10790,"Ġ190":10791,"IES":10792,"Ġmorrow":10793,"ĠHur":10794,"Ġmanagement":10795,"Ġpatch":10796,"idences":10797,"Ġsunny":10798,"Ġroaring":10799,"Ġsecretly":10800,"Ġindignant":10801,"Ġcalculated":10802,"Ġaroused":10803,"Ġnowhere":10804,"iality":10805,"Ġamidst":10806,"ĠViolet":10807,"Ġsergeant":10808,"distingu":10809,"Ġcrisis":10810,"page":10811,"ĠTy":10812,"Ġboxes":10813,"Ġattractive":10814,"Ġjudges":10815,"oat":10816,"Ġeyebrows":10817,"wich":10818,"ulk":10819,"ĠEastern":10820,"aude":10821,"Ġgreatness":10822,"Ġeagerness":10823,"Ġlots":10824,"Ġimpressions":10825,"Ġstrongest":10826,"Ġdomin":10827,"Ġbred":10828,"Ġwarmly":10829,"fare":10830,"izard":10831,"ĠSocial":10832,"ilful":10833,"Ġshells":10834,"prepared":10835,"UC":10836,"Ġbeggar":10837,"mort":10838,"Ġjury":10839,"Since":10840,"ĠChat":10841,"Ġpleaded":10842,"Ġmoderate":10843,"bath":10844,"Ġcaps":10845,"ĠBig":10846,"Ġphilosopher":10847,"afraid":10848,"eline":10849,"mun":10850,"Ġclearing":10851,"Ġprovince":10852,"Ġfaculties":10853,"ĠHolmes":10854,"Ġsublime":10855,"Ġvaguely":10856,"Ġpreparation":10857,"Ġachieve":10858,"Ġlargest":10859,"ĠAllan":10860,"Ġinjustice":10861,"verend":10862,"THER":10863,"Ġsection":10864,"Ha":10865,"OD":10866,"watch":10867,"vertis":10868,"ĠCatherine":10869,"sle":10870,"Ġdrunken":10871,"Ġfrightful":10872,"Ġdusk":10873,"Ġcrash":10874,"Ġsuspicious":10875,"Ġcursed":10876,"hung":10877,"ilian":10878,"Ġlodging":10879,"iastic":10880,"tt":10881,"Ġwist":10882,"Ġworldly":10883,"Ġinsens":10884,"Ġay":10885,"Ġabode":10886,"ĠDora":10887,"Ġpang":10888,"spoke":10889,"Ġcrazy":10890,"Ġhorns":10891,"difficulty":10892,"ĠJerusalem":10893,"icip":10894,"Ġdoom":10895,"untary":10896,"Ġstrikes":10897,"Ġobservations":10898,"ajah":10899,"drawing":10900,"Ġflush":10901,"Ġbestowed":10902,"Ġdischarge":10903,"Ġclothing":10904,"ĠHighness":10905,"Ġmothers":10906,"Ġscholar":10907,"Ġcreed":10908,"useum":10909,"ruce":10910,"ĠEgyptian":10911,"Ġirresist":10912,"voc":10913,"ĠAust":10914,"Suddenly":10915,"thirty":10916,"Ġbarren":10917,"Ġsickness":10918,"enz":10919,"ĠHomer":10920,"ĠJuan":10921,"oots":10922,"deck":10923,"orney":10924,"Ġsermon":10925,"Ġgroaned":10926,"ĠMoses":10927,"Ġvile":10928,"Ġworsh":10929,"ĠEdgar":10930,"Ġfret":10931,"Ġeveryone":10932,"Ġhurriedly":10933,"ĠWordsworth":10934,"ĠPost":10935,"compre":10936,"Ġcargo":10937,"Hal":10938,"eration":10939,"Ġfacing":10940,"ervation":10941,"Ġcustoms":10942,"hist":10943,"Ġtomorrow":10944,"Ġunseen":10945,"ĠPhoe":10946,"landers":10947,"ĠRupert":10948,"Ġrepair":10949,"lorn":10950,"Ġinfantry":10951,"mers":10952,"ĠGib":10953,"Ġpayment":10954,"Ġstaircase":10955,"Ġhedge":10956,"adel":10957,"ĠRussia":10958,"Ġrays":10959,"ĠDur":10960,"enjoy":10961,"stones":10962,"Ġunnatural":10963,"ĠKings":10964,"ĠLetter":10965,"Ġfaculty":10966,"ĠAR":10967,"Ġdramatic":10968,"ĠMid":10969,"ĠCre":10970,"ĠNone":10971,"ĠVic":10972,"ACE":10973,"Ġastr":10974,"ĠClub":10975,"Ġdestined":10976,"Ġshrugged":10977,"Ġpencil":10978,"Acc":10979,"Ġmargin":10980,"Ġfrontier":10981,"Ġcurtains":10982,"ĠSchool":10983,"Ġabstract":10984,"37":10985,"Harry":10986,"Mart":10987,"Ġchoo":10988,"Ġregularly":10989,"Out":10990,"Ġdash":10991,"Ġconsolation":10992,"ĠStr":10993,"eyond":10994,"ĠCast":10995,"ĠDevil":10996,"Ġreasoning":10997,"oks":10998,"Ġfitting":10999,"Ġarchitecture":11000,"Hel":11001,"ROM":11002,"ĠMans":11003,"Ġmarrying":11004,"ĠChris":11005,"peculiar":11006,"fright":11007,"Ġorg":11008,"ĠEsmond":11009,"aters":11010,"ersed":11011,"bred":11012,"arming":11013,"joice":11014,"Ġplacing":11015,"Ġcontest":11016,"Ġserene":11017,"idelity":11018,"ĠScript":11019,"antine":11020,"ĠDickens":11021,"Ġglare":11022,"ĠBra":11023,"Ġconspicuous":11024,"claim":11025,"ĠFaith":11026,"Ġscared":11027,"Ġtraitor":11028,"Ġbidding":11029,"Ġcautiously":11030,"ursday":11031,"Ġlimb":11032,"Ġfancies":11033,"Ġtotally":11034,"Ġmansion":11035,"Ġfoes":11036,"Ġbeautifully":11037,"Ġenjoying":11038,"odge":11039,"Ġmoist":11040,"ĠCÃ¦":11041,"ĠIng":11042,"Ġringing":11043,"ANN":11044,"Ġvolunte":11045,"Ġsworn":11046,"prove":11047,"Ġimages":11048,"Ġtorrent":11049,"according":11050,"yers":11051,"sever":11052,"Ġprudent":11053,"Ġexpressions":11054,"Ġtraces":11055,"Ġpractised":11056,"Ġlingered":11057,"Ġexclamation":11058,"Ġlords":11059,"Ġwitnesses":11060,"nine":11061,"worn":11062,"thened":11063,"ethinks":11064,"Ġquarre":11065,"stretched":11066,"Ġclothed":11067,"Ġdivide":11068,"Ġharmony":11069,"ĠCambridge":11070,"Ġliterally":11071,"engaged":11072,"Ġclad":11073,"ignant":11074,"Ġlazy":11075,"Ġmouths":11076,"Ġfurnish":11077,"Ġporter":11078,"sick":11079,"Ġspeeches":11080,"Ġ178":11081,"influence":11082,"Ġcavern":11083,"Ġbulk":11084,"QU":11085,"orce":11086,"Ġyawn":11087,"ceptions":11088,"glad":11089,"ĠAdd":11090,"Ġextensive":11091,"ĠRevolution":11092,"lord":11093,"Ġbind":11094,"afternoon":11095,"Ġcigarette":11096,"Ġwoo":11097,"Ġvag":11098,"Ġgrip":11099,"Ġsymbol":11100,"ĠDear":11101,"Ġexhibited":11102,"Ġlamps":11103,"Ġgrowled":11104,"ĠMinister":11105,"Ġowed":11106,"Ġmachinery":11107,"Ġrecorded":11108,"Ġprimitive":11109,"ĠTheod":11110,"Ġ0":11111,"Ġsomeone":11112,"Ġcopper":11113,"Ġheavenly":11114,"ĠJackson":11115,"Ġsprung":11116,"drawn":11117,"Ġmarching":11118,"ĠFrenchman":11119,"Ġoverhead":11120,"Ġdreaming":11121,"bby":11122,"sych":11123,"Ġpunish":11124,"Ġrestore":11125,"versed":11126,"crit":11127,"Ġhats":11128,"ĠWard":11129,"________":11130,"ĠCecil":11131,"ĠThor":11132,"Ġrespected":11133,"distinct":11134,"Ġheathen":11135,"ĠAthen":11136,"Ġliable":11137,"ATE":11138,"Ġwhale":11139,"ĠProtestant":11140,"ĠRight":11141,"ĠĠĠĠĠĠĠĠĠĠĠĠĠĠĠĠĠĠĠĠĠĠĠĠĠĠĠĠĠĠĠ":11142,"Ġsalvation":11143,"Ġhonestly":11144,"servant":11145,"ĠSi":11146,"ĠEverything":11147,"itimate":11148,"Ġcompare":11149,"Ġstake":11150,"ĠLincoln":11151,"Ġcoin":11152,"Ġhanged":11153,"fed":11154,"Ġpiano":11155,"ĠNapoleon":11156,"icker":11157,"Ġvigor":11158,"Ġflowing":11159,"Ġtowers":11160,"Ġmirth":11161,"ĠMaggie":11162,"Ġsubsequent":11163,"Ġsurgeon":11164,"Ġseaman":11165,"ortunities":11166,"Ġstub":11167,"Ġdoings":11168,"Ġdusty":11169,"ulsion":11170,"60":11171,"pling":11172,"Ġhunted":11173,"tend":11174,"Ġattained":11175,"Ġmuscles":11176,"Po":11177,"history":11178,"Ġpleasantly":11179,"tried":11180,"Ġlugg":11181,"Ġec":11182,"extra":11183,"James":11184,"ĠAnna":11185,"William":11186,"aten":11187,"greater":11188,"Ġartificial":11189,"plan":11190,"Ġuses":11191,"Ġmyth":11192,"ĠArm":11193,"Ġshapes":11194,"Ġpersisted":11195,"Ġhospitality":11196,"wealth":11197,"Without":11198,"Ġslipp":11199,"Ġboughs":11200,"ira":11201,"Ġanguish":11202,"Ġimpart":11203,"Ġclaimed":11204,"Ġbarely":11205,"ouncing":11206,"Ġcaptive":11207,"east":11208,"Ġcad":11209,"Ġcash":11210,"text":11211,"Ġcountrymen":11212,"trust":11213,"built":11214,"Ġrows":11215,"ounted":11216,"Ġbackground":11217,"Ġbi":11218,"Ġpadd":11219,"Ġterrace":11220,"Ġcourte":11221,"rendered":11222,"Ġinterpret":11223,"Ġtrifling":11224,"Ġpolished":11225,"Ġtenderly":11226,"Ġgroan":11227,"?âĢĻ":11228,"furn":11229,"ayne":11230,"Ġassent":11231,"brown":11232,"subst":11233,"Ġascended":11234,"philosop":11235,"Ġtorture":11236,"press":11237,"Ġwagg":11238,"ĠCOM":11239,"ĠBol":11240,"Ġbigger":11241,"Ġcommercial":11242,"discovered":11243,",\"--":11244,"oys":11245,"ĠMos":11246,"Ġbutton":11247,"ĠEllen":11248,"inety":11249,"Ġgrove":11250,"otting":11251,"ifies":11252,"result":11253,"ĠWed":11254,"determined":11255,"event":11256,"Ġhears":11257,"enter":11258,"Ġsul":11259,"ĠDep":11260,"Ġappreciate":11261,"Ġspecimen":11262,"gues":11263,"Ġstove":11264,"Ġbreach":11265,"Ġswallowed":11266,"Surely":11267,"ĠAbbey":11268,"omon":11269,"Ġshops":11270,"ĠCaroline":11271,"Meanwhile":11272,"winter":11273,"individual":11274,"rift":11275,"introdu":11276,"letters":11277,"Ġsweetness":11278,"Ġsympathetic":11279,"Ġpilgrim":11280,"ĠBed":11281,"Ġjacket":11282,"Ġetern":11283,"ĠPall":11284,"moon":11285,"Ġrubbed":11286,"Ġbasis":11287,"Mac":11288,"mates":11289,"ruit":11290,"Ġdealing":11291,"Ġproducing":11292,"Ġspin":11293,"Ġexamples":11294,"Ġfeminine":11295,"Ġplead":11296,"ficial":11297,"ĠFrancisco":11298,"Ġliquor":11299,"Ġvenerable":11300,"forgotten":11301,"Ġmixture":11302,"Ġinvention":11303,"Ġartistic":11304,"ĠGran":11305,"Ġjungle":11306,"Ġroute":11307,"Ġdocument":11308,"Ġghosts":11309,"uer":11310,"Ġmix":11311,"Ġpeculiarly":11312,"confidence":11313,"ĠArnold":11314,"ĠEdmund":11315,"iac":11316,"Ġrobe":11317,"bread":11318,"Ġvine":11319,"hig":11320,"rum":11321,"broke":11322,"Ġsuspicions":11323,"Ġasserted":11324,"acquaint":11325,"Ġearl":11326,"Ġexchanged":11327,"Ġspots":11328,"Ġrings":11329,"ĠNell":11330,"Ġlatest":11331,"Mother":11332,"ders":11333,"Ãª":11334,"ĠMoore":11335,"untarily":11336,"Ġemerged":11337,"ping":11338,"ĠBridge":11339,"Ġcomplaint":11340,"Ġghastly":11341,"Ġvale":11342,"brew":11343,"Ġmute":11344,"Ġdies":11345,"Ġanalog":11346,"Ġkins":11347,"Many":11348,"Ġsnake":11349,"Richard":11350,"ĠHann":11351,"Ġchron":11352,"woods":11353,"Ġcorpse":11354,"Ġduly":11355,"Ġrational":11356,"arks":11357,"develop":11358,"ĠArchie":11359,"ĠIsaac":11360,"entirely":11361,"Ġape":11362,"Ġmuff":11363,"ĠSE":11364,"Ġdecidedly":11365,"icero":11366,"Ġgloves":11367,"Ste":11368,"ĠBrand":11369,"amental":11370,"Ġbehaviour":11371,"ĠBun":11372,"Ġcarved":11373,"Ġsituated":11374,"interrupt":11375,"uesday":11376,"Ġgalley":11377,"Ġquoted":11378,"joined":11379,"Ġfunction":11380,"yne":11381,"ĠKit":11382,"Ġtreaty":11383,"ila":11384,"bie":11385,"ĠHorn":11386,"terior":11387,"Ġdost":11388,"understanding":11389,"Ġlace":11390,"Ġcommanding":11391,"Ġfatigue":11392,"Ġrebellion":11393,"ĠDarwin":11394,"Ġcourts":11395,"Ġnovels":11396,"Ġeloquence":11397,"Ġchannel":11398,"Ġdestiny":11399,"chamber":11400,"Ġfantastic":11401,"Ġfare":11402,"ques":11403,"appy":11404,"iders":11405,"Ġsung":11406,"Ġenqu":11407,"IP":11408,"Ġpushing":11409,"Ġoffers":11410,"Ġscreamed":11411,"remembered":11412,"inj":11413,"Ġpaths":11414,"ĠGreeks":11415,"ĠMiriam":11416,"Ġnod":11417,"Ġguided":11418,"grateful":11419,"Ġaccomplish":11420,"species":11421,"pin":11422,"Ġaffirm":11423,"Ġhesitate":11424,"fortunes":11425,"Ġstooped":11426,"ĠHell":11427,"Ġaccent":11428,"Ġformation":11429,"ĠWhit":11430,"ĠLawrence":11431,"ĠMaud":11432,"Ġblast":11433,"ĠGothic":11434,"Ġsolution":11435,"countered":11436,"Ġneighbouring":11437,"Ġrugged":11438,"cribe":11439,"Europe":11440,"Ġbother":11441,"raham":11442,"surpr":11443,"Ġdignified":11444,"temper":11445,"Ġkin":11446,"Ġslack":11447,"ĠAtlantic":11448,"Ġdepended":11449,"Ġphysician":11450,"Sw":11451,"zel":11452,"ĠLes":11453,"echn":11454,"Ġinterposed":11455,"Ġshadowy":11456,"Ġtongues":11457,"turning":11458,"ĠHE":11459,"ittered":11460,"Ġrigid":11461,"Something":11462,"cab":11463,"appl":11464,"Ġsquee":11465,"Ġneighbors":11466,"Ġmax":11467,"Ġferv":11468,"intend":11469,"....\"":11470,"ĠCanada":11471,"Fran":11472,"pay":11473,"Ġwitnessed":11474,"captain":11475,"Under":11476,"capt":11477,"istics":11478,"ffic":11479,"ĠStar":11480,"Ġchains":11481,"Ġdimly":11482,"Ġgn":11483,"Ġplates":11484,"ĠMist":11485,"Ġsheets":11486,"Ġencountered":11487,"succeed":11488,"Ġextract":11489,"Ġawaken":11490,"ronted":11491,"ĠMorton":11492,"ĠBath":11493,"Ġnob":11494,"Ġcarelessly":11495,"Ġabundance":11496,"Ġgran":11497,"Ġyoungest":11498,"Ġgreeting":11499,"Ġtribut":11500,"Ġirre":11501,"cular":11502,"agan":11503,"Ġimpert":11504,"Ġassociated":11505,".;":11506,"Tw":11507,"Ġprofessor":11508,"ĠHome":11509,"Cle":11510,"ieving":11511,"meant":11512,"marriage":11513,"Frank":11514,"VEN":11515,"ifting":11516,"Ġunkind":11517,"joining":11518,"ulsive":11519,"eridge":11520,"ĠField":11521,"abouts":11522,"uture":11523,"Ġpattern":11524,"Ġinvari":11525,"ĠSimon":11526,"LEY":11527,"Ġsingularly":11528,"admir":11529,"istrate":11530,"Ġprotected":11531,"Ġhostile":11532,"frequ":11533,"Ġaccus":11534,"Ġsprings":11535,"ĠBernard":11536,"crowd":11537,"Ġbreathless":11538,"Ġinvented":11539,"Ġextremity":11540,"Ġinspiration":11541,"escend":11542,"Ġdisd":11543,"ĠScar":11544,"Ġremembering":11545,"Ġben":11546,"ĠGilbert":11547,"cked":11548,"ERAL":11549,"considerable":11550,"Ġtoday":11551,"repe":11552,"Ġappearing":11553,"ĠScots":11554,"ĠInstead":11555,"Ġdeepest":11556,"Ġmedium":11557,"Ġfragr":11558,"Ġcows":11559,"Ġejac":11560,"ĠBoers":11561,"Ġbliss":11562,"cler":11563,"Ġowners":11564,"Ġhunters":11565,"Ġinvariably":11566,"isons":11567,"Ġaren":11568,"Ġdisorder":11569,"ORY":11570,"Ġ45":11571,"Ġchambers":11572,"stat":11573,"ĠCad":11574,"Ġferoc":11575,"gil":11576,"rating":11577,"ĠLance":11578,"Ġgigantic":11579,"Ġconfirm":11580,"Ġspray":11581,"Ġrejected":11582,"oking":11583,"Ġdecay":11584,"noticed":11585,"esp":11586,"Ġhonesty":11587,"Ġdrum":11588,"deg":11589,"flowers":11590,"atrick":11591,"Ġbol":11592,"Ġreass":11593,"orting":11594,"Ġbounds":11595,"ĠMus":11596,"opportunity":11597,"!âĢĻ":11598,"Ġshaft":11599,"Ġbetwixt":11600,"Ġcommit":11601,"miles":11602,"Ġabuse":11603,"Ġstudents":11604,"ĠInt":11605,"ĠShad":11606,"ĠHay":11607,"gentlemen":11608,"phys":11609,"Ġquoth":11610,"ĠValley":11611,"wouldn":11612,"Hall":11613,"OC":11614,"agraph":11615,"Ġfeud":11616,"weed":11617,"ĠKat":11618,"Ġbelieves":11619,"holding":11620,"34":11621,"Mon":11622,"Ġque":11623,"undered":11624,"walked":11625,"iller":11626,"Ġbeck":11627,"ĠMul":11628,"Ġcongreg":11629,"Ġgames":11630,"Ġexplos":11631,"Ġdrifted":11632,"Ġpaces":11633,"ublished":11634,"Ġfiner":11635,"Ġbenevol":11636,"ĠMem":11637,"ĠHan":11638,"OOK":11639,"Ġkick":11640,"existence":11641,"Life":11642,"ĠBaxter":11643,"Ġwhar":11644,"otesque":11645,"ĠIX":11646,"ĠSel":11647,"Ġexecuted":11648,"Ġreleased":11649,"Ġtraced":11650,"Ġsuperiority":11651,"Ġdiamonds":11652,"'-":11653,"ima":11654,"Ġdistrust":11655,"stopped":11656,"Ġbat":11657,"Ġenlight":11658,"star":11659,"rot":11660,"Ġcrimes":11661,"Ġveh":11662,"Ġprairie":11663,"Ġnav":11664,"Heaven":11665,"ĠAlas":11666,"Ġphant":11667,"ifice":11668,"Ġknelt":11669,"Ġyacht":11670,"arker":11671,"ĠĠĠĠĠĠĠĠĠĠĠĠĠĠĠĠĠĠĠĠĠĠĠĠĠĠĠĠĠĠĠĠĠ":11672,"ĠSing":11673,"ourselves":11674,"ĠOri":11675,"uese":11676,"Ġcreeping":11677,"Ġmorality":11678,"Ġheights":11679,"BL":11680,"later":11681,"ĠTit":11682,"ĠOb":11683,"Ġcousins":11684,"Ġsham":11685,"Ġsphere":11686,"Ġbattles":11687,"Ġinclination":11688,"Ġbreadth":11689,"Ġagitated":11690,"ishly":11691,"Ġhurrying":11692,"Ġtempest":11693,"nesday":11694,"Ġpathetic":11695,"Ġbreaks":11696,"Than":11697,"Ġtalks":11698,"Ġmarvellous":11699,"Ġdecline":11700,"supposed":11701,"ĠSwed":11702,"iche":11703,"Ġsports":11704,"Ġvigil":11705,"Ġlouder":11706,"gro":11707,"Ġtruths":11708,"Ġexpressing":11709,"._,":11710,"ĠCaesar":11711,"Ġrepl":11712,"anta":11713,"Ġliking":11714,"ĠCountry":11715,"Ġstamped":11716,"Ġwholesome":11717,"Ġtack":11718,"Ġcents":11719,"Ġspur":11720,"Ġcush":11721,"Ġencouragement":11722,"Ġstartling":11723,"Ġomn":11724,"Ġalert":11725,"ĠBlue":11726,"Ġexamining":11727,"difference":11728,"twas":11729,"Ġexpenses":11730,"Ġspecimens":11731,"rical":11732,"Ġmask":11733,"Ġincredible":11734,"kee":11735,"Ġjail":11736,"Ġrib":11737,"journey":11738,"Ġnig":11739,"COL":11740,"ĠRab":11741,"Ġperplexed":11742,"Ġincess":11743,"pole":11744,"fertilised":11745,"Ġintensity":11746,"ials":11747,"Please":11748,"dressed":11749,"fixed":11750,"ĠMet":11751,"Ġblade":11752,"ero":11753,"Ġfors":11754,"Ġlee":11755,"velope":11756,"couldn":11757,"ĠMartha":11758,"aum":11759,"dess":11760,"ĠBurg":11761,"Ġrefresh":11762,"Nevertheless":11763,"Ġsympt":11764,"AGE":11765,"ĠCharlotte":11766,"hants":11767,"Ġranch":11768,"heaven":11769,"Ġargued":11770,"surprise":11771,"Ġgrimly":11772,"outside":11773,"charge":11774,"accustomed":11775,"thrown":11776,"ĠLuke":11777,"Ġinstitutions":11778,"encer":11779,"Ġprejudice":11780,"Sil":11781,"uy":11782,"ĠGordon":11783,"chester":11784,"settled":11785,"Ġtoken":11786,"ĠGet":11787,"Ġexciting":11788,"ĠGermans":11789,"Ġarter":11790,"deem":11791,"ĠĠĠĠĠĠĠĠĠĠĠĠĠĠĠĠĠĠĠĠĠĠĠĠĠĠĠĠĠĠĠĠĠĠ":11792,"Ġswing":11793,"Ġincidents":11794,"Twas":11795,"Ġswinging":11796,"Ġsoftened":11797,"Ġfoliage":11798,"West":11799,"Ġsweeping":11800,"Ġplum":11801,"assed":11802,"Ġthyself":11803,"Ġintimacy":11804,"None":11805,"Ġfulfil":11806,"concerned":11807,"bation":11808,"mont":11809,"Ġsinner":11810,"ĠGab":11811,"athemat":11812,"Ġspectacles":11813,"stable":11814,"Ġoppon":11815,"Ġsnuff":11816,"belief":11817,"believed":11818,"Ġcontinual":11819,"Although":11820,"Ġresources":11821,"Ġdiscretion":11822,"ĠAfrican":11823,"utable":11824,"ĠNOT":11825,"Ġsuspended":11826,"Ġapost":11827,"Madame":11828,"ordin":11829,"jected":11830,"Ġwonders":11831,"creature":11832,"Ġpeop":11833,"Ġvalleys":11834,"proc":11835,"Ġdefiance":11836,"Ġcabinet":11837,"Ġhammer":11838,"Ġciv":11839,"Ġscold":11840,"Ġacute":11841,"Ġroughly":11842,"tail":11843,"wond":11844,"ugs":11845,"Ġceiling":11846,"smile":11847,"ĠHER":11848,"Ġoldest":11849,"_)":11850,"ware":11851,"OUN":11852,"Could":11853,"Ġconsulted":11854,"Ġparliament":11855,"Ġbrutal":11856,"Ġinit":11857,"Ġtremble":11858,"Ġharmless":11859,"slowly":11860,"heavy":11861,"Ġpert":11862,"Ġdefin":11863,"Ġbite":11864,"BERT":11865,"ĠMull":11866,"Ġaloft":11867,"Ġflowed":11868,"Ġpunished":11869,"Ġcautious":11870,"Ġsentimental":11871,"talking":11872,"arrange":11873,"Ġpouring":11874,"apparently":11875,"difficult":11876,"ĠAllen":11877,"rants":11878,"wreck":11879,"Ġexperiments":11880,"Ġremarkably":11881,"bbing":11882,"Ġcomfortably":11883,"magn":11884,"mor":11885,"leaves":11886,"Ġshower":11887,"scarcely":11888,"Ġclimbing":11889,"ardener":11890,"Ġattendant":11891,"Ġexhaust":11892,"dread":11893,"Ġhandful":11894,"ĠLyd":11895,"Ġseamen":11896,"Ġvisiting":11897,"True":11898,"Ġtelegram":11899,"lucky":11900,"Ġtracks":11901,"Ġfaire":11902,"Ġattempting":11903,"Ġgrandmother":11904,"Ġsmoked":11905,"Ġtastes":11906,"Ġtents":11907,"ĠTen":11908,"Ġsearched":11909,"ĠTrue":11910,"OG":11911,"Ġsincerity":11912,"Ġhounds":11913,".--_":11914,"Ġforgetting":11915,"Ġcommerce":11916,"ĠRemember":11917,"Ġdreaded":11918,"Ġdollar":11919,"ĠGreece":11920,"Ġresentment":11921,"Ġcathedral":11922,"Ġstrip":11923,"ĠConstitution":11924,"acts":11925,"Ġremedy":11926,"ĠHolland":11927,"Ant":11928,"Ġballs":11929,".\"--":11930,"ensation":11931,"ĠCaliforn":11932,"building":11933,"Ġprudence":11934,"Ġperception":11935,"merely":11936,"ĠJonas":11937,"ĠJove":11938,"Ġoppress":11939,"Ne":11940,"rawn":11941,"Ġdeceive":11942,"weather":11943,"replied":11944,"Ġdevils":11945,"Ġdespise":11946,"mess":11947,"Ġessentially":11948,"iantly":11949,"rail":11950,"Ġdresses":11951,"ĠBarbara":11952,"OLD":11953,"ĠPalace":11954,"ĠCÃ¦sar":11955,"rod":11956,"rolled":11957,"mentioned":11958,"Ġglances":11959,"Ġposts":11960,"33":11961,"Ġwolves":11962,"Ġshrank":11963,"Ġquer":11964,"Ġsummons":11965,"Ġproofs":11966,"Ġforbidden":11967,"Ġcasual":11968,"Ġeconomy":11969,"Ġpupil":11970,"Ġorgans":11971,"March":11972,"Ġdegr":11973,"Ġfaithfully":11974,"Ġscept":11975,"athan":11976,"comed":11977,"Ġrepresentative":11978,"ĠCollege":11979,"Ġsall":11980,"ibus":11981,"Ġrefined":11982,"Ġcoral":11983,"beauty":11984,"_:":11985,"Ġvon":11986,"fortunately":11987,"IAN":11988,"fing":11989,"Ġropes":11990,"spread":11991,"Ġestates":11992,"ĠRel":11993,"log":11994,"Ġscrap":11995,"Ġinterpre":11996,"cellent":11997,"Ġcommunicated":11998,"Charles":11999,"ĠWel":12000,"Ġclinging":12001,"pray":12002,"Ġcasting":12003,"Ġsends":12004,"allowed":12005,"ĠSuppose":12006,"ictory":12007,"ĠIslands":12008,"Ġapplause":12009,"ĠForest":12010,"leaving":12011,"ORE":12012,"Ġportions":12013,"Ġbaff":12014,"Ġgospel":12015,"amph":12016,"Ġtricks":12017,"ĠAndy":12018,"corner":12019,"Ġdisaster":12020,"Ġoffspring":12021,"Ġskies":12022,"ĠBlake":12023,"ĠMurray":12024,"romise":12025,"elessly":12026,"Ġculture":12027,"Ġrosy":12028,"Ġconsol":12029,"Ġterrified":12030,"Ġneedful":12031,"Paul":12032,"Ġmelted":12033,"Ġfalsehood":12034,"Ġindependence":12035,"--------------------------------":12036,"village":12037,"Ġinterf":12038,"ĠFerdinand":12039,"Among":12040,"Ġingenious":12041,"ĠCampbell":12042,"iration":12043,"aza":12044,"Ġcolony":12045,"Ġloyalty":12046,"isen":12047,"ĠAnton":12048,"ĠSP":12049,"Ġhelm":12050,"Ġblazing":12051,"Ġcanoes":12052,"please":12053,"Ġwealthy":12054,"Ġchorus":12055,"naturally":12056,"Ġantagon":12057,"rade":12058,"opy":12059,"sir":12060,"Ġbapt":12061,"Ġcarries":12062,"itous":12063,"Ġcombination":12064,"Ġwritings":12065,"Ġobjected":12066,"ĠEdith":12067,"Bel":12068,"Ġpant":12069,"earnest":12070,"Ġscound":12071,"._--":12072,"Ġvigour":12073,"gue":12074,"Ġyea":12075,"Ġcalam":12076,"successful":12077,"Ġdug":12078,"idious":12079,"geons":12080,"Ġadvers":12081,"Ġseventeen":12082,"_).":12083,"Ġbees":12084,"ulture":12085,"Ġ60":12086,"Ġfashionable":12087,"Ġborrowed":12088,"Ġallusion":12089,"wide":12090,"floor":12091,"Ġepoch":12092,"Ġerected":12093,"Rom":12094,"cried":12095,"ecd":12096,"Ġremonstr":12097,"Ġdespite":12098,"Ġcustomary":12099,"follow":12100,"eded":12101,"acies":12102,"ĠDale":12103,"Ġexperiences":12104,"passing":12105,"Ġpurchased":12106,"Ġpomp":12107,"Ġdespised":12108,"ĠHarding":12109,"Ġdru":12110,"Ġcolors":12111,"Ġexcurs":12112,"[_":12113,"ndry":12114,"Ġthreatening":12115,"Ġcharges":12116,"doll":12117,"ainty":12118,"Ġdebts":12119,"Ġmoor":12120,"extreme":12121,"Ġdetermine":12122,"Ġmetap":12123,"Ġpatiently":12124,"Ġshat":12125,"utton":12126,"Ġstan":12127,"iffe":12128,"ĠMaur":12129,"ĠWAS":12130,"Ġpunct":12131,"consciousness":12132,"PER":12133,"warm":12134,"Ġvow":12135,"Ġtemperament":12136,"Ġcandles":12137,"favour":12138,"Ġunusually":12139,"prevent":12140,"Ġallowance":12141,"affected":12142,"Ġidentity":12143,"Ġpirates":12144,"feelings":12145,"Ġhinted":12146,"Ġagreement":12147,"Ġsket":12148,"Ġwisely":12149,"Ġargue":12150,"running":12151,"perial":12152,"ranean":12153,"ĠSix":12154,"Ġdefic":12155,"forget":12156,"Ġarchitect":12157,"bone":12158,"Ġtragic":12159,"caught":12160,"Ġalleg":12161,"mits":12162,"station":12163,"Ġplague":12164,"Ġturf":12165,"Ġreckoned":12166,"ĠBurke":12167,"ĠMason":12168,"atches":12169,"amin":12170,"Ġstrained":12171,"working":12172,"IRE":12173,"Ġwaking":12174,"Ġslopes":12175,"Ġmoust":12176,"uration":12177,"Ġsustained":12178,"maker":12179,"ĠLang":12180,"descend":12181,"Ġstaggered":12182,"persons":12183,"Ġdesigns":12184,"Enter":12185,"Ġpreach":12186,"proved":12187,"Ġgravel":12188,"Hold":12189,"cases":12190,"finger":12191,"Ġinstruction":12192,"Ġprolonged":12193,"ĠOak":12194,"assador":12195,"Ġtrumpet":12196,"Ġeffective":12197,"Ġperiods":12198,"wonderful":12199,"Ġecst":12200,"Ġseparation":12201,"riment":12202,"ĠPil":12203,"Ġreprodu":12204,"Ġfiend":12205,"Ġrejoice":12206,"Ġsuccessive":12207,"Ġconvince":12208,"Ġapartments":12209,"gins":12210,"Ġshilling":12211,"rup":12212,"Ġresolute":12213,"ĠBeaut":12214,"Ġgit":12215,"ĠHetty":12216,"ĠCrawley":12217,"roar":12218,"ĠAsh":12219,"Ġendured":12220,"months":12221,"Ġstudying":12222,"Ġsplit":12223,"Ġgal":12224,"Ġeminent":12225,"Master":12226,"Sure":12227,"ĠSeveral":12228,"Ġprophet":12229,"Ġparlor":12230,"Ġsufferings":12231,"Ġinstruments":12232,"Ġdesirous":12233,"rising":12234,"itals":12235,"Ġcoinc":12236,"Ġinstincts":12237,"Most":12238,"grav":12239,"inently":12240,"ĠCir":12241,"save":12242,"Ġnurs":12243,"Ġfailing":12244,"Ġstrove":12245,"Ġappealed":12246,"Ġhue":12247,"Ġwhir":12248,"obt":12249,".),":12250,"Ġhypothesis":12251,"Ġumbre":12252,"Ġspears":12253,"Ġmassive":12254,"cru":12255,"ĠShelley":12256,"Ġbursting":12257,"umsy":12258,"ĠDante":12259,"Ġknot":12260,"Ġquest":12261,"Ġsubmitted":12262,"sin":12263,"Ġbands":12264,"Ġabundant":12265,"cus":12266,"essions":12267,"Ġalluded":12268,"ela":12269,"ĠGodfrey":12270,"Ġtreasures":12271,"learned":12272,"ctic":12273,"showed":12274,"Ġlass":12275,"Ġapology":12276,"ĠNational":12277,"society":12278,"Ġbeef":12279,"ĠBright":12280,"Ġleaping":12281,"Ġpicking":12282,"ECT":12283,"iard":12284,"ĠBrad":12285,"Ġapproval":12286,"Ġprospects":12287,"FF":12288,"Sat":12289,"mitting":12290,"Ġadjust":12291,"Ġknocking":12292,"Ġbru":12293,"latter":12294,"Ġherd":12295,"ĠLamb":12296,"carriage":12297,"buck":12298,"bitter":12299,"Ġfarmers":12300,"Ġcrowned":12301,"Ġbonds":12302,"urrection":12303,"Ġshri":12304,"Ġplunder":12305,"ĠGregory":12306,"Ġsoothing":12307,"ĠCicero":12308,"Ġvind":12309,"ĠPacific":12310,"Ġmodified":12311,"Ġpetty":12312,"anity":12313,"Ġartists":12314,"Ġinherited":12315,"ntil":12316,"Ġquitted":12317,"Ġmurderer":12318,"Ġshew":12319,"Ġpeasants":12320,"Ġregiments":12321,"Ġrecognise":12322,"weak":12323,"likely":12324,"Ġunc":12325,"ICH":12326,"ĠKeep":12327,"Ġglobe":12328,"Ġpropriety":12329,"TE":12330,"Ġonward":12331,"Ġscrew":12332,"Ġsorrows":12333,"Ġmanhood":12334,"Ġembro":12335,"Ġadmiral":12336,"Ġapprehend":12337,"Uncle":12338,"tin":12339,"Ġcontinent":12340,"single":12341,"_,\"":12342,"Ġhae":12343,"Ġshepherd":12344,"Ġdarkened":12345,"Ġtelegraph":12346,"Ġrelease":12347,"Ġripp":12348,"regarded":12349,"Ġprevail":12350,"Ġheel":12351,"storm":12352,"Ġpurity":12353,"ĠHotel":12354,"Ġmaj":12355,"Ġreflections":12356,"property":12357,"Ġworried":12358,"Ġconfounded":12359,"Ġresolve":12360,"Ġencourage":12361,"Louis":12362,"Ġfab":12363,"ignific":12364,"Ġdoctors":12365,"Ġunconsciously":12366,"ĠRead":12367,"Ġprow":12368,"Ġsincerely":12369,"Ġadapted":12370,"Ġconstruction":12371,"breakfast":12372,"ISH":12373,"amount":12374,"Ġanticipated":12375,"Ġintolerable":12376,"Ġale":12377,"Ġdesigned":12378,"Ġharvest":12379,"Ġdamage":12380,"Ġattendants":12381,"ĠRoc":12382,"Ġlighter":12383,"Ġpiled":12384,"ournal":12385,"otherwise":12386,"erty":12387,"lia":12388,"popular":12389,"Ġelaborate":12390,"Ġsuppressed":12391,"cheer":12392,"Ġresponse":12393,"Ġexertion":12394,"ladies":12395,"hara":12396,"thia":12397,"Ġserving":12398,"oug":12399,"ĠBeatrice":12400,"bows":12401,"Ġfrig":12402,"Ġlocks":12403,"Ġanimated":12404,"Ġdefeated":12405,"Im":12406,"Ġwig":12407,"urdy":12408,"ĠSub":12409,"ĠServ":12410,"Ġoutrage":12411,"ordinate":12412,"Ġbrightness":12413,"Ġautom":12414,"Ġcy":12415,"Ġmonk":12416,"Ġeloquent":12417,"70":12418,"iors":12419,"pine":12420,"Ġconverted":12421,"uminous":12422,"uthbert":12423,"Ġdependent":12424,"ylv":12425,"toward":12426,"Ġnu":12427,"ĠCON":12428,"Ġwinning":12429,"Ġdiplom":12430,"ĠGriff":12431,"breed":12432,"Ġfres":12433,"Ġpoo":12434,"aman":12435,"terrible":12436,"assist":12437,"Ġblunt":12438,"phone":12439,"Ġblankets":12440,"particularly":12441,"Ġsher":12442,"ĠSouthern":12443,"Ġvexed":12444,"Ġreverse":12445,"youth":12446,"Ġvisions":12447,"Ġvolcan":12448,"proportion":12449,"dust":12450,"Ġappe":12451,"Ġestimate":12452,"Ġment":12453,"Ġwelf":12454,"(_":12455,"Ġdwarf":12456,"intended":12457,"carry":12458,"Ġgorgeous":12459,"Ġcant":12460,"ingle":12461,"Ġattending":12462,"Ġspreading":12463,"Ġtumbled":12464,"enemy":12465,"ete":12466,"Ġwelfare":12467,"OOT":12468,"App":12469,"Ġstealing":12470,"ructive":12471,"fields":12472,"Ġsands":12473,"battle":12474,"ĠFig":12475,"ĠMadam":12476,"besides":12477,"Ġger":12478,"Ġken":12479,"Ġvirtuous":12480,"Ġje":12481,"ĠPickwick":12482,"Ġinheritance":12483,"acit":12484,"Ġarea":12485,"lives":12486,"arrived":12487,"Ġimitation":12488,"Ġelevation":12489,"vice":12490,"Ġcul":12491,"elson":12492,"Ġsnatched":12493,"Ġprosec":12494,"ensed":12495,"Ġconfer":12496,"Ġwickedness":12497,"Ġgoverness":12498,"Ġsombre":12499,"Red":12500,"rophe":12501,"Ġtemples":12502,"Ġidiot":12503,"Ġassuredly":12504,"othered":12505,"Ġpirate":12506,"Put":12507,"Ġbunch":12508,"Ġweighed":12509,"Both":12510,"Ġtame":12511,"Ġyelled":12512,"ĠThank":12513,"unned":12514,"sery":12515,"Ġadvoc":12516,"PH":12517,"Ġextend":12518,"Ġfragment":12519,"Ġhymn":12520,"ĠAld":12521,"week":12522,"Ġmonument":12523,"ACK":12524,"Sometimes":12525,"Henry":12526,"CL":12527,"Ġcrow":12528,"umpt":12529,"Ġhurled":12530,"Ġvicinity":12531,"xter":12532,"Ġstool":12533,"ĠBeth":12534,"ortions":12535,"fford":12536,"ieth":12537,"Ġlabours":12538,"ĠWarren":12539,"suit":12540,"Ġlodge":12541,"British":12542,"Ġblanket":12543,"breath":12544,"eh":12545,"loved":12546,"ĠPower":12547,"Ġpsych":12548,"iry":12549,"urous":12550,"Ġalien":12551,"Ġgenerosity":12552,"Ġaccurate":12553,"ĠDryden":12554,"Ġcorridor":12555,"Ġtools":12556,"Ġlions":12557,"Ġbackwards":12558,"Ġpeer":12559,"Ġshades":12560,"Ġrevolver":12561,"Ġstem":12562,"OOD":12563,"bish":12564,"Ġwider":12565,"anor":12566,"ĠPom":12567,"agne":12568,"craft":12569,"pull":12570,"ĠWH":12571,"blems":12572,"Ġdistressed":12573,"ĠRoad":12574,"ĠSpring":12575,"Ġhoofs":12576,"Ġbald":12577,"harine":12578,"instant":12579,"quarter":12580,"retty":12581,"Ġassociation":12582,"shoulder":12583,"Ġridden":12584,"period":12585,"Ġsquad":12586,"presently":12587,"velled":12588,"ĠMike":12589,"hanging":12590,"lan":12591,"dim":12592,"urt":12593,"Ġquivering":12594,"Ġcommod":12595,"Ġcoolly":12596,"finite":12597,"remain":12598,"INS":12599,"Ġbravely":12600,"alted":12601,"thee":12602,"Ġmysteries":12603,"ĠEst":12604,"Ġjaw":12605,"apart":12606,"Ġessence":12607,"ĠGlen":12608,"ĠSong":12609,"Ġassertion":12610,"Ġtreachery":12611,"tong":12612,"Ġfath":12613,"Ġsequ":12614,"Ġrefres":12615,"Ġfraud":12616,"Ġkeys":12617,"Ġannoyed":12618,"olis":12619,"Ġhob":12620,"Ġslim":12621,"Ġluncheon":12622,"pieces":12623,"uction":12624,"Ġhail":12625,"ĠJasper":12626,"Ġbehave":12627,"acr":12628,"Ġju":12629,"ĠPeace":12630,"Ġcircum":12631,"Ġdownward":12632,"Ġpromising":12633,"write":12634,"endeav":12635,"desire":12636,"chal":12637,"bearing":12638,"Ġchoked":12639,"fathers":12640,"summer":12641,"Ġimpass":12642,"Ġmoves":12643,"Ġentertainment":12644,"hero":12645,"Ġeverlasting":12646,"Pray":12647,"ĠPop":12648,"Long":12649,"Ġflashing":12650,"ĠToo":12651,"Ġswallow":12652,"adays":12653,"ĠMun":12654,"Ġneedle":12655,"Ġgratified":12656,"ousse":12657,"grass":12658,"Dor":12659,"yards":12660,"weight":12661,"Ġpollen":12662,"renched":12663,"Ġwestward":12664,"Ġawaited":12665,"language":12666,"38":12667,"ĠParadise":12668,"Ġearnestness":12669,"Ġintently":12670,"Ġpretence":12671,"ĠPhoebe":12672,"reign":12673,"Ġbarr":12674,"France":12675,"Ġforlorn":12676,"Ġrecords":12677,"Ġtyrant":12678,"ulch":12679,"Ġsecl":12680,"Ġhorseback":12681,"ĠSergeant":12682,"Ġconstr":12683,"Ġrifles":12684,"Ġforgiven":12685,"IVE":12686,"ĠPeters":12687,"Ġawaiting":12688,"LAND":12689,"yan":12690,"etition":12691,"Ġindicate":12692,"Ġsuspense":12693,"Ġtightly":12694,"Jul":12695,"Wait":12696,"Ġshift":12697,"Ġtherein":12698,"Ġpublication":12699,"knowing":12700,"Ġrecommended":12701,"Ġholl":12702,"ogan":12703,"Alas":12704,"Ġkeenly":12705,"absolutely":12706,"Ġbowl":12707,"horn":12708,"Ġresigned":12709,"ENTS":12710,"noble":12711,"Ġapprove":12712,"ective":12713,"Ġarriving":12714,"ĠXI":12715,"Ġacquies":12716,"Ġmerchants":12717,"Ġappropriate":12718,"entertain":12719,"ĠTW":12720,"Ġorchard":12721,"Ġwaistcoat":12722,"Ġmechanical":12723,"tical":12724,"Ġted":12725,"Ġheaded":12726,"Ġaccounted":12727,"Ġstretching":12728,"House":12729,"cock":12730,"Ġray":12731,"Ġtrunks":12732,"Ġwithered":12733,"Ġcommunicate":12734,"Ġkicked":12735,"ĠAlbert":12736,"Ġultimate":12737,"omes":12738,"udson":12739,"Ġconsiderations":12740,"Ġdetected":12741,"Ġlogs":12742,"Ġnoisy":12743,"Var":12744,"oven":12745,"Ġseizing":12746,"Ġattachment":12747,"ĠEff":12748,"darkness":12749,"tor":12750,"knows":12751,"izzie":12752,"pictures":12753,"shaped":12754,"Ġcompliments":12755,"ĠSarah":12756,"Ġnobility":12757,"mical":12758,"Ġthieves":12759,"ĠBre":12760,"Ġopens":12761,"Ġswimming":12762,"anding":12763,"ĠMY":12764,"ĠWord":12765,"Ġruled":12766,"Ġtiger":12767,"Ġimpet":12768,"Ġrelatives":12769,"Ġlimp":12770,"Ġvault":12771,"Ġoverboard":12772,"personal":12773,"connected":12774,"Ġinfect":12775,"ĠCare":12776,"Ġrounded":12777,"Ġdraws":12778,"AV":12779,"fton":12780,"aciously":12781,"flies":12782,"Through":12783,"Ġplanned":12784,"Ġtalents":12785,"Ġloo":12786,"mountain":12787,"icide":12788,"ĠPoint":12789,"Ġconcerns":12790,"Ġmotor":12791,"visit":12792,"ungs":12793,"ĠCliff":12794,"Ġlain":12795,"acket":12796,"Ġflee":12797,"Ġembarrassment":12798,"Ġbattery":12799,"ĠWinter":12800,"forest":12801,"Ġslay":12802,"Ġgenial":12803,"Ġunfortunately":12804,"ispens":12805,"Queen":12806,"Ã´":12807,"Ġhered":12808,"Ġprofessed":12809,"Ġtouches":12810,"TLE":12811,"rained":12812,"stained":12813,"wine":12814,"eller":12815,"ĠMademoiselle":12816,"Ġdischarged":12817,"ameless":12818,"olated":12819,"Ġcommittee":12820,"Ġinternal":12821,"Ġornaments":12822,"Ġlingering":12823,"Ġfuss":12824,"Ġcreek":12825,"Ġinterven":12826,"Ġdesperately":12827,"private":12828,"ĠTower":12829,"Ġchallenge":12830,"alty":12831,"Ġblushed":12832,"Ġcounting":12833,"Ġexcite":12834,"iley":12835,"Ġnegroes":12836,"munition":12837,"Ġgulf":12838,"HEN":12839,"Ġfuriously":12840,"Ġhorsemen":12841,"Ġshots":12842,"Ġstrife":12843,"Gr":12844,"MA":12845,"cul":12846,"makes":12847,"Ġrod":12848,"ĠFate":12849,"fortunate":12850,"Ġcritics":12851,"ĠDaniel":12852,"ĠBird":12853,"ousseau":12854,"mast":12855,"Ġrider":12856,"below":12857,"Ġattendance":12858,"produced":12859,"Ġank":12860,"ĠDam":12861,"exactly":12862,"hurst":12863,"ĠOffice":12864,"BE":12865,"Ġsly":12866,"verb":12867,"odes":12868,"Ġcarriages":12869,"erva":12870,"Ġpersonage":12871,"disp":12872,"Ġstrolled":12873,"Ġdeliberate":12874,"Ġsuperstition":12875,"Ġwhatsoever":12876,"39":12877,"Ġprominent":12878,"easy":12879,"ĠSC":12880,"Ġpartially":12881,"knife":12882,"Ġstif":12883,"Ġextingu":12884,"akin":12885,"Ġeyel":12886,"Ġascertained":12887,"Ġmeadow":12888,"oning":12889,"IRST":12890,"Ġlandlady":12891,"Ġrascal":12892,"aron":12893,".\"--_":12894,"Ġhousekeeper":12895,"Ġlawyers":12896,"Ġacquire":12897,"ynthia":12898,"Ġdescending":12899,"Ġpupils":12900,"duty":12901,"shed":12902,"started":12903,"Ġbacked":12904,"Ġearned":12905,"Ġparagraph":12906,"ipps":12907,"Ġcooking":12908,"Ġemphasis":12909,"Ġadds":12910,"Ġhonoured":12911,"Stop":12912,"Ġrever":12913,"Ġsensations":12914,"Ġuneasiness":12915,"Ġtreason":12916,"Ġobstinate":12917,"abbed":12918,"Ġarbit":12919,"ĠKnow":12920,"ĠQue":12921,"Ġhostess":12922,"ĠStory":12923,"Ġevolution":12924,"Ġpledge":12925,"Ġelevated":12926,"Ġopportunities":12927,"La":12928,"Ġrotten":12929,"Ġpartners":12930,"Ġevils":12931,"revol":12932,"OME":12933,"./":12934,"Ġdemean":12935,"LL":12936,"isive":12937,"Ġforemost":12938,"matters":12939,"Ġcage":12940,"utive":12941,"thony":12942,"Ġrot":12943,"tyard":12944,"Ġrequested":12945,"beneath":12946,"Ġinstitution":12947,"UE":12948,"lips":12949,"lifted":12950,"Ġmule":12951,"penter":12952,"Ġprosperous":12953,"Ġthirteen":12954,"Ġwiped":12955,"oric":12956,"ether":12957,"Ġassigned":12958,"situation":12959,"bi":12960,"arg":12961,"Ġstealth":12962,"ĠCHAPTER":12963,"Ġirresistible":12964,"Dav":12965,"Ġtough":12966,"Ġfeeding":12967,"Ġnegative":12968,"APT":12969,"witness":12970,"Jan":12971,"Ġcake":12972,"Ġ175":12973,"various":12974,"inged":12975,"ĠEric":12976,"Ġgrate":12977,"ĠClay":12978,"Ġsignificance":12979,"GH":12980,"MER":12981,"Ġobjections":12982,"hent":12983,"Ġna":12984,"Ġprostr":12985,"ĠStone":12986,"obed":12987,"ĠAsia":12988,"Ġfulfilled":12989,"Ġterritory":12990,"mach":12991,"Ġsealed":12992,"omerset":12993,"iour":12994,"ĠPend":12995,"agged":12996,"Ġapproved":12997,"Ġastonishing":12998,"Ġallied":12999,"Ġhumbly":13000,"Ġgrieved":13001,"Ġbluff":13002,"nels":13003,"Ġcontrovers":13004,"sudden":13005,"Ġpanting":13006,"Ġwhispering":13007,"Ġwashing":13008,"ĠLo":13009,"Ġabomin":13010,"Ġreceipt":13011,"Ġcrawled":13012,"Ġhen":13013,"Ġbeams":13014,"Ġagents":13015,"Ġpacket":13016,"ĠPhineas":13017,"Ġavenue":13018,"Ġhazard":13019,"erest":13020,"Ġrattle":13021,"Ġharmon":13022,"Ġgrandeur":13023,"officers":13024,"Ġgust":13025,"Ġbarrel":13026,"contented":13027,"je":13028,"Ġdepartment":13029,"Ġmare":13030,"Cons":13031,"ĠEls":13032,"ĠRand":13033,"Ġenvelope":13034,"ĠKn":13035,"Ġpoetic":13036,"discuss":13037,"simple":13038,"cro":13039,"Ġlect":13040,"silent":13041,"girls":13042,"Ġtranslation":13043,"Ġmourning":13044,"Ġhermit":13045,"Ġsleepy":13046,"Ġcivilized":13047,"ĠJulian":13048,"Ġoccurs":13049,"Ġstrode":13050,"Ġwan":13051,"oneliness":13052,"Ġurge":13053,"Ġpanic":13054,"Ġinterference":13055,"Count":13056,"Ġgild":13057,"ĠCard":13058,"Ġspeculation":13059,"ennis":13060,"bbles":13061,"Ġbully":13062,"Ġwrist":13063,"Ġcompanies":13064,"Ġtyranny":13065,"lies":13066,"mann":13067,"Ġerrors":13068,"sor":13069,"closure":13070,"Ġassembly":13071,"Ġdiamond":13072,"Ġkneeling":13073,"Ġflank":13074,"ĠThursday":13075,"Ġeffectually":13076,"Ġexercised":13077,"Ġsignificant":13078,"soldiers":13079,"Ġaft":13080,"ecks":13081,"thick":13082,"ĠCra":13083,"ĠPy":13084,"ĠClar":13085,"Ġdeclaring":13086,"picture":13087,"ĠUniversity":13088,"Ġhuts":13089,"seat":13090,"ĠAle":13091,"ĠPortuguese":13092,"ĠMoor":13093,"thro":13094,"Ġsolely":13095,"Ġdamn":13096,"crossed":13097,"Ġambitious":13098,"OE":13099,"future":13100,"Ġevenings":13101,"itherto":13102,"Ġpainfully":13103,"raction":13104,"Ġammunition":13105,"Ġnegot":13106,"Ġsplendour":13107,"ishers":13108,"escape":13109,"ertrude":13110,"Ġtransport":13111,"oil":13112,"stick":13113,"ĠTHAT":13114,"ĠVane":13115,"crim":13116,"Ġmalice":13117,"Ġmeals":13118,"Ġbutler":13119,"questions":13120,"ĠRec":13121,"Ġassail":13122,"Ġcreate":13123,"ĠBerlin":13124,"\",":13125,"Ġcos":13126,"Ġreplaced":13127,"acknow":13128,"encing":13129,"ĠXII":13130,"ĠWILL":13131,"Ġshawl":13132,"Ġhumility":13133,"weet":13134,"Ġrelate":13135,"Ġappearances":13136,"ĠXL":13137,"colm":13138,"Ġfir":13139,"Ġcats":13140,"Ġpleases":13141,"Ġimaginary":13142,"Ġinfluences":13143,"ĠPed":13144,"ĠGirl":13145,"Ġoccurrence":13146,"ĠHug":13147,"Ġdoomed":13148,"Ġquart":13149,"ĠJob":13150,"Ġpersonality":13151,"Ġsnapped":13152,"Ġspringing":13153,"possessed":13154,"ĠNigel":13155,"cart":13156,"Ġsadness":13157,"ĠFlor":13158,"Ġcoats":13159,"keys":13160,"Ġschemes":13161,"Four":13162,"cup":13163,"Ġfran":13164,"Ġthumb":13165,"Ġorange":13166,"ilet":13167,"Ġstepping":13168,"Ġhesitating":13169,"ĠBank":13170,"Ġmines":13171,"Ġcolle":13172,"Ġbottles":13173,"correspond":13174,"Ġfits":13175,"ĠMR":13176,"ĠMuch":13177,"ĠWITH":13178,"honest":13179,"Ġbachel":13180,"Ġardent":13181,"Sch":13182,"Ġrobes":13183,"xton":13184,"Ġcircles":13185,"ributes":13186,"SC":13187,"Ġroofs":13188,"Ben":13189,"Ġskins":13190,"Ġwithdrawn":13191,"Ġpilot":13192,"ethe":13193,"ĠWorks":13194,"Ġrestraint":13195,"Ġlump":13196,"ĠPerc":13197,"Ġspending":13198,"Ġrepeating":13199,"Ġdeclaration":13200,"extraordinary":13201,"Cr":13202,"Ġdaybreak":13203,"Ġriches":13204,"oblig":13205,"Dan":13206,"Ġsage":13207,"Ġgrotesque":13208,"north":13209,"ĠReview":13210,"Ġclumsy":13211,"Ġbrand":13212,"Ġriot":13213,"ĠAnnie":13214,"Ġachieved":13215,"Ġconverse":13216,"Ġplough":13217,"ĠColeridge":13218,"Ġconquest":13219,"Were":13220,"Ġcolored":13221,"Ġexplaining":13222,"iverpool":13223,"Ġplunge":13224,"ĠNorthern":13225,"ĠEmma":13226,"ĠSteven":13227,"Ġcolonies":13228,"LET":13229,"broad":13230,"ĠMeanwhile":13231,"OUS":13232,"onia":13233,"atoes":13234,"oward":13235,"Ġeagle":13236,"ĠWales":13237,"Ġdishes":13238,"Ġmorals":13239,"Philip":13240,"Turn":13241,"Ġost":13242,"ĠPitt":13243,"taire":13244,"Ġseverity":13245,")--":13246,"riving":13247,"ĠWin":13248,"oby":13249,"authority":13250,"ĠSolomon":13251,"Ġdefended":13252,"Ġfooting":13253,"ĠBenj":13254,"unched":13255,"ITY":13256,"ĠJustice":13257,"ĠWatson":13258,"Ġbrace":13259,"Ġly":13260,"proof":13261,"Ġrevelation":13262,"hement":13263,"ĠAgatha":13264,"Che":13265,"Ġbeam":13266,"ĠMall":13267,"ĠXIV":13268,"Ġresemble":13269,"creatures":13270,"mounted":13271,"Ġdarted":13272,"aders":13273,"Ġladen":13274,"Ġcenter":13275,"acquaintance":13276,"ĠTuesday":13277,"Ġdragging":13278,"doctor":13279,"Ġprodigious":13280,"crow":13281,"oria":13282,"una":13283,"Ġobtaining":13284,"rone":13285,"owered":13286,"Ġallowing":13287,"Ġembarrassed":13288,"Hard":13289,"uate":13290,"icago":13291,"Ġperished":13292,"Ġconclusions":13293,"Ġsinners":13294,"Ġsexual":13295,"itative":13296,"Ġwrest":13297,"Ġextending":13298,"Ġjoys":13299,"Ġpraised":13300,"ĠHardy":13301,"inno":13302,"Spe":13303,"ishable":13304,"Ġath":13305,"Mont":13306,"eves":13307,"fits":13308,"ranging":13309,"ignity":13310,"declared":13311,"Ġswam":13312,"Ġintensely":13313,"uster":13314,"Ġbestow":13315,"Ġpipes":13316,"adle":13317,"ĠBertram":13318,"Cour":13319,"Ġsag":13320,"Ġmagistrate":13321,"uddered":13322,"Ġaided":13323,"Ġelephant":13324,"Ġshoe":13325,"Ġacid":13326,"intellect":13327,"ĠAustralia":13328,"August":13329,"trying":13330,"Ġpartial":13331,"Ġimpressive":13332,"lem":13333,"Ġgoose":13334,"essing":13335,"abob":13336,"Ġsteer":13337,"Ġscrut":13338,"Span":13339,"gown":13340,"ĠPL":13341,"paid":13342,"Ġsyll":13343,"31":13344,"ammed":13345,"ĠHorse":13346,"Ġsparkling":13347,"importance":13348,"meeting":13349,"hosp":13350,"Ġcable":13351,"Ġ31":13352,"Ġsweat":13353,"Ġattacks":13354,"Ġutterance":13355,"hap":13356,"ibal":13357,"Half":13358,"Ġalle":13359,"tops":13360,"Ġpigs":13361,"ĠBR":13362,"Ġsimult":13363,"bottom":13364,"ĠCousin":13365,"ĠLind":13366,"Ġacres":13367,"Ġjoyous":13368,"honour":13369,"thorough":13370,"Ġmonks":13371,"ano":13372,"Ġpitched":13373,"accompl":13374,"Ġadvertis":13375,"minute":13376,"Ġspectators":13377,"Ġtom":13378,"Ġregretted":13379,"Ag":13380,"rsula":13381,"ĠMiles":13382,"dism":13383,"Ġ+":13384,"ĠBour":13385,"Ġvoc":13386,"ĠPatrick":13387,"Ġcough":13388,"Ġdagger":13389,"ione":13390,"raise":13391,"Ġguid":13392,"Ġconfidential":13393,"Ġblend":13394,"scene":13395,"Ġconcert":13396,"Ġdeserves":13397,"Ġloung":13398,"AMES":13399,"Ġrejoiced":13400,"enzie":13401,"75":13402,"ĠTha":13403,"Ġabol":13404,"Ġslid":13405,"Ġcomplicated":13406,"Ġcorresponding":13407,"religion":13408,"ĠRichmond":13409,"ĠJar":13410,"Ġprivately":13411,"Ġoppressed":13412,"visible":13413,"Ġresembled":13414,"Ġpha":13415,"ĠBi":13416,"Ġcane":13417,"ansom":13418,"Ġunderneath":13419,"ĠViv":13420,"Ġtermed":13421,"laws":13422,"Ġamazing":13423,"Ġbridle":13424,"Ġrabbit":13425,"died":13426,"intention":13427,"Ġvictims":13428,"uf":13429,"Ġredeem":13430,"Ġhopeful":13431,"NG":13432,"ĠRon":13433,"Ġlawful":13434,"opposite":13435,"Ġpillars":13436,"Ġdusky":13437,"ĠKitty":13438,"diss":13439,"Ġallies":13440,"Cont":13441,"lement":13442,"Ġomin":13443,"ĠGill":13444,"Ġinvalid":13445,"pend":13446,"onous":13447,"Ġinhabited":13448,"ĠHold":13449,"Ġspoiled":13450,"material":13451,"Ġleng":13452,"ĠIllustr":13453,"Ġending":13454,"Ġcaptains":13455,"Rev":13456,"itter":13457,"resents":13458,"beside":13459,"Ġengra":13460,"Ã±or":13461,"Ġripe":13462,"ĠLeo":13463,"Ġtypes":13464,"kiss":13465,"anthrop":13466,"Ġlined":13467,"iza":13468,"evidently":13469,"pecial":13470,"ĠSamuel":13471,"Ġwool":13472,"Ġlev":13473,"ĠRound":13474,"blind":13475,"Ġworkman":13476,"Ġmissionary":13477,"Ġshabby":13478,"suing":13479,"evidence":13480,"archy":13481,"Ġposted":13482,"virt":13483,"vered":13484,"splend":13485,"Ġscreen":13486,"ĠLeg":13487,"Ġdreadfully":13488,"Ġivory":13489,"Cor":13490,"bble":13491,"Ġexile":13492,"Ġcurve":13493,"ĠArabs":13494,"Soon":13495,"Cal":13496,"asse":13497,"emon":13498,"Ġvainly":13499,"Ġnothin":13500,"ĠMow":13501,"instinct":13502,"aird":13503,"Ġattributed":13504,"thank":13505,"servants":13506,"Ġtranslated":13507,"ride":13508,"ĠHind":13509,"Ġspecific":13510,"Ġpistols":13511,"Ġcrystal":13512,"80":13513,"marked":13514,"leans":13515,"\".":13516,"raged":13517,"ĠHerr":13518,"cellor":13519,"mens":13520,"pha":13521,"Ġhire":13522,"ĠVinc":13523,"eville":13524,"Ġinterruption":13525,"Ġenters":13526,"Ġedges":13527,"Ġweariness":13528,"Ġembraced":13529,"eager":13530,"nam":13531,"Ġcyn":13532,"emen":13533,"Arthur":13534,"Ġacquaintances":13535,"Ġloos":13536,"veying":13537,"Ġexpressive":13538,"Ġhood":13539,"Ġtheme":13540,"ĠNEW":13541,"ublin":13542,"ENE":13543,"Ġsaloon":13544,"ĠLE":13545,"Ġkindred":13546,"ĠRobinson":13547,"icting":13548,"ala":13549,"ĠBeyond":13550,"ulu":13551,"countenance":13552,"Ġcub":13553,"Ġseasons":13554,"Ġnostri":13555,"Ġjaws":13556,"Ġoppose":13557,"Ġphrases":13558,"32":13559,"Ġdainty":13560,"uther":13561,"ĠFif":13562,"IND":13563,"month":13564,"Ġexclaim":13565,"ĠMatthew":13566,"lace":13567,"Ġbounded":13568,"Ġquad":13569,"Ġbarrier":13570,"Ġadmiring":13571,"Ġaccordance":13572,"Ġemphat":13573,"Ġrags":13574,"Ġcream":13575,"ĠFinally":13576,"odox":13577,"mountains":13578,"Ġscanty":13579,"lev":13580,"Ġappoint":13581,"bottle":13582,"Ġcel":13583,"olley":13584,"ĠHunt":13585,"tegr":13586,"avil":13587,"ĠVill":13588,"ĠReddy":13589,"Ġproves":13590,"cester":13591,"Ġbrightly":13592,"ĠMA":13593,"aren":13594,"Ġexpensive":13595,"atsy":13596,"Ġessay":13597,"imper":13598,"shoulders":13599,"Ġprocured":13600,"imagination":13601,"atra":13602,"Ġwhoever":13603,"Ġsubstantial":13604,"Ġaudible":13605,"ĠHighland":13606,"Ġbolt":13607,"ĠTa":13608,"Ġtopic":13609,"Ġwelcomed":13610,"quickly":13611,"Ġdeposited":13612,"anxious":13613,"ĠClarence":13614,"Ġding":13615,"original":13616,"ĠHorace":13617,"Keep":13618,"due":13619,"ĠNelson":13620,"Ġharp":13621,"Ġtrivial":13622,"sembly":13623,"Ġshrink":13624,"cong":13625,"selfish":13626,"Ġinvite":13627,"Ġbrighter":13628,"Ġcrooked":13629,"Ġtearing":13630,"ĠFive":13631,"ĠHebrew":13632,"cony":13633,"ĠBrowning":13634,"Ġlogic":13635,"Ġdaresay":13636,"depend":13637,"Ġhighway":13638,"ahib":13639,"Ġenthusiastic":13640,"Ġpossessions":13641,"ographical":13642,"Ġhaughty":13643,"Ġdearly":13644,"Robert":13645,"ĠWes":13646,"ĠEss":13647,"gency":13648,"Ġbased":13649,"Ġtoes":13650,"Ġwears":13651,"ĠAD":13652,"Ġdeprived":13653,"colour":13654,"Ġpoetical":13655,".\"[":13656,"serious":13657,"Ġmodesty":13658,"Ġmol":13659,"Ġduc":13660,"ernation":13661,"Ġcommonplace":13662,"Ġuns":13663,"recy":13664,"Ġles":13665,"ĠCale":13666,"apse":13667,"Ġdetective":13668,"ĠWallace":13669,"wait":13670,"ĠEverybody":13671,"ĠAgnes":13672,"killed":13673,"Ġbee":13674,"kered":13675,"Ġperilous":13676,"yon":13677,"Ġpump":13678,"ĠBag":13679,"Ġharness":13680,"Ġgallop":13681,"Ġadministration":13682,"SS":13683,"simply":13684,"Ġgau":13685,"Ġexalted":13686,"Ġglimmer":13687,"ĠKnox":13688,"Ġloft":13689,"Ġsuits":13690,"Ġviv":13691,"nedy":13692,"Ġtribute":13693,"tery":13694,"Ġsleeve":13695,"Ġcopies":13696,"Ġdial":13697,"Ġviz":13698,"Ġcausing":13699,"shaw":13700,"Ġgleaming":13701,"Ġshriek":13702,"custom":13703,"snow":13704,"arant":13705,"ĠPa":13706,"Ġworkmen":13707,"Ġsubmission":13708,"Ġrequis":13709,"Ġsez":13710,"ĠCab":13711,"Ġultimately":13712,"Ġbir":13713,"Ġlamb":13714,"Ġmanufacture":13715,"Wil":13716,"Ġagin":13717,"Ġmeetings":13718,"Ġsup":13719,"igne":13720,"ĠDolly":13721,"Ġbreeding":13722,"encour":13723,"Ġdifferently":13724,"passage":13725,"ĠCommittee":13726,"Whether":13727,"Ġserpent":13728,"ĠHamilton":13729,"Ġexhibition":13730,"promise":13731,"ĠErnest":13732,"Ġfertile":13733,"ispensable":13734,"eron":13735,"Ġlumber":13736,"conqu":13737,"telling":13738,"Ġninety":13739,"ĠMaid":13740,"Therefore":13741,"courage":13742,"Ġinstructed":13743,"Ġrealised":13744,"explained":13745,"Men":13746,"Ġdetached":13747,"styled":13748,"Monsieur":13749,"eau":13750,"itia":13751,"bourne":13752,"NOTES":13753,"lic":13754,"threat":13755,"outing":13756,"Ġrecovery":13757,"FOOT":13758,"ben":13759,"Ġattorney":13760,"Ġapprehens":13761,"neck":13762,"ĠBetween":13763,"Ġdoctrines":13764,"drew":13765,"Ġoccasioned":13766,"easily":13767,"Ġrubbing":13768,".\"]":13769,"Ġcomposure":13770,"Anne":13771,"ĠCalifornia":13772,"powder":13773,"vid":13774,"Ġnour":13775,"Ġdisposal":13776,"Ġprivileges":13777,"nings":13778,"Ġcert":13779,"ĠMake":13780,"ĠMatt":13781,"acking":13782,"Young":13783,"Ġappreciation":13784,"sum":13785,"otic":13786,"Ġcondescend":13787,"windows":13788,"Ġcordial":13789,"Ġcontemplation":13790,"Ġengineer":13791,"Ġdelayed":13792,"Ġinvestigation":13793,"Ġpierced":13794,"orth":13795,"ĠDiana":13796,"ĠVar":13797,"Ġinfirm":13798,"Ġthickly":13799,"cand":13800,"Ġced":13801,"ĠHo":13802,"entlemen":13803,"relation":13804,"cred":13805,"national":13806,"stranger":13807,"ĠSom":13808,"Ġcivilised":13809,"surprised":13810,"Ġsturdy":13811,"Ġbesie":13812,"Ġfaltered":13813,"Ġdiscussing":13814,"Ãł":13815,"imble":13816,"Ġshorter":13817,"Ġheadlong":13818,"Ġfavoured":13819,"Ġlame":13820,"expressed":13821,"Ġnobleman":13822,"Ġyon":13823,"ĠRet":13824,"Ġimplied":13825,"Ġordin":13826,"Ġstragg":13827,"Ġpursuing":13828,"Ġstatues":13829,"Ġexceeding":13830,"ĠBrook":13831,"Ġagric":13832,"Ġbored":13833,"Ġhinder":13834,"ĠPorter":13835,"ĠFord":13836,"shut":13837,"Ġassistant":13838,"Ġadmission":13839,"Ġnursery":13840,"Ġrespectful":13841,"Think":13842,"ĠTrot":13843,"Ġextravagant":13844,"bore":13845,"kne":13846,"tone":13847,"Ġgaunt":13848,"thin":13849,"ollen":13850,"hart":13851,"Ġcurled":13852,"Ġthicket":13853,"Ġcoffin":13854,"ĠLewis":13855,"Love":13856,"Ġmodes":13857,"Ġproprietor":13858,"abella":13859,"ituted":13860,"ĠCL":13861,"meas":13862,"Ann":13863,"Ġversion":13864,"Ġsoup":13865,"etime":13866,"ĠBul":13867,"ĠFur":13868,"ĠGods":13869,"Ġawait":13870,"Ġshares":13871,"Ġverge":13872,"Ġodious":13873,"Ġprelim":13874,"Ġrefusal":13875,"Ġrealise":13876,"ĠHarris":13877,"ĠCommission":13878,"ĠMiller":13879,"uber":13880,"adventure":13881,"ogs":13882,"ethro":13883,"Ġobserver":13884,"century":13885,"Ġrescued":13886,"Ġsemi":13887,"iries":13888,"inea":13889,"Ġretreated":13890,"similar":13891,"Ġsenior":13892,"hills":13893,"rub":13894,"Ġexplo":13895,"doors":13896,"Ġwherefore":13897,"attend":13898,"Ġditch":13899,"idays":13900,"support":13901,"AU":13902,"niff":13903,"Ġrebel":13904,"Ġalternative":13905,"Ġshattered":13906,"Listen":13907,"ĠCond":13908,"Ġcheese":13909,"Ġafar":13910,"Ġseemingly":13911,"worse":13912,"Ġparcel":13913,"Ġfrail":13914,":--\"":13915,"pos":13916,"ĠAven":13917,"Ġtooth":13918,"Ġnaval":13919,"instance":13920,"Ġstarve":13921,"locked":13922,"Ġglided":13923,"Ġfrock":13924,"Ġorganic":13925,"political":13926,"Rep":13927,"nigh":13928,"tim":13929,"astrophe":13930,"Ġtravels":13931,"ĠBurns":13932,"Nobody":13933,"Ġthrice":13934,"dish":13935,"urse":13936,"Ġsheltered":13937,"ihil":13938,"ĠCuthbert":13939,"Ġsandy":13940,"Ġundertaking":13941,"Ġconvenience":13942,"Ġticket":13943,"unciation":13944,"control":13945,"aurant":13946,"penny":13947,"Ġproclaimed":13948,"owls":13949,"rival":13950,"Ġshaped":13951,"ĠWithin":13952,"abol":13953,"ĠJake":13954,"Sax":13955,"Ġtasted":13956,"Ġfib":13957,"Ġdyn":13958,"Ġstumbled":13959,"Ġhumorous":13960,"ĠVenus":13961,"consequence":13962,"ĠWednesday":13963,"Ġdy":13964,"Paris":13965,"Ġmoustache":13966,"48":13967,"49":13968,"istinct":13969,"Ġoffensive":13970,"Ġdarker":13971,"ylvia":13972,"south":13973,"Ġforbear":13974,"ĠOR":13975,"ishops":13976,"Ġextinct":13977,"hames":13978,"Ġpy":13979,"Ġgird":13980,"ĠHudson":13981,"enser":13982,"Ġelapsed":13983,"Ġcontinuous":13984,"Ġindulge":13985,"German":13986,"Ġumbrella":13987,"narrow":13988,"Ġpest":13989,"Ġlam":13990,"urb":13991,"Ġorphan":13992,"ĠFre":13993,"Ġenlar":13994,"Ġparaly":13995,"ĠMistress":13996,"46":13997,"greatest":13998,"Ġlanguages":13999,"obey":14000,"Ġrowed":14001,"ĠFoster":14002,"Ġhabitual":14003,"Ġobstin":14004,"lower":14005,"Ġpositions":14006,"Hon":14007,"Ġalliance":14008,"Ġdebate":14009,"Neither":14010,"yellow":14011,"Ġfidelity":14012,"Ġunity":14013,"fted":14014,"Ġreads":14015,"system":14016,"Ġdisdain":14017,"BUR":14018,"ki":14019,"rable":14020,"Ġdub":14021,"ĠED":14022,"Ġflav":14023,"Ġfloat":14024,"Ġselling":14025,"Whatever":14026,"Ġmagazine":14027,"erers":14028,"Ġjewel":14029,"shadow":14030,"asury":14031,"ros":14032,"riers":14033,"Ġskirts":14034,"Ġmiser":14035,"ĠNewman":14036,"Black":14037,"information":14038,"Ġstalk":14039,"Ġwondrous":14040,"aria":14041,"ĠBear":14042,"Ġblushing":14043,"Thom":14044,"ĠBlanche":14045,"ĠWestminster":14046,"Scot":14047,"Ġaccuracy":14048,"Ġgaily":14049,"profession":14050,"MAR":14051,"Ġcourtyard":14052,"ucer":14053,"Ġdevote":14054,"Ġodds":14055,"Ġtonight":14056,"ĠColumbus":14057,"matic":14058,"oner":14059,"Ġapples":14060,"myster":14061,"Ġurgent":14062,"Ġpetition":14063,"Ġprejudices":14064,"dney":14065,"Ġah":14066,"ĠMoon":14067,"train":14068,"Ġstriving":14069,"Ġunexpectedly":14070,"uations":14071,"Ġemperor":14072,"bare":14073,"Ġfren":14074,"ĠPot":14075,"Ġpraying":14076,"Ġpassionately":14077,"recoll":14078,"ĠShort":14079,"ĠGiant":14080,"ĠDirect":14081,"accompan":14082,"ĠPenn":14083,"Ġcars":14084,"everybody":14085,"named":14086,"pill":14087,"ometer":14088,"writ":14089,"ĠMeg":14090,"ĠDaw":14091,"Ġperv":14092,"avoid":14093,"SIR":14094,"nay":14095,"ĠInn":14096,"Ġvariation":14097,"Ġprocure":14098,"stay":14099,"ĠLot":14100,"Ġfinanc":14101,"Ġrevenue":14102,"Ġmartyr":14103,"Ġresignation":14104,"Ġnavy":14105,"Ġanecd":14106,"ĠHil":14107,"Ġsums":14108,"Ġvib":14109,"Ġ(\"":14110,"Ġcharmed":14111,"Ġpreaching":14112,"Ġbuying":14113,"RIST":14114,"wand":14115,"Ġabide":14116,"angs":14117,"cou":14118,"ipation":14119,"officer":14120,"firm":14121,"wished":14122,"Ġcracked":14123,"ENERAL":14124,"Ġexertions":14125,"itives":14126,"Ġspurs":14127,"Ġscal":14128,"enches":14129,"ĠSpencer":14130,"istol":14131,"Ġgenus":14132,"Ġentry":14133,"Ġmemorable":14134,"Isn":14135,"speech":14136,"walking":14137,"Ġhailed":14138,"notice":14139,"Ġactor":14140,"Ġdiscreet":14141,"scr":14142,"Ġmerciful":14143,"ĠChap":14144,"udding":14145,"handsome":14146,"Ġlodged":14147,"Ġcourteous":14148,"hensible":14149,"ateur":14150,"oeuv":14151,"Ġcivilisation":14152,"Ġmun":14153,"ĠMountain":14154,"indif":14155,"Ġkisses":14156,"Ġgaining":14157,"Ġabhor":14158,"ialect":14159,"handkerchief":14160,"Ġfrighten":14161,"ĠTurner":14162,"ĠPublic":14163,"icts":14164,"Ġairs":14165,"Ġlogical":14166,"Ġconscient":14167,"========":14168,"Ġvein":14169,"Ġsire":14170,"Ġascent":14171,"ricate":14172,"ĠStanley":14173,"oons":14174,"ĠLab":14175,"goes":14176,"Ġsources":14177,"isn":14178,"ĠEg":14179,"curious":14180,"consideration":14181,"ĠÂ§":14182,"Ġrecovering":14183,"ĠAuthor":14184,"ĠLud":14185,"Ġchalk":14186,"colored":14187,"saf":14188,"ĠWing":14189,"ĠFinn":14190,"Ġtorch":14191,"umberland":14192,"Ġinland":14193,"shoot":14194,"grims":14195,"Ġcomplained":14196,"Ġrapidity":14197,"isdom":14198,"roying":14199,"Ġnodding":14200,"ĠFergus":14201,"ĠDame":14202,"ĠFROM":14203,"ĠTruth":14204,"Ġhauled":14205,"Ġtheories":14206,"Ġmonsieur":14207,"Ġarisen":14208,"Ġhorribly":14209,"adm":14210,"Ġglor":14211,"azing":14212,"uba":14213,"icester":14214,"affairs":14215,"Ġrichly":14216,"Ġobligation":14217,"Ġeastward":14218,"Ġpreached":14219,"Ġdefined":14220,"ĠEdition":14221,"Ġfolds":14222,"olk":14223,"Ġbrushed":14224,"Ġtailor":14225,"ĠLanc":14226,"Ġpreference":14227,"forty":14228,"onna":14229,"Ġbeforehand":14230,"ISE":14231,"companions":14232,"ennyson":14233,"Ġchivalry":14234,"KS":14235,"chus":14236,"ĠRaven":14237,"Ġadequ":14238,"Ġnormal":14239,"Ġgraves":14240,"XXX":14241,"Ġsurroundings":14242,"Ġattentive":14243,"Ġmournful":14244,"Ġsympathies":14245,"ĠTeddy":14246,"Ġwharf":14247,"Ġhereditary":14248,"Ġcanst":14249,"Ġrefusing":14250,"Ġtolerably":14251,"mock":14252,"pa":14253,"Ġponder":14254,"Ġconform":14255,"Ġflattered":14256,
[...]
