{
  "version": "1.0",
  "truncation": null,
  "padding": null,
  "added_tokens": [
    {
      "id": 0,
      "content": "[PAD]",
      "single_word": false,
      "lstrip": false,
      "rstrip": false,
      "normalized": false,
      "special": true
    },
    {
      "id": 1,
      "content": "[UNK]",
      "single_word": false,
      "lstrip": false,
      "rstrip": false,
      "normalized": false,
      "special": true
    },
    {
      "id": 2,
      "content": "[CLS]",
      "single_word": false,
      "lstrip": false,
      "rstrip": false,
      "normalized": false,
      "special": true
    },
    {
      "id": 3,
      "content": "[SEP]",
      "single_word": false,
      "lstrip": false,
      "rstrip": false,
      "normalized": false,
      "special": true
    },
    {
      "id": 4,
      "content": "[MASK]",
      "single_word": false,
      "lstrip": false,
      "rstrip": false,
      "normalized": false,
      "special": true
    }
  ],
  "normalizer": {
    "type": "BertNormalizer",
    "clean_text": true,
    "handle_chinese_chars": true,
    "strip_accents": null,
    "lowercase": true
  },
  "pre_tokenizer": {
    "type": "BertPreTokenizer"
  },
  "post_processor": null,
  "decoder": {
    "type": "WordPiece",
    "prefix": "##",
    "cleanup": true
  },
  "model": {
    "type": "WordPiece",
    "unk_token": "[UNK]",
    "continuing_subword_prefix": "##",
    "max_input_chars_per_word": 100,
    "vocab": {
      "[PAD]": 0,
      "[UNK]": 1,
      "[CLS]": 2,
      "[SEP]": 3,
      "[MASK]": 4,
      "!": 5,
      "\"": 6,
      "#": 7,
      "$": 8,
      "%": 9,
      "&": 10,
      "'": 11,
      "(": 12,
      ")": 13,
      "*": 14,
      "+": 15,
      ",": 16,
      "-": 17,
      ".": 18,
      "/": 19,
      "0": 20,
      "1": 21,
      "2": 22,
      "3": 23,
      "4": 24,
      "5": 25,
      "6": 26,
      "7": 27,
      "8": 28,
      "9": 29,
      ":": 30,
      ";": 31,
      "<": 32,
      "=": 33,
      ">": 34,
      "?": 35,
      "@": 36,
      "[": 37,
      "\\": 38,
      "]": 39,
      "^": 40,
      "_": 41,
      "`": 42,
      "a": 43,
      "b": 44,
      "c": 45,
      "d": 46,
      "e": 47,
      "f": 48,
      "g": 49,
      "h": 50,
      "i": 51,
      "j": 52,
      "k": 53,
      "l": 54,
      "m": 55,
      "n": 56,
      "o": 57,
      "p": 58,
      "q": 59,
      "r": 60,
      "s": 61,
      "t": 62,
      "u": 63,
      "v": 64,
      "w": 65,
      "x": 66,
      "y": 67,
      "z": 68,
      "{": 69,
      "|": 70,
      "}": 71,
      "~": 72,
      "¢": 73,
      "£": 74,
      "¤": 75,
      "¦": 76,
      "§": 77,
      "©": 78,
      "«": 79,
      "¯": 80,
      "°": 81,
      "±": 82,
      "²": 83,
      "´": 84,
      "µ": 85,
      "¶": 86,
      "·": 87,
      "¹": 88,
      "º": 89,
      "»": 90,
      "¼": 91,
      "½": 92,
      "¾": 93,
      "¿": 94,
      "×": 95,
      "ß": 96,
      "æ": 97,
      "ð": 98,
      "ø": 99,
      "ł": 100,
      "œ": 101,
      "ſ": 102,
      "ʒ": 103,
      "ʹ": 104,
      "˘": 105,
      "α": 106,
      "β": 107,
      "γ": 108,
      "δ": 109,
      "ε": 110,
      "ζ": 111,
      "η": 112,
      "θ": 113,
      "ι": 114,
      "κ": 115,
      "λ": 116,
      "μ": 117,
      "ν": 118,
      "ξ": 119,
      "ο": 120,
      "π": 121,
      "ρ": 122,
      "ς": 123,
      "σ": 124,
      "τ": 125,
      "υ": 126,
      "φ": 127,
      "χ": 128,
      "ψ": 129,
      "ω": 130,
      "ϛ": 131,
      "ϝ": 132,
      "ϲ": 133,
      "а": 134,
      "б": 135,
      "в": 136,
      "г": 137,
      "д": 138,
      "е": 139,
      "ж": 140,
      "з": 141,
      "и": 142,
      "к": 143,
      "л": 144,
      "м": 145,
      "н": 146,
      "о": 147,
      "п": 148,
      "р": 149,
      "с": 150,
      "т": 151,
      "у": 152,
      "ф": 153,
      "х": 154,
      "ц": 155,
      "ч": 156,
      "ш": 157,
      "ъ": 158,
      "ы": 159,
      "ь": 160,
      "э": 161,
      "ю": 162,
      "я": 163,
      "ђ": 164,
      "і": 165,
      "ј": 166,
      "ѣ": 167,
      "җ": 168,
      "א": 169,
      "ב": 170,
      "ג": 171,
      "ד": 172,
      "ה": 173,
      "ו": 174,
      "ז": 175,
      "ח": 176,
      "י": 177,
      "כ": 178,
      "ל": 179,
      "ם": 180,
      "מ": 181,
      "ן": 182,
      "נ": 183,
      "ס": 184,
      "ע": 185,
      "פ": 186,
      "צ": 187,
      "ק": 188,
      "ר": 189,
      "ש": 190,
      "ת": 191,
      "ᵉ": 192,
      "ᵐ": 193,
      "ᵒ": 194,
      "ᵗ": 195,
      "᾽": 196,
      "᾿": 197,
      "῾": 198,
      "‐": 199,
      "–": 200,
      "—": 201,
      "‘": 202,
      "’": 203,
      "‛": 204,
      "“": 205,
      "”": 206,
      "…": 207,
      "′": 208,
      "″": 209,
      "⁂": 210,
      "℞": 211,
      "℥": 212,
      "⅓": 213,
      "⅔": 214,
      "⅛": 215,
      "│": 216,
      "┐": 217,
      "┘": 218,
      "##c": 219,
      "##h": 220,
      "##o": 221,
      "##n": 222,
      "##r": 223,
      "##i": 224,
      "##e": 225,
      "##a": 226,
      "##u": 227,
      "##g": 228,
      "##b": 229,
      "##l": 230,
      "##s": 231,
      "##m": 232,
      "##t": 233,
      "##d": 234,
      "##z": 235,
      "##1": 236,
      "##f": 237,
      "##y": 238,
      "##k": 239,
      "##x": 240,
      "##3": 241,
      "##v": 242,
      "##w": 243,
      "##p": 244,
      "##4": 245,
      "##0": 246,
      "##´": 247,
      "##j": 248,
      "##2": 249,
      "##8": 250,
      "##æ": 251,
      "##κ": 252,
      "##π": 253,
      "##λ": 254,
      "##ε": 255,
      "##ο": 256,
      "##υ": 257,
      "##σ": 258,
      "##ι": 259,
      "##ν": 260,
      "##6": 261,
      "##q": 262,
      "##5": 263,
      "##9": 264,
      "##7": 265,
      "##½": 266,
      "##α": 267,
      "##τ": 268,
      "##η": 269,
      "##μ": 270,
      "##ω": 271,
      "##°": 272,
      "##ρ": 273,
      "##δ": 274,
      "##φ": 275,
      "##θ": 276,
      "##ζ": 277,
      "##γ": 278,
      "##р": 279,
      "##ы": 280,
      "##м": 281,
      "##с": 282,
      "##к": 283,
      "##і": 284,
      "##е": 285,
      "##χ": 286,
      "##ς": 287,
      "##œ": 288,
      "##о": 289,
      "##з": 290,
      "##ѣ": 291,
      "##а": 292,
      "##и": 293,
      "##н": 294,
      "##ъ": 295,
      "##£": 296,
      "##т": 297,
      "##в": 298,
      "##я": 299,
      "##х": 300,
      "##ч": 301,
      "##г": 302,
      "##º": 303,
      "##ו": 304,
      "##א": 305,
      "##ר": 306,
      "##ש": 307,
      "##β": 308,
      "##б": 309,
      "##у": 310,
      "##ſ": 311,
      "##᾽": 312,
      "##נ": 313,
      "##ג": 314,
      "##ł": 315,
      "##д": 316,
      "##ψ": 317,
      "##ב": 318,
      "##י": 319,
      "##ה": 320,
      "##ј": 321,
      "##±": 322,
      "##¦": 323,
      "##¢": 324,
      "##л": 325,
      "##ξ": 326,
      "##ß": 327,
      "##ш": 328,
      "##ם": 329,
      "##×": 330,
      "##¾": 331,
      "##ל": 332,
      "##ь": 333,
      "##⅓": 334,
      "##э": 335,
      "##ð": 336,
      "##ц": 337,
      "##ʹ": 338,
      "##¼": 339,
      "##ᵗ": 340,
      "##ø": 341,
      "##ф": 342,
      "##п": 343,
      "##ת": 344,
      "##ק": 345,
      "##ד": 346,
      "##ю": 347,
      "##¤": 348,
      "##©": 349,
      "##ђ": 350,
      "##מ": 351,
      "##ן": 352,
      "##ж": 353,
      "##ᵉ": 354,
      "##ϛ": 355,
      "##²": 356,
      "##¹": 357,
      "##᾿": 358,
      "##ϲ": 359,
      "##ע": 360,
      "##כ": 361,
      "##җ": 362,
      "##ז": 363,
      "##ᵐ": 364,
      "##צ": 365,
      "##⅛": 366,
      "##ᵒ": 367,
      "##⅔": 368,
      "th": 369,
      "the": 370,
      "##er": 371,
      "##nd": 372,
      "##in": 373,
      "##ed": 374,
      "##ou": 375,
      "##at": 376,
      "##en": 377,
      "of": 378,
      "and": 379,
      "##on": 380,
      "##or": 381,
      "##es": 382,
      "to": 383,
      "##is": 384,
      "##ar": 385,
      "##ing": 386,
      "##an": 387,
      "##it": 388,
      "in": 389,
      "##ll": 390,
      "##as": 391,
      "##re": 392,
      "wh": 393,
      "##om": 394,
      "be": 395,
      "he": 396,
      "ha": 397,
      "##le": 398,
      "##ot": 399,
      "##ic": 400,
      "##ow": 401,
      "that": 402,
      "it": 403,
      "##ut": 404,
      "##ld": 405,
      "##ly": 406,
      "##ve": 407,
      "##se": 408,
      "you": 409,
      "sh": 410,
      "was": 411,
      "##gh": 412,
      "##id": 413,
      "on": 414,
      "##et": 415,
      "##ent": 416,
      "##st": 417,
      "##im": 418,
      "##ion": 419,
      "##ce": 420,
      "##ith": 421,
      "for": 422,
      "as": 423,
      "##ir": 424,
      "##al": 425,
      "his": 426,
      "##ay": 427,
      "##ur": 428,
      "with": 429,
      "st": 430,
      "##ch": 431,
      "re": 432,
      "##ad": 433,
      "##ver": 434,
      "##ter": 435,
      "an": 436,
      "her": 437,
      "is": 438,
      "not": 439,
      "had": 440,
      "##ght": 441,
      "at": 442,
      "##am": 443,
      "##ould": 444,
      "##ct": 445,
      "##oo": 446,
      "##her": 447,
      "but": 448,
      "##ess": 449,
      "fr": 450,
      "se": 451,
      "we": 452,
      "pr": 453,
      "##ain": 454,
      "##ill": 455,
      "su": 456,
      "sa": 457,
      "him": 458,
      "she": 459,
      "me": 460,
      "so": 461,
      "##ere": 462,
      "##all": 463,
      "##ight": 464,
      "have": 465,
      "##ke": 466,
      "de": 467,
      "##il": 468,
      "ch": 469,
      "##ich": 470,
      "##est": 471,
      "by": 472,
      "my": 473,
      "all": 474,
      "they": 475,
      "##pe": 476,
      "which": 477,
      "li": 478,
      "##ome": 479,
      "ne": 480,
      "##ore": 481,
      "con": 482,
      "or": 483,
      "##ck": 484,
      "this": 485,
      "##ge": 486,
      "##ul": 487,
      "do": 488,
      "up": 489,
      "##th": 490,
      "from": 491,
      "##ard": 492,
      "##ri": 493,
      "##ra": 494,
      "no": 495,
      "ex": 496,
      "there": 497,
      "##os": 498,
      "##ie": 499,
      "##us": 500,
      "man": 501,
      "said": 502,
      "##ant": 503,
      "##ble": 504,
      "were": 505,
      "al": 506,
      "##pp": 507,
      "##ation": 508,
      "who": 509,
      "##ous": 510,
      "##ust": 511,
      "##and": 512,
      "one": 513,
      "##ers": 514,
      "##em": 515,
      "fe": 516,
      "##our": 517,
      "##ast": 518,
      "are": 519,
      "##lf": 520,
      "would": 521,
      "##ind": 522,
      "them": 523,
      "en": 524,
      "##art": 525,
      "kn": 526,
      "##ate": 527,
      "go": 528,
      "##ist": 529,
      "if": 530,
      "##un": 531,
      "##ong": 532,
      "##ol": 533,
      "le": 534,
      "com": 535,
      "their": 536,
      "##ap": 537,
      "##ood": 538,
      "when": 539,
      "##ame": 540,
      "##um": 541,
      "wor": 542,
      "##out": 543,
      "br": 544,
      "un": 545,
      "ab": 546,
      "been": 547,
      "##if": 548,
      "what": 549,
      "will": 550,
      "##ound": 551,
      "out": 552,
      "##ough": 553,
      "##ak": 554,
      "##op": 555,
      "##one": 556,
      "##ish": 557,
      "int": 558,
      "tr": 559,
      "##ig": 560,
      "ar": 561,
      "##ook": 562,
      "##la": 563,
      "##itt": 564,
      "##own": 565,
      "am": 566,
      "fa": 567,
      "qu": 568,
      "##ort": 569,
      "##ery": 570,
      "##ven": 571,
      "##ost": 572,
      "mr": 573,
      "##ose": 574,
      "##ive": 575,
      "af": 576,
      "sp": 577,
      "##self": 578,
      "your": 579,
      "##reat": 580,
      "can": 581,
      "##el": 582,
      "##ity": 583,
      "ag": 584,
      "some": 585,
      "more": 586,
      "any": 587,
      "##ence": 588,
      "##fe": 589,
      "then": 590,
      "##ure": 591,
      "##ther": 592,
      "##ry": 593,
      "could": 594,
      "##ake": 595,
      "ro": 596,
      "##nder": 597,
      "now": 598,
      "##pt": 599,
      "##qu": 600,
      "tim": 601,
      "##ies": 602,
      "cl": 603,
      "very": 604,
      "##ag": 605,
      "##ance": 606,
      "tw": 607,
      "##au": 608,
      "##od": 609,
      "into": 610,
      "other": 611,
      "than": 612,
      "ever": 613,
      "like": 614,
      "##ine": 615,
      "##ass": 616,
      "##able": 617,
      "know": 618,
      "ad": 619,
      "##oun": 620,
      "us": 621,
      "##ink": 622,
      "##iv": 623,
      "##cc": 624,
      "im": 625,
      "did": 626,
      "##wn": 627,
      "##ite": 628,
      "has": 629,
      "look": 630,
      "##urn": 631,
      "gr": 632,
      "##way": 633,
      "how": 634,
      "##ell": 635,
      "##ittle": 636,
      "co": 637,
      "po": 638,
      "see": 639,
      "##ci": 640,
      "little": 641,
      "##ep": 642,
      "##ice": 643,
      "##ide": 644,
      "##ach": 645,
      "##ack": 646,
      "##ade": 647,
      "our": 648,
      "##fore": 649,
      "##ought": 650,
      "##tain": 651,
      "dis": 652,
      "per": 653,
      "time": 654,
      "about": 655,
      "should": 656,
      "lo": 657,
      "##hing": 658,
      "##ment": 659,
      "##ally": 660,
      "upon": 661,
      "say": 662,
      "##ud": 663,
      "great": 664,
      "again": 665,
      "str": 666,
      "##ab": 667,
      "##other": 668,
      "after": 669,
      "##ings": 670,
      "over": 671,
      "day": 672,
      "mar": 673,
      "too": 674,
      "bo": 675,
      "well": 676,
      "hand": 677,
      "##ather": 678,
      "only": 679,
      "##ved": 680,
      "##oss": 681,
      "pro": 682,
      "##age": 683,
      "##ick": 684,
      "##ord": 685,
      "mu": 686,
      "car": 687,
      "down": 688,
      "good": 689,
      "##ree": 690,
      "##ire": 691,
      "##ile": 692,
      "thr": 693,
      "fl": 694,
      "off": 695,
      "##pl": 696,
      "##ber": 697,
      "pl": 698,
      "pe": 699,
      "sc": 700,
      "before": 701,
      "bl": 702,
      "cr": 703,
      "part": 704,
      "may": 705,
      "think": 706,
      "fir": 707,
      "##ars": 708,
      "such": 709,
      "two": 710,
      "much": 711,
      "must": 712,
      "pre": 713,
      "its": 714,
      "##ions": 715,
      "ind": 716,
      "##ang": 717,
      "made": 718,
      "##ious": 719,
      "##ue": 720,
      "these": 721,
      "##ked": 722,
      "##pr": 723,
      "old": 724,
      "rem": 725,
      "##ward": 726,
      "where": 727,
      "fo": 728,
      "##ness": 729,
      "bet": 730,
      "##ful": 731,
      "never": 732,
      "##ied": 733,
      "here": 734,
      "##ount": 735,
      "sm": 736,
      "##ull": 737,
      "come": 738,
      "under": 739,
      "##ady": 740,
      "##per": 741,
      "long": 742,
      "##ft": 743,
      "##ated": 744,
      "spe": 745,
      "##ath": 746,
      "##ac": 747,
      "let": 748,
      "way": 749,
      "own": 750,
      "##ving": 751,
      "##ild": 752,
      "even": 753,
      "men": 754,
      "##orn": 755,
      "gl": 756,
      "ho": 757,
      "##ary": 758,
      "##ty": 759,
      "##ect": 760,
      "##led": 761,
      "res": 762,
      "every": 763,
      "first": 764,
      "might": 765,
      "##ise": 766,
      "bec": 767,
      "##ves": 768,
      "des": 769,
      "##ans": 770,
      "back": 771,
      "##ff": 772,
      "ob": 773,
      "dr": 774,
      "came": 775,
      "ye": 776,
      "ey": 777,
      "pla": 778,
      "##ered": 779,
      "seem": 780,
      "himself": 781,
      "thought": 782,
      "##ip": 783,
      "##ced": 784,
      "cont": 785,
      "##iss": 786,
      "comp": 787,
      "##ces": 788,
      "don": 789,
      "just": 790,
      "##co": 791,
      "##we": 792,
      "##ted": 793,
      "##oth": 794,
      "cons": 795,
      "those": 796,
      "bel": 797,
      "##igh": 798,
      "##llow": 799,
      "wr": 800,
      "pass": 801,
      "##ily": 802,
      "shall": 803,
      "get": 804,
      "most": 805,
      "life": 806,
      "pres": 807,
      "ke": 808,
      "jo": 809,
      "##ouse": 810,
      "##ried": 811,
      "make": 812,
      "##ave": 813,
      "through": 814,
      "##are": 815,
      "comm": 816,
      "still": 817,
      "##iff": 818,
      "acc": 819,
      "##atter": 820,
      "em": 821,
      "last": 822,
      "being": 823,
      "att": 824,
      "la": 825,
      "beg": 826,
      "wat": 827,
      "inter": 828,
      "new": 829,
      "away": 830,
      "##ction": 831,
      "ap": 832,
      "som": 833,
      "##ens": 834,
      "##ory": 835,
      "##ign": 836,
      "head": 837,
      "##ng": 838,
      "##ark": 839,
      "yet": 840,
      "call": 841,
      "##man": 842,
      "though": 843,
      "sl": 844,
      "##ons": 845,
      "turn": 846,
      "went": 847,
      "##ether": 848,
      "young": 849,
      "char": 850,
      "without": 851,
      "eng": 852,
      "mo": 853,
      "house": 854,
      "while": 855,
      "##pect": 856,
      "word": 857,
      "##iend": 858,
      "somet": 859,
      "te": 860,
      "ret": 861,
      "take": 862,
      "op": 863,
      "tell": 864,
      "##ase": 865,
      "##ause": 866,
      "many": 867,
      "ser": 868,
      "##les": 869,
      "friend": 870,
      "nat": 871,
      "nothing": 872,
      "##ition": 873,
      "work": 874,
      "ear": 875,
      "cour": 876,
      "far": 877,
      "##ened": 878,
      "##iz": 879,
      "gen": 880,
      "app": 881,
      "##ared": 882,
      "mrs": 883,
      "##air": 884,
      "found": 885,
      "##ian": 886,
      "##ew": 887,
      "count": 888,
      "eyes": 889,
      "cap": 890,
      "##ently": 891,
      "##ro": 892,
      "wom": 893,
      "end": 894,
      "right": 895,
      "##less": 896,
      "want": 897,
      "night": 898,
      "##int": 899,
      "sir": 900,
      "##cl": 901,
      "##ub": 902,
      "once": 903,
      "##ible": 904,
      "supp": 905,
      "##ors": 906,
      "##red": 907,
      "place": 908,
      "##alk": 909,
      "dist": 910,
      "##aking": 911,
      "mind": 912,
      "peop": 913,
      "put": 914,
      "##te": 915,
      "gra": 916,
      "##land": 917,
      "##sw": 918,
      "ll": 919,
      "##ult": 920,
      "people": 921,
      "face": 922,
      "nor": 923,
      "same": 924,
      "another": 925,
      "heart": 926,
      "father": 927,
      "##fect": 928,
      "ac": 929,
      "##ations": 930,
      "arm": 931,
      "imp": 932,
      "inst": 933,
      "##av": 934,
      "ple": 935,
      "##gg": 936,
      "##ject": 937,
      "things": 938,
      "set": 939,
      "mom": 940,
      "##ertain": 941,
      "##ict": 942,
      "sub": 943,
      "diff": 944,
      "##ical": 945,
      "moment": 946,
      "answ": 947,
      "god": 948,
      "room": 949,
      "gu": 950,
      "##ange": 951,
      "why": 952,
      "##ace": 953,
      "##sel": 954,
      "pers": 955,
      "##thing": 956,
      "form": 957,
      "sin": 958,
      "war": 959,
      "world": 960,
      "find": 961,
      "got": 962,
      "##ia": 963,
      "##ting": 964,
      "left": 965,
      "##ank": 966,
      "appe": 967,
      "saw": 968,
      "miss": 969,
      "love": 970,
      "three": 971,
      "##ways": 972,
      "feel": 973,
      "lady": 974,
      "sw": 975,
      "ma": 976,
      "light": 977,
      "##ished": 978,
      "gener": 979,
      "thing": 980,
      "ass": 981,
      "ve": 982,
      "##ix": 983,
      "near": 984,
      "looked": 985,
      "##ling": 986,
      "##ower": 987,
      "##ner": 988,
      "child": 989,
      "##augh": 990,
      "wa": 991,
      "belie": 992,
      "##ph": 993,
      "give": 994,
      "sur": 995,
      "sat": 996,
      "##ever": 997,
      "##iver": 998,
      "always": 999,
      "##ody": 1000,
      "col": 1001,
      "high": 1002,
      "seemed": 1003,
      "##ey": 1004,
      "##ock": 1005,
      "happ": 1006,
      "certain": 1007,
      "##ither": 1008,
      "ph": 1009,
      "better": 1010,
      "prop": 1011,
      "inf": 1012,
      "##uth": 1013,
      "##oub": 1014,
      "##den": 1015,
      "##ents": 1016,
      "going": 1017,
      "tra": 1018,
      "against": 1019,
      "poss": 1020,
      "something": 1021,
      "done": 1022,
      "reg": 1023,
      "conf": 1024,
      "rel": 1025,
      "##aps": 1026,
      "bre": 1027,
      "kind": 1028,
      "##cy": 1029,
      "ev": 1030,
      "##ple": 1031,
      "hard": 1032,
      "vo": 1033,
      "took": 1034,
      "quite": 1035,
      "because": 1036,
      "el": 1037,
      "##orm": 1038,
      "ord": 1039,
      "follow": 1040,
      "lord": 1041,
      "gre": 1042,
      "yes": 1043,
      "##og": 1044,
      "asked": 1045,
      "return": 1046,
      "side": 1047,
      "##cept": 1048,
      "inde": 1049,
      "few": 1050,
      "boy": 1051,
      "##ret": 1052,
      "half": 1053,
      "read": 1054,
      "del": 1055,
      "mon": 1056,
      "##ual": 1057,
      "##ool": 1058,
      "cle": 1059,
      "heard": 1060,
      "##orr": 1061,
      "##ters": 1062,
      "##ched": 1063,
      "wind": 1064,
      "##irl": 1065,
      "min": 1066,
      "##most": 1067,
      "par": 1068,
      "hands": 1069,
      "##so": 1070,
      "knew": 1071,
      "##ib": 1072,
      "##ween": 1073,
      "sil": 1074,
      "##ined": 1075,
      "##lt": 1076,
      "rest": 1077,
      "hum": 1078,
      "between": 1079,
      "##iness": 1080,
      "among": 1081,
      "enough": 1082,
      "told": 1083,
      "##cess": 1084,
      "es": 1085,
      "id": 1086,
      "occ": 1087,
      "##ised": 1088,
      "##press": 1089,
      "years": 1090,
      "adv": 1091,
      "##ning": 1092,
      "course": 1093,
      "matter": 1094,
      "soon": 1095,
      "cur": 1096,
      "##ove": 1097,
      "##act": 1098,
      "##oke": 1099,
      "act": 1100,
      "mother": 1101,
      "round": 1102,
      "pur": 1103,
      "ref": 1104,
      "each": 1105,
      "##ps": 1106,
      "ste": 1107,
      "##ial": 1108,
      "##pped": 1109,
      "##uck": 1110,
      "seen": 1111,
      "beh": 1112,
      "girl": 1113,
      "##ress": 1114,
      "##end": 1115,
      "ed": 1116,
      "dre": 1117,
      "king": 1118,
      "home": 1119,
      "hour": 1120,
      "##ense": 1121,
      "woman": 1122,
      "##ush": 1123,
      "##wards": 1124,
      "poor": 1125,
      "##ular": 1126,
      "##aken": 1127,
      "also": 1128,
      "rep": 1129,
      "door": 1130,
      "hel": 1131,
      "##not": 1132,
      "##ier": 1133,
      "keep": 1134,
      "##ott": 1135,
      "##aut": 1136,
      "ter": 1137,
      "both": 1138,
      "tre": 1139,
      "##ale": 1140,
      "##ail": 1141,
      "##haps": 1142,
      "sure": 1143,
      "##und": 1144,
      "perhaps": 1145,
      "whole": 1146,
      "oh": 1147,
      "dra": 1148,
      "prin": 1149,
      "##ond": 1150,
      "dear": 1151,
      "name": 1152,
      "add": 1153,
      "having": 1154,
      "##ited": 1155,
      "##ows": 1156,
      "mean": 1157,
      "##xt": 1158,
      "whom": 1159,
      "pleas": 1160,
      "##ully": 1161,
      "har": 1162,
      "unt": 1163,
      "bar": 1164,
      "##ash": 1165,
      "almost": 1166,
      "however": 1167,
      "##its": 1168,
      "ins": 1169,
      "##selves": 1170,
      "gent": 1171,
      "##osed": 1172,
      "stand": 1173,
      "##ru": 1174,
      "does": 1175,
      "##ute": 1176,
      "country": 1177,
      "best": 1178,
      "##ern": 1179,
      "##iet": 1180,
      "##ained": 1181,
      "bla": 1182,
      "wo": 1183,
      "water": 1184,
      "indeed": 1185,
      "doub": 1186,
      "sk": 1187,
      "##eng": 1188,
      "sou": 1189,
      "land": 1190,
      "##sh": 1191,
      "##ason": 1192,
      "morn": 1193,
      "##ying": 1194,
      "present": 1195,
      "##ures": 1196,
      "fam": 1197,
      "less": 1198,
      "small": 1199,
      "art": 1200,
      "inc": 1201,
      "##ged": 1202,
      "myself": 1203,
      "##ks": 1204,
      "lar": 1205,
      "till": 1206,
      "called": 1207,
      "sent": 1208,
      "##ton": 1209,
      "stre": 1210,
      "fact": 1211,
      "##ene": 1212,
      "hear": 1213,
      "##ired": 1214,
      "rather": 1215,
      "turned": 1216,
      "##lish": 1217,
      "days": 1218,
      "quest": 1219,
      "##owed": 1220,
      "dark": 1221,
      "morning": 1222,
      "vis": 1223,
      "white": 1224,
      "gentle": 1225,
      "underst": 1226,
      "exc": 1227,
      "bu": 1228,
      "felt": 1229,
      "since": 1230,
      "law": 1231,
      "consid": 1232,
      "che": 1233,
      "open": 1234,
      "##aster": 1235,
      "care": 1236,
      "sim": 1237,
      "anything": 1238,
      "##ating": 1239,
      "18": 1240,
      "hon": 1241,
      "talk": 1242,
      "##oud": 1243,
      "next": 1244,
      "##rib": 1245,
      "##amp": 1246,
      "adm": 1247,
      "##ife": 1248,
      "met": 1249,
      "words": 1250,
      "hope": 1251,
      "point": 1252,
      "##vel": 1253,
      "gi": 1254,
      "began": 1255,
      "doubt": 1256,
      "##ably": 1257,
      "##ention": 1258,
      "##ung": 1259,
      "believe": 1260,
      "ext": 1261,
      "spir": 1262,
      "##ately": 1263,
      "stood": 1264,
      "beaut": 1265,
      "##oy": 1266,
      "##tered": 1267,
      "##als": 1268,
      "four": 1269,
      "sn": 1270,
      "gave": 1271,
      "##ief": 1272,
      "looking": 1273,
      "person": 1274,
      "voice": 1275,
      "##ates": 1276,
      "brought": 1277,
      "##aint": 1278,
      "red": 1279,
      "interest": 1280,
      "unc": 1281,
      "aw": 1282,
      "cond": 1283,
      "##ured": 1284,
      "black": 1285,
      "##lic": 1286,
      "fall": 1287,
      "hor": 1288,
      "differ": 1289,
      "contin": 1290,
      "herself": 1291,
      "sun": 1292,
      "cannot": 1293,
      "##ok": 1294,
      "power": 1295,
      "laugh": 1296,
      "sch": 1297,
      "sud": 1298,
      "compan": 1299,
      "##oney": 1300,
      "need": 1301,
      "forg": 1302,
      "speak": 1303,
      "true": 1304,
      "use": 1305,
      "sudden": 1306,
      "full": 1307,
      "gone": 1308,
      "taken": 1309,
      "ill": 1310,
      "book": 1311,
      "captain": 1312,
      "until": 1313,
      "mer": 1314,
      "suff": 1315,
      "##ins": 1316,
      "##ember": 1317,
      "bus": 1318,
      "answered": 1319,
      "chr": 1320,
      "wonder": 1321,
      "tog": 1322,
      "##med": 1323,
      "thus": 1324,
      "inv": 1325,
      "run": 1326,
      "together": 1327,
      "general": 1328,
      "##ird": 1329,
      "##ering": 1330,
      "##ches": 1331,
      "##ants": 1332,
      "##fully": 1333,
      "##ont": 1334,
      "##ude": 1335,
      "ide": 1336,
      "swe": 1337,
      "wish": 1338,
      "fire": 1339,
      "strong": 1340,
      "help": 1341,
      "##ceiv": 1342,
      "lay": 1343,
      "##tle": 1344,
      "sy": 1345,
      "##ren": 1346,
      "english": 1347,
      "sec": 1348,
      "##ments": 1349,
      "serv": 1350,
      "ra": 1351,
      "others": 1352,
      "air": 1353,
      "hold": 1354,
      "whose": 1355,
      "##ets": 1356,
      "foot": 1357,
      "##ances": 1358,
      "##ued": 1359,
      "dire": 1360,
      "sle": 1361,
      "death": 1362,
      "least": 1363,
      "themselves": 1364,
      "play": 1365,
      "pol": 1366,
      "rec": 1367,
      "nature": 1368,
      "##up": 1369,
      "det": 1370,
      "##ield": 1371,
      "wife": 1372,
      "money": 1373,
      "fin": 1374,
      "##odu": 1375,
      "sever": 1376,
      "sea": 1377,
      "bur": 1378,
      "along": 1379,
      "##hn": 1380,
      "##ities": 1381,
      "##fort": 1382,
      "whether": 1383,
      "##ten": 1384,
      "##iting": 1385,
      "obs": 1386,
      "##ii": 1387,
      "mil": 1388,
      "pat": 1389,
      "ent": 1390,
      "##iled": 1391,
      "##akes": 1392,
      "deep": 1393,
      "dec": 1394,
      "remember": 1395,
      "##ead": 1396,
      "case": 1397,
      "given": 1398,
      "pa": 1399,
      "##uring": 1400,
      "ir": 1401,
      "fur": 1402,
      "sort": 1403,
      "cir": 1404,
      "##ength": 1405,
      "tem": 1406,
      "opp": 1407,
      "##ceed": 1408,
      "christ": 1409,
      "##used": 1410,
      "real": 1411,
      "##osition": 1412,
      "##body": 1413,
      "##men": 1414,
      "passed": 1415,
      "##ater": 1416,
      "short": 1417,
      "fellow": 1418,
      "thou": 1419,
      "sing": 1420,
      "reason": 1421,
      "fair": 1422,
      "aff": 1423,
      "prom": 1424,
      "leave": 1425,
      "behind": 1426,
      "ask": 1427,
      "large": 1428,
      "brother": 1429,
      "question": 1430,
      "##aring": 1431,
      "john": 1432,
      "bes": 1433,
      "##ison": 1434,
      "feet": 1435,
      "##cious": 1436,
      "express": 1437,
      "mis": 1438,
      "##ert": 1439,
      "really": 1440,
      "##iew": 1441,
      "bed": 1442,
      "circ": 1443,
      "##ually": 1444,
      "cried": 1445,
      "understand": 1446,
      "##cond": 1447,
      "says": 1448,
      "##cover": 1449,
      "ele": 1450,
      "##unt": 1451,
      "##ned": 1452,
      "reach": 1453,
      "dead": 1454,
      "alone": 1455,
      "close": 1456,
      "mad": 1457,
      "##az": 1458,
      "##ages": 1459,
      "abs": 1460,
      "##ane": 1461,
      "##ne": 1462,
      "start": 1463,
      "pub": 1464,
      "town": 1465,
      "above": 1466,
      "charac": 1467,
      "##vers": 1468,
      "##oc": 1469,
      "num": 1470,
      "son": 1471,
      "letter": 1472,
      "ground": 1473,
      "##anger": 1474,
      "second": 1475,
      "wood": 1476,
      "##essed": 1477,
      "##ister": 1478,
      "chap": 1479,
      "prof": 1480,
      "often": 1481,
      "known": 1482,
      "##enty": 1483,
      "sound": 1484,
      "##ides": 1485,
      "expect": 1486,
      "fort": 1487,
      "##ught": 1488,
      "hund": 1489,
      "##plied": 1490,
      "state": 1491,
      "hundred": 1492,
      "sign": 1493,
      "##laim": 1494,
      "##ready": 1495,
      "disc": 1496,
      "##ific": 1497,
      "ge": 1498,
      "lad": 1499,
      "##esh": 1500,
      "##ley": 1501,
      "eas": 1502,
      "pap": 1503,
      "dev": 1504,
      "ten": 1505,
      "show": 1506,
      "within": 1507,
      "already": 1508,
      "manner": 1509,
      "coming": 1510,
      "mod": 1511,
      "tri": 1512,
      "##ffect": 1513,
      "truth": 1514,
      "fear": 1515,
      "expl": 1516,
      "suppose": 1517,
      "##ided": 1518,
      "obser": 1519,
      "ru": 1520,
      "friends": 1521,
      "dri": 1522,
      "dep": 1523,
      "spirit": 1524,
      "##mm": 1525,
      "towards": 1526,
      "##mb": 1527,
      "##old": 1528,
      "subject": 1529,
      "##ines": 1530,
      "six": 1531,
      "wild": 1532,
      "jud": 1533,
      "##gn": 1534,
      "times": 1535,
      "hur": 1536,
      "meet": 1537,
      "necess": 1538,
      "five": 1539,
      "wall": 1540,
      "##ching": 1541,
      "clear": 1542,
      "business": 1543,
      "##cted": 1544,
      "wal": 1545,
      "ship": 1546,
      "##ape": 1547,
      "walk": 1548,
      "year": 1549,
      "itself": 1550,
      "var": 1551,
      "lear": 1552,
      "##ek": 1553,
      "##li": 1554,
      "replied": 1555,
      "lea": 1556,
      "const": 1557,
      "##ceived": 1558,
      "therefore": 1559,
      "effect": 1560,
      "else": 1561,
      "mid": 1562,
      "low": 1563,
      "pain": 1564,
      "##ient": 1565,
      "natur": 1566,
      "order": 1567,
      "##ench": 1568,
      "consider": 1569,
      "master": 1570,
      "bra": 1571,
      "##ames": 1572,
      "##ution": 1573,
      "du": 1574,
      "##eth": 1575,
      "##illed": 1576,
      "##br": 1577,
      "##oken": 1578,
      "##imes": 1579,
      "list": 1580,
      "children": 1581,
      "##son": 1582,
      "pret": 1583,
      "fell": 1584,
      "bad": 1585,
      "means": 1586,
      "lost": 1587,
      "fan": 1588,
      "##ives": 1589,
      "dem": 1590,
      "##vern": 1591,
      "bring": 1592,
      "either": 1593,
      "cast": 1594,
      "##ross": 1595,
      "##ative": 1596,
      "##ger": 1597,
      "##ility": 1598,
      "mere": 1599,
      "human": 1600,
      "thy": 1601,
      "step": 1602,
      "respect": 1603,
      "##iful": 1604,
      "horse": 1605,
      "soul": 1606,
      "er": 1607,
      "strange": 1608,
      "##ote": 1609,
      "live": 1610,
      "port": 1611,
      "past": 1612,
      "rich": 1613,
      "##here": 1614,
      "##rew": 1615,
      "used": 1616,
      "object": 1617,
      "returned": 1618,
      "rose": 1619,
      "##ism": 1620,
      "chur": 1621,
      "quiet": 1622,
      "earth": 1623,
      "##ident": 1624,
      "character": 1625,
      "occas": 1626,
      "est": 1627,
      "squ": 1628,
      "except": 1629,
      "##ience": 1630,
      "cat": 1631,
      "##lly": 1632,
      "cal": 1633,
      "eye": 1634,
      "##arr": 1635,
      "making": 1636,
      "body": 1637,
      "sense": 1638,
      "glad": 1639,
      "exp": 1640,
      "appear": 1641,
      "pet": 1642,
      "women": 1643,
      "england": 1644,
      "boat": 1645,
      "several": 1646,
      "won": 1647,
      "sight": 1648,
      "common": 1649,
      "mag": 1650,
      "def": 1651,
      "arr": 1652,
      "table": 1653,
      "family": 1654,
      "during": 1655,
      "spr": 1656,
      "gold": 1657,
      "answer": 1658,
      "kept": 1659,
      "prob": 1660,
      "diffic": 1661,
      "##cul": 1662,
      "dut": 1663,
      "cut": 1664,
      "##ards": 1665,
      "##iously": 1666,
      "held": 1667,
      "possible": 1668,
      "across": 1669,
      "##be": 1670,
      "mist": 1671,
      "##iter": 1672,
      "##itted": 1673,
      "river": 1674,
      "soci": 1675,
      "sit": 1676,
      "##use": 1677,
      "offic": 1678,
      "##empt": 1679,
      "lead": 1680,
      "##cing": 1681,
      "evening": 1682,
      "##ug": 1683,
      "sus": 1684,
      "chapter": 1685,
      "ut": 1686,
      "##ys": 1687,
      "partic": 1688,
      "road": 1689,
      "blood": 1690,
      "perfect": 1691,
      "##eric": 1692,
      "ah": 1693,
      "quick": 1694,
      "didn": 1695,
      "thous": 1696,
      "mur": 1697,
      "##airs": 1698,
      "thousand": 1699,
      "hill": 1700,
      "hea": 1701,
      "cra": 1702,
      "##opped": 1703,
      "tou": 1704,
      "sometimes": 1705,
      "conc": 1706,
      "coll": 1707,
      "view": 1708,
      "suddenly": 1709,
      "doct": 1710,
      "ca": 1711,
      "##ouble": 1712,
      "bit": 1713,
      "deal": 1714,
      "story": 1715,
      "fig": 1716,
      "##owing": 1717,
      "free": 1718,
      "stra": 1719,
      "##ony": 1720,
      "##ham": 1721,
      "cent": 1722,
      "cross": 1723,
      "##idence": 1724,
      "seems": 1725,
      "decl": 1726,
      "ought": 1727,
      "prev": 1728,
      "become": 1729,
      "hus": 1730,
      "big": 1731,
      "trans": 1732,
      "certainly": 1733,
      "slow": 1734,
      "rock": 1735,
      "##ety": 1736,
      "arri": 1737,
      "##ney": 1738,
      "church": 1739,
      "account": 1740,
      "##ts": 1741,
      "##ny": 1742,
      "draw": 1743,
      "##oon": 1744,
      "able": 1745,
      "begin": 1746,
      "prov": 1747,
      "##ising": 1748,
      "surpr": 1749,
      "##oura": 1750,
      "##aught": 1751,
      "##itting": 1752,
      "auth": 1753,
      "govern": 1754,
      "cor": 1755,
      "enter": 1756,
      "proper": 1757,
      "##rie": 1758,
      "sleep": 1759,
      "##ized": 1760,
      "##ury": 1761,
      "##by": 1762,
      "gentleman": 1763,
      "produ": 1764,
      "daugh": 1765,
      "succ": 1766,
      "##wh": 1767,
      "lu": 1768,
      "##nded": 1769,
      "break": 1770,
      "quar": 1771,
      "equ": 1772,
      "##ians": 1773,
      "imag": 1774,
      "cold": 1775,
      "ready": 1776,
      "idea": 1777,
      "party": 1778,
      "phil": 1779,
      "##ms": 1780,
      "ann": 1781,
      "public": 1782,
      "self": 1783,
      "command": 1784,
      "##orrow": 1785,
      "##een": 1786,
      "##ah": 1787,
      "mus": 1788,
      "vi": 1789,
      "##ndon": 1790,
      "div": 1791,
      "scar": 1792,
      "arms": 1793,
      "heaven": 1794,
      "became": 1795,
      "##me": 1796,
      "fav": 1797,
      "different": 1798,
      "##band": 1799,
      "everything": 1800,
      "##ots": 1801,
      "din": 1802,
      "worth": 1803,
      "##ingly": 1804,
      "##iar": 1805,
      "around": 1806,
      "chief": 1807,
      "corn": 1808,
      "pretty": 1809,
      "beautiful": 1810,
      "feeling": 1811,
      "occasion": 1812,
      "##ination": 1813,
      "##gr": 1814,
      "##ountain": 1815,
      "##antly": 1816,
      "##ship": 1817,
      "pay": 1818,
      "followed": 1819,
      "twenty": 1820,
      "americ": 1821,
      "val": 1822,
      "##anged": 1823,
      "stri": 1824,
      "rid": 1825,
      "secret": 1826,
      "ran": 1827,
      "comple": 1828,
      "pen": 1829,
      "spoke": 1830,
      "heav": 1831,
      "stud": 1832,
      "##isf": 1833,
      "##ented": 1834,
      "maj": 1835,
      "hist": 1836,
      "month": 1837,
      "exam": 1838,
      "plain": 1839,
      "esc": 1840,
      "husband": 1841,
      "##utes": 1842,
      "none": 1843,
      "french": 1844,
      "exper": 1845,
      "purp": 1846,
      "line": 1847,
      "pal": 1848,
      "discover": 1849,
      "appro": 1850,
      "hot": 1851,
      "leg": 1852,
      "##une": 1853,
      "success": 1854,
      "fight": 1855,
      "##ones": 1856,
      "disp": 1857,
      "vill": 1858,
      "forward": 1859,
      "london": 1860,
      "conv": 1861,
      "hast": 1862,
      "mem": 1863,
      "##inct": 1864,
      "repr": 1865,
      "##outh": 1866,
      "stay": 1867,
      "appeared": 1868,
      "bey": 1869,
      "##ased": 1870,
      "##uss": 1871,
      "##erm": 1872,
      "##orge": 1873,
      "##umb": 1874,
      "city": 1875,
      "grand": 1876,
      "fine": 1877,
      "win": 1878,
      "dream": 1879,
      "vol": 1880,
      "green": 1881,
      "faith": 1882,
      "sold": 1883,
      "##alth": 1884,
      "ce": 1885,
      "beyond": 1886,
      "taking": 1887,
      "##ement": 1888,
      "fre": 1889,
      "##dle": 1890,
      "summ": 1891,
      "continued": 1892,
      "##tern": 1893,
      "move": 1894,
      "acqu": 1895,
      "##ices": 1896,
      "mor": 1897,
      "school": 1898,
      "bene": 1899,
      "remain": 1900,
      "rev": 1901,
      "thee": 1902,
      "##iment": 1903,
      "##lled": 1904,
      "doing": 1905,
      "reco": 1906,
      "fore": 1907,
      "import": 1908,
      "court": 1909,
      "requ": 1910,
      "prot": 1911,
      "prep": 1912,
      "creat": 1913,
      "tom": 1914,
      "hair": 1915,
      "happy": 1916,
      "##ime": 1917,
      "front": 1918,
      "##ior": 1919,
      "##ested": 1920,
      "##itude": 1921,
      "da": 1922,
      "pie": 1923,
      "exist": 1924,
      "##ality": 1925,
      "added": 1926,
      "##bed": 1927,
      "send": 1928,
      "anim": 1929,
      "mine": 1930,
      "author": 1931,
      "bear": 1932,
      "further": 1933,
      "##der": 1934,
      "##cri": 1935,
      "natural": 1936,
      "bright": 1937,
      "satisf": 1938,
      "pray": 1939,
      "danger": 1940,
      "sal": 1941,
      "circum": 1942,
      "particular": 1943,
      "number": 1944,
      "regard": 1945,
      "street": 1946,
      "##ope": 1947,
      "daughter": 1948,
      "carry": 1949,
      "opin": 1950,
      "pict": 1951,
      "soft": 1952,
      "##uct": 1953,
      "##well": 1954,
      "late": 1955,
      "##ize": 1956,
      "led": 1957,
      "dest": 1958,
      "##side": 1959,
      "bat": 1960,
      "change": 1961,
      "chance": 1962,
      "##app": 1963,
      "boys": 1964,
      "##inted": 1965,
      "##oof": 1966,
      "mat": 1967,
      "comes": 1968,
      "breat": 1969,
      "enem": 1970,
      "hours": 1971,
      "mountain": 1972,
      "company": 1973,
      "trust": 1974,
      "yourself": 1975,
      "super": 1976,
      "##ences": 1977,
      "##riage": 1978,
      "ver": 1979,
      "visit": 1980,
      "##ump": 1981,
      "17": 1982,
      "ang": 1983,
      "bill": 1984,
      "direct": 1985,
      "fif": 1986,
      "carried": 1987,
      "##gy": 1988,
      "##anced": 1989,
      "gard": 1990,
      "##ledge": 1991,
      "comfort": 1992,
      "sad": 1993,
      "##pend": 1994,
      "cause": 1995,
      "##00": 1996,
      "burn": 1997,
      "sweet": 1998,
      "wanted": 1999,
      "try": 2000,
      "rom": 2001,
      "neither": 2002,
      "delight": 2003,
      "news": 2004,
      "shad": 2005,
      "dog": 2006,
      "priv": 2007,
      "cry": 2008,
      "##bert": 2009,
      "##where": 2010,
      "##ric": 2011,
      "anx": 2012,
      "##day": 2013,
      "nearly": 2014,
      "hat": 2015,
      "sail": 2016,
      "accord": 2017,
      "##ession": 2018,
      "flo": 2019,
      "##ler": 2020,
      "wrong": 2021,
      "window": 2022,
      "##owers": 2023,
      "saying": 2024,
      "sol": 2025,
      "##medi": 2026,
      "george": 2027,
      "pract": 2028,
      "received": 2029,
      "early": 2030,
      "hall": 2031,
      "island": 2032,
      "later": 2033,
      "cre": 2034,
      "##raid": 2035,
      "bird": 2036,
      "alth": 2037,
      "lab": 2038,
      "longer": 2039,
      "eff": 2040,
      "post": 2041,
      "age": 2042,
      "prince": 2043,
      "circumst": 2044,
      "hardly": 2045,
      "position": 2046,
      "although": 2047,
      "whis": 2048,
      "##cies": 2049,
      "reached": 2050,
      "sister": 2051,
      "uncle": 2052,
      "force": 2053,
      "remark": 2054,
      "princi": 2055,
      "##ously": 2056,
      "##inary": 2057,
      "##ushed": 2058,
      "attempt": 2059,
      "cover": 2060,
      "silence": 2061,
      "afraid": 2062,
      "##ipp": 2063,
      "sugg": 2064,
      "fool": 2065,
      "##otion": 2066,
      "living": 2067,
      "contr": 2068,
      "##ues": 2069,
      "tried": 2070,
      "##irt": 2071,
      "lie": 2072,
      "##laimed": 2073,
      "west": 2074,
      "##bit": 2075,
      "blue": 2076,
      "##itten": 2077,
      "eight": 2078,
      "whate": 2079,
      "trouble": 2080,
      "med": 2081,
      "inqu": 2082,
      "necessary": 2083,
      "##aged": 2084,
      "camp": 2085,
      "doctor": 2086,
      "alt": 2087,
      "##aw": 2088,
      "##uff": 2089,
      "slight": 2090,
      "av": 2091,
      "mouth": 2092,
      "peace": 2093,
      "minutes": 2094,
      "##olog": 2095,
      "north": 2096,
      "##ified": 2097,
      "##ster": 2098,
      "grace": 2099,
      "##gar": 2100,
      "miles": 2101,
      "probably": 2102,
      "whatever": 2103,
      "opened": 2104,
      "tal": 2105,
      "bound": 2106,
      "##ugg": 2107,
      "fast": 2108,
      "main": 2109,
      "##ics": 2110,
      "##iam": 2111,
      "##usion": 2112,
      "length": 2113,
      "##ls": 2114,
      "den": 2115,
      "sla": 2116,
      "walked": 2117,
      "colour": 2118,
      "immedi": 2119,
      "##ament": 2120,
      "sens": 2121,
      "mark": 2122,
      "jack": 2123,
      "accom": 2124,
      "desp": 2125,
      "meant": 2126,
      "##ening": 2127,
      "purpose": 2128,
      "class": 2129,
      "scarce": 2130,
      "##ilt": 2131,
      "forth": 2132,
      "##ob": 2133,
      "cloth": 2134,
      "trees": 2135,
      "thinking": 2136,
      "poet": 2137,
      "inn": 2138,
      "treat": 2139,
      "##ended": 2140,
      "field": 2141,
      "pleasure": 2142,
      "gall": 2143,
      "smile": 2144,
      "breath": 2145,
      "ago": 2146,
      "entered": 2147,
      "##ius": 2148,
      "##itions": 2149,
      "shar": 2150,
      "repe": 2151,
      "distance": 2152,
      "##lu": 2153,
      "youth": 2154,
      "##sequ": 2155,
      "chair": 2156,
      "##ists": 2157,
      "slowly": 2158,
      "lim": 2159,
      "jour": 2160,
      "##itch": 2161,
      "##ift": 2162,
      "standing": 2163,
      "ger": 2164,
      "##iest": 2165,
      "exact": 2166,
      "entire": 2167,
      "save": 2168,
      "emb": 2169,
      "mary": 2170,
      "laid": 2171,
      "brown": 2172,
      "strength": 2173,
      "getting": 2174,
      "##eless": 2175,
      "crow": 2176,
      "south": 2177,
      "broken": 2178,
      "proceed": 2179,
      "##cient": 2180,
      "bank": 2181,
      "##ald": 2182,
      "##ceive": 2183,
      "gun": 2184,
      "##els": 2185,
      "dick": 2186,
      "die": 2187,
      "duty": 2188,
      "watch": 2189,
      "##let": 2190,
      "top": 2191,
      "knowledge": 2192,
      "cas": 2193,
      "admir": 2194,
      "week": 2195,
      "##ically": 2196,
      "thank": 2197,
      "heavy": 2198,
      "##ounded": 2199,
      "##ats": 2200,
      "##hood": 2201,
      "##tained": 2202,
      "struck": 2203,
      "##ored": 2204,
      "neigh": 2205,
      "##idge": 2206,
      "tree": 2207,
      "convers": 2208,
      "##ustom": 2209,
      "##onel": 2210,
      "##iling": 2211,
      "##crib": 2212,
      "build": 2213,
      "coun": 2214,
      "lived": 2215,
      "enc": 2216,
      "lang": 2217,
      "##dd": 2218,
      "prison": 2219,
      "dress": 2220,
      "arch": 2221,
      "bell": 2222,
      "ant": 2223,
      "##amed": 2224,
      "##ply": 2225,
      "sav": 2226,
      "bott": 2227,
      "born": 2228,
      "mill": 2229,
      "hop": 2230,
      "happened": 2231,
      "##rible": 2232,
      "##val": 2233,
      "##eness": 2234,
      "hung": 2235,
      "##aded": 2236,
      "##ager": 2237,
      "intell": 2238,
      "dinner": 2239,
      "knows": 2240,
      "und": 2241,
      "thir": 2242,
      "note": 2243,
      "incl": 2244,
      "neighb": 2245,
      "glass": 2246,
      "##ume": 2247,
      "written": 2248,
      "resol": 2249,
      "opinion": 2250,
      "##icked": 2251,
      "##ee": 2252,
      "##amb": 2253,
      "##ging": 2254,
      "##oom": 2255,
      "ast": 2256,
      "board": 2257,
      "##ries": 2258,
      "##cially": 2259,
      "service": 2260,
      "lips": 2261,
      "sho": 2262,
      "##oose": 2263,
      "rap": 2264,
      "instead": 2265,
      "approach": 2266,
      "##que": 2267,
      "history": 2268,
      "rob": 2269,
      "easy": 2270,
      "wait": 2271,
      "safe": 2272,
      "##arch": 2273,
      "##ges": 2274,
      "appar": 2275,
      "makes": 2276,
      "imposs": 2277,
      "imm": 2278,
      "hors": 2279,
      "joy": 2280,
      "paper": 2281,
      "##ixed": 2282,
      "dom": 2283,
      "brit": 2284,
      "##rupt": 2285,
      "queen": 2286,
      "##ming": 2287,
      "sitting": 2288,
      "weak": 2289,
      "je": 2290,
      "narr": 2291,
      "##igin": 2292,
      "relig": 2293,
      "accept": 2294,
      "deg": 2295,
      "mention": 2296,
      "stone": 2297,
      "remained": 2298,
      "mess": 2299,
      "grave": 2300,
      "following": 2301,
      "seeing": 2302,
      "frank": 2303,
      "besides": 2304,
      "mass": 2305,
      "polit": 2306,
      "inform": 2307,
      "##iving": 2308,
      "hen": 2309,
      "honour": 2310,
      "difficult": 2311,
      "government": 2312,
      "letters": 2313,
      "exclaimed": 2314,
      "fit": 2315,
      "straight": 2316,
      "stopped": 2317,
      "sam": 2318,
      "army": 2319,
      "write": 2320,
      "beauty": 2321,
      "##ency": 2322,
      "van": 2323,
      "##ively": 2324,
      "pop": 2325,
      "ty": 2326,
      "died": 2327,
      "determ": 2328,
      "concl": 2329,
      "##yal": 2330,
      "drew": 2331,
      "cab": 2332,
      "##asp": 2333,
      "fresh": 2334,
      "##form": 2335,
      "origin": 2336,
      "figure": 2337,
      "horses": 2338,
      "garden": 2339,
      "fle": 2340,
      "enj": 2341,
      "path": 2342,
      "colonel": 2343,
      "##ounds": 2344,
      "gaz": 2345,
      "bro": 2346,
      "##wise": 2347,
      "##mp": 2348,
      "ii": 2349,
      "below": 2350,
      "thoughts": 2351,
      "##ustr": 2352,
      "##ils": 2353,
      "##ina": 2354,
      "##ann": 2355,
      "##isted": 2356,
      "##ork": 2357,
      "aunt": 2358,
      "result": 2359,
      "crowd": 2360,
      "##fer": 2361,
      "impress": 2362,
      "warm": 2363,
      "espe": 2364,
      "please": 2365,
      "silent": 2366,
      "drink": 2367,
      "##par": 2368,
      "influ": 2369,
      "##king": 2370,
      "##erv": 2371,
      "vict": 2372,
      "##iers": 2373,
      "fut": 2374,
      "impossible": 2375,
      "suffic": 2376,
      "##uc": 2377,
      "extra": 2378,
      "##ze": 2379,
      "##ature": 2380,
      "latter": 2381,
      "caught": 2382,
      "##ma": 2383,
      "##ron": 2384,
      "##what": 2385,
      "tone": 2386,
      "office": 2387,
      "presently": 2388,
      "shout": 2389,
      "fing": 2390,
      "sor": 2391,
      "compl": 2392,
      "intr": 2393,
      "laughed": 2394,
      "##ining": 2395,
      "##uit": 2396,
      "occup": 2397,
      "circumstances": 2398,
      "fash": 2399,
      "wit": 2400,
      "somewhat": 2401,
      "usual": 2402,
      "impr": 2403,
      "march": 2404,
      "eat": 2405,
      "hun": 2406,
      "thick": 2407,
      "guard": 2408,
      "loved": 2409,
      "married": 2410,
      "mal": 2411,
      "langu": 2412,
      "##ection": 2413,
      "obl": 2414,
      "##reme": 2415,
      "address": 2416,
      "appearance": 2417,
      "##fection": 2418,
      "desire": 2419,
      "attention": 2420,
      "single": 2421,
      "neg": 2422,
      "forget": 2423,
      "cloud": 2424,
      "society": 2425,
      "nation": 2426,
      "former": 2427,
      "wide": 2428,
      "une": 2429,
      "whisper": 2430,
      "pull": 2431,
      "plan": 2432,
      "third": 2433,
      "##read": 2434,
      "grow": 2435,
      "##urs": 2436,
      "peter": 2437,
      "afterwards": 2438,
      "gather": 2439,
      "enemy": 2440,
      "##ories": 2441,
      "greater": 2442,
      "##ask": 2443,
      "attack": 2444,
      "complete": 2445,
      "##dom": 2446,
      "toward": 2447,
      "presence": 2448,
      "moved": 2449,
      "##ech": 2450,
      "dan": 2451,
      "##cience": 2452,
      "belong": 2453,
      "##nding": 2454,
      "beat": 2455,
      "fal": 2456,
      "fat": 2457,
      "demand": 2458,
      "goes": 2459,
      "##ises": 2460,
      "scene": 2461,
      "spot": 2462,
      "purs": 2463,
      "expected": 2464,
      "##cial": 2465,
      "##oop": 2466,
      "train": 2467,
      "months": 2468,
      "conn": 2469,
      "books": 2470,
      "ladies": 2471,
      "showed": 2472,
      "##eks": 2473,
      "altog": 2474,
      "grew": 2475,
      "##unk": 2476,
      "waiting": 2477,
      "##de": 2478,
      "placed": 2479,
      "altogether": 2480,
      "viol": 2481,
      "##mer": 2482,
      "yell": 2483,
      "civ": 2484,
      "broke": 2485,
      "stop": 2486,
      "bab": 2487,
      "noble": 2488,
      "consequ": 2489,
      "fancy": 2490,
      "broad": 2491,
      "##ivid": 2492,
      "liter": 2493,
      "merely": 2494,
      "especially": 2495,
      "pleasant": 2496,
      "unless": 2497,
      "##ected": 2498,
      "earn": 2499,
      "depart": 2500,
      "expression": 2501,
      "repres": 2502,
      "places": 2503,
      "isn": 2504,
      "ven": 2505,
      "##cell": 2506,
      "##olute": 2507,
      "##orth": 2508,
      "commun": 2509,
      "##he": 2510,
      "wouldn": 2511,
      "fashion": 2512,
      "recogn": 2513,
      "speaking": 2514,
      "pros": 2515,
      "learn": 2516,
      "##io": 2517,
      "ball": 2518,
      "clock": 2519,
      "##mn": 2520,
      "hy": 2521,
      "snow": 2522,
      "started": 2523,
      "mel": 2524,
      "hu": 2525,
      "honest": 2526,
      "passion": 2527,
      "##uel": 2528,
      "aftern": 2529,
      "##pic": 2530,
      "##ourage": 2531,
      "marry": 2532,
      "##pping": 2533,
      "sand": 2534,
      "##aped": 2535,
      "##zz": 2536,
      "##rief": 2537,
      "battle": 2538,
      "shot": 2539,
      "immediately": 2540,
      "likely": 2541,
      "cou": 2542,
      "couldn": 2543,
      "effort": 2544,
      "talking": 2545,
      "beside": 2546,
      "sole": 2547,
      "turning": 2548,
      "conversation": 2549,
      "simple": 2550,
      "pock": 2551,
      "incre": 2552,
      "arrived": 2553,
      "shore": 2554,
      "favour": 2555,
      "##lling": 2556,
      "fly": 2557,
      "utter": 2558,
      "leaving": 2559,
      "##ibly": 2560,
      "##acy": 2561,
      "spring": 2562,
      "dim": 2563,
      "beginning": 2564,
      "refle": 2565,
      "village": 2566,
      "et": 2567,
      "afternoon": 2568,
      "outside": 2569,
      "##iety": 2570,
      "future": 2571,
      "##itation": 2572,
      "journey": 2573,
      "##iced": 2574,
      "##bs": 2575,
      "occur": 2576,
      "strugg": 2577,
      "##gress": 2578,
      "meas": 2579,
      "observed": 2580,
      "sick": 2581,
      "absolute": 2582,
      "stream": 2583,
      "species": 2584,
      "famil": 2585,
      "morrow": 2586,
      "fun": 2587,
      "maid": 2588,
      "ign": 2589,
      "##light": 2590,
      "##ital": 2591,
      "giving": 2592,
      "lift": 2593,
      "trave": 2594,
      "filled": 2595,
      "enjoy": 2596,
      "exh": 2597,
      "worse": 2598,
      "surprise": 2599,
      "##dy": 2600,
      "corr": 2601,
      "arg": 2602,
      "##cked": 2603,
      "##anch": 2604,
      "##gan": 2605,
      "##under": 2606,
      "dread": 2607,
      "##osing": 2608,
      "##ouses": 2609,
      "peri": 2610,
      "minute": 2611,
      "moon": 2612,
      "raised": 2613,
      "middle": 2614,
      "girls": 2615,
      "rate": 2616,
      "empl": 2617,
      "##oved": 2618,
      "##uous": 2619,
      "forest": 2620,
      "teach": 2621,
      "kiss": 2622,
      "star": 2623,
      "box": 2624,
      "##mpath": 2625,
      "beneath": 2626,
      "##teen": 2627,
      "generally": 2628,
      "sky": 2629,
      "##erable": 2630,
      "##cript": 2631,
      "##orted": 2632,
      "##mon": 2633,
      "##yn": 2634,
      "corner": 2635,
      "piece": 2636,
      "fish": 2637,
      "hes": 2638,
      "shut": 2639,
      "american": 2640,
      "##cil": 2641,
      "pecul": 2642,
      "scarcely": 2643,
      "temper": 2644,
      "dry": 2645,
      "liber": 2646,
      "bow": 2647,
      "##res": 2648,
      "condition": 2649,
      "christian": 2650,
      "mir": 2651,
      "exactly": 2652,
      "conscious": 2653,
      "##str": 2654,
      "major": 2655,
      "sorry": 2656,
      "hid": 2657,
      "entirely": 2658,
      "hero": 2659,
      "mut": 2660,
      "gentlemen": 2661,
      "sympath": 2662,
      "##atic": 2663,
      "evil": 2664,
      "##uly": 2665,
      "peculiar": 2666,
      "rain": 2667,
      "##ford": 2668,
      "eur": 2669,
      "period": 2670,
      "##ples": 2671,
      "tears": 2672,
      "seven": 2673,
      "perfectly": 2674,
      "advant": 2675,
      "##ec": 2676,
      "lives": 2677,
      "mort": 2678,
      "10": 2679,
      "shook": 2680,
      "employ": 2681,
      "civil": 2682,
      "##oe": 2683,
      "##ivers": 2684,
      "##ision": 2685,
      "tur": 2686,
      "sett": 2687,
      "tall": 2688,
      "duke": 2689,
      "action": 2690,
      "direction": 2691,
      "persons": 2692,
      "##come": 2693,
      "looks": 2694,
      "various": 2695,
      "##zen": 2696,
      "private": 2697,
      "16": 2698,
      "escape": 2699,
      "tender": 2700,
      "##ract": 2701,
      "ves": 2702,
      "##cks": 2703,
      "trying": 2704,
      "ur": 2705,
      "lean": 2706,
      "cler": 2707,
      "loud": 2708,
      "speech": 2709,
      "xx": 2710,
      "sword": 2711,
      "wise": 2712,
      "pale": 2713,
      "concern": 2714,
      "tast": 2715,
      "##ror": 2716,
      "wand": 2717,
      "ben": 2718,
      "eager": 2719,
      "pun": 2720,
      "oblig": 2721,
      "hol": 2722,
      "companion": 2723,
      "james": 2724,
      "declared": 2725,
      "suc": 2726,
      "lines": 2727,
      "instant": 2728,
      "succeed": 2729,
      "mart": 2730,
      "marriage": 2731,
      "europe": 2732,
      "easily": 2733,
      "quickly": 2734,
      "shr": 2735,
      "##ument": 2736,
      "ere": 2737,
      "touch": 2738,
      "##itary": 2739,
      "##uted": 2740,
      "##oses": 2741,
      "learned": 2742,
      "wrote": 2743,
      "##ulty": 2744,
      "##otten": 2745,
      "kill": 2746,
      "excell": 2747,
      "capt": 2748,
      "ow": 2749,
      "##fast": 2750,
      "disg": 2751,
      "judge": 2752,
      "ay": 2753,
      "##ission": 2754,
      "clim": 2755,
      "terrible": 2756,
      "castle": 2757,
      "cost": 2758,
      "france": 2759,
      "fright": 2760,
      "paid": 2761,
      "##uded": 2762,
      "summer": 2763,
      "silver": 2764,
      "describ": 2765,
      "supposed": 2766,
      "rapid": 2767,
      "charge": 2768,
      "bitter": 2769,
      "floor": 2770,
      "affect": 2771,
      "delic": 2772,
      "situ": 2773,
      "##eds": 2774,
      "##orough": 2775,
      "faint": 2776,
      "vall": 2777,
      "spoken": 2778,
      "parts": 2779,
      "##jo": 2780,
      "gate": 2781,
      "running": 2782,
      "houses": 2783,
      "sake": 2784,
      "difficulty": 2785,
      "##arked": 2786,
      "cous": 2787,
      "east": 2788,
      "##ring": 2789,
      "15": 2790,
      "simply": 2791,
      "##rel": 2792,
      "earnest": 2793,
      "pi": 2794,
      "##itable": 2795,
      "##anc": 2796,
      "changed": 2797,
      "vent": 2798,
      "perm": 2799,
      "dar": 2800,
      "opport": 2801,
      "reply": 2802,
      "influence": 2803,
      "important": 2804,
      "food": 2805,
      "understood": 2806,
      "lower": 2807,
      "shadow": 2808,
      "experience": 2809,
      "##ax": 2810,
      "press": 2811,
      "vain": 2812,
      "dam": 2813,
      "phys": 2814,
      "illustr": 2815,
      "yours": 2816,
      "drawing": 2817,
      "cheer": 2818,
      "firm": 2819,
      "ris": 2820,
      "deser": 2821,
      "harry": 2822,
      "fer": 2823,
      "leaves": 2824,
      "nobody": 2825,
      "surely": 2826,
      "habit": 2827,
      "pleased": 2828,
      "health": 2829,
      "matters": 2830,
      "hang": 2831,
      "apart": 2832,
      "virt": 2833,
      "##elve": 2834,
      "##set": 2835,
      "fallen": 2836,
      "distinct": 2837,
      "##pan": 2838,
      "song": 2839,
      "##ett": 2840,
      "iron": 2841,
      "##ains": 2842,
      "vessel": 2843,
      "proud": 2844,
      "wished": 2845,
      "##osp": 2846,
      "##lished": 2847,
      "feelings": 2848,
      "mount": 2849,
      "neck": 2850,
      "gar": 2851,
      "curious": 2852,
      "german": 2853,
      "according": 2854,
      "12": 2855,
      "picture": 2856,
      "extreme": 2857,
      "valley": 2858,
      "##oph": 2859,
      "##ole": 2860,
      "repeated": 2861,
      "wid": 2862,
      "stat": 2863,
      "##esty": 2864,
      "earl": 2865,
      "opportun": 2866,
      "fla": 2867,
      "##aled": 2868,
      "smiled": 2869,
      "##ners": 2870,
      "separ": 2871,
      "killed": 2872,
      "furn": 2873,
      "##ora": 2874,
      "gh": 2875,
      "##iction": 2876,
      "calm": 2877,
      "##oned": 2878,
      "##ashed": 2879,
      "fol": 2880,
      "##action": 2881,
      "ess": 2882,
      "sharp": 2883,
      "considered": 2884,
      "ine": 2885,
      "inj": 2886,
      "##umed": 2887,
      "notice": 2888,
      "grass": 2889,
      "##raph": 2890,
      "jim": 2891,
      "attend": 2892,
      "wonderful": 2893,
      "knight": 2894,
      "flowers": 2895,
      "wel": 2896,
      "crit": 2897,
      "whe": 2898,
      "ancient": 2899,
      "tow": 2900,
      "advent": 2901,
      "winter": 2902,
      "##ays": 2903,
      "covered": 2904,
      "sigh": 2905,
      "hath": 2906,
      "##kes": 2907,
      "william": 2908,
      "conduct": 2909,
      "works": 2910,
      "##inite": 2911,
      "##gged": 2912,
      "walls": 2913,
      "resp": 2914,
      "royal": 2915,
      "becom": 2916,
      "fixed": 2917,
      "music": 2918,
      "anxious": 2919,
      "rail": 2920,
      "darkness": 2921,
      "lying": 2922,
      "swift": 2923,
      "believed": 2924,
      "revol": 2925,
      "allow": 2926,
      "##ipped": 2927,
      "ears": 2928,
      "writing": 2929,
      "host": 2930,
      "storm": 2931,
      "states": 2932,
      "fifty": 2933,
      "difference": 2934,
      "magn": 2935,
      "allowed": 2936,
      "steps": 2937,
      "##lend": 2938,
      "lou": 2939,
      "burst": 2940,
      "stranger": 2941,
      "listen": 2942,
      "justice": 2943,
      "ain": 2944,
      "introdu": 2945,
      "birds": 2946,
      "crown": 2947,
      "##retched": 2948,
      "priest": 2949,
      "rough": 2950,
      "meth": 2951,
      "tong": 2952,
      "estab": 2953,
      "thirty": 2954,
      "trad": 2955,
      "language": 2956,
      "ourselves": 2957,
      "dare": 2958,
      "fortune": 2959,
      "ring": 2960,
      "passing": 2961,
      "passage": 2962,
      "false": 2963,
      "defe": 2964,
      "wis": 2965,
      "seat": 2966,
      "race": 2967,
      "harm": 2968,
      "##reh": 2969,
      "modern": 2970,
      "suggest": 2971,
      "henry": 2972,
      "##oured": 2973,
      "##ille": 2974,
      "refer": 2975,
      "promise": 2976,
      "determined": 2977,
      "serious": 2978,
      "ber": 2979,
      "grey": 2980,
      "closed": 2981,
      "pocket": 2982,
      "##ayed": 2983,
      "eld": 2984,
      "british": 2985,
      "philos": 2986,
      "##appe": 2987,
      "span": 2988,
      "drawn": 2989,
      "formed": 2990,
      "wear": 2991,
      "##ites": 2992,
      "neighbour": 2993,
      "##wood": 2994,
      "affection": 2995,
      "clothes": 2996,
      "assist": 2997,
      "##velop": 2998,
      "creature": 2999,
      "devil": 3000,
      "claim": 3001,
      "dism": 3002,
      "stick": 3003,
      "degree": 3004,
      "##idently": 3005,
      "individ": 3006,
      "remarked": 3007,
      "cand": 3008,
      "##aff": 3009,
      "fem": 3010,
      "footnot": 3011,
      "agre": 3012,
      "quietly": 3013,
      "station": 3014,
      "11": 3015,
      "##how": 3016,
      "threw": 3017,
      "quarter": 3018,
      "york": 3019,
      "gree": 3020,
      "bull": 3021,
      "##ival": 3022,
      "alar": 3023,
      "memory": 3024,
      "jew": 3025,
      "offer": 3026,
      "custom": 3027,
      "watched": 3028,
      "agree": 3029,
      "render": 3030,
      "bal": 3031,
      "ways": 3032,
      "glance": 3033,
      "##stem": 3034,
      "murm": 3035,
      "reading": 3036,
      "desce": 3037,
      "##ator": 3038,
      "discovered": 3039,
      "heads": 3040,
      "troub": 3041,
      "game": 3042,
      "imper": 3043,
      "social": 3044,
      "##oted": 3045,
      "##ores": 3046,
      "##my": 3047,
      "orders": 3048,
      "guess": 3049,
      "##iently": 3050,
      "breakfast": 3051,
      "engaged": 3052,
      "reck": 3053,
      "##enced": 3054,
      "bold": 3055,
      "iv": 3056,
      "property": 3057,
      "pick": 3058,
      "decided": 3059,
      "loss": 3060,
      "##af": 3061,
      "deb": 3062,
      "rever": 3063,
      "stir": 3064,
      "luck": 3065,
      "##osite": 3066,
      "prec": 3067,
      "spread": 3068,
      "stock": 3069,
      "vast": 3070,
      "grou": 3071,
      "knowing": 3072,
      "system": 3073,
      "rise": 3074,
      "recover": 3075,
      "aston": 3076,
      "indian": 3077,
      "bottom": 3078,
      "tit": 3079,
      "##ding": 3080,
      "ange": 3081,
      "depend": 3082,
      "weather": 3083,
      "offered": 3084,
      "personal": 3085,
      "ende": 3086,
      "individual": 3087,
      "blind": 3088,
      "fond": 3089,
      "conce": 3090,
      "frequ": 3091,
      "beast": 3092,
      "forgotten": 3093,
      "oper": 3094,
      "empt": 3095,
      "talked": 3096,
      "dropped": 3097,
      "unf": 3098,
      "produced": 3099,
      "##ingu": 3100,
      "bag": 3101,
      "rising": 3102,
      "narrow": 3103,
      "shoulder": 3104,
      "spite": 3105,
      "horr": 3106,
      "19": 3107,
      "cousin": 3108,
      "fate": 3109,
      "thin": 3110,
      "doll": 3111,
      "##nday": 3112,
      "##lin": 3113,
      "pride": 3114,
      "##bo": 3115,
      "educ": 3116,
      "surf": 3117,
      "poem": 3118,
      "disapp": 3119,
      "##ibility": 3120,
      "perform": 3121,
      "fail": 3122,
      "bir": 3123,
      "##ium": 3124,
      "cases": 3125,
      "uns": 3126,
      "splend": 3127,
      "meeting": 3128,
      "##oops": 3129,
      "ignor": 3130,
      "advantage": 3131,
      "##like": 3132,
      "lot": 3133,
      "opposite": 3134,
      "##itated": 3135,
      "##roy": 3136,
      "cop": 3137,
      "charles": 3138,
      "cla": 3139,
      "##over": 3140,
      "cott": 3141,
      "##ishop": 3142,
      "paris": 3143,
      "laws": 3144,
      "prepared": 3145,
      "##ague": 3146,
      "forms": 3147,
      "pure": 3148,
      "knock": 3149,
      "mot": 3150,
      "moral": 3151,
      "soldiers": 3152,
      "accompan": 3153,
      "##ilar": 3154,
      "spent": 3155,
      "grad": 3156,
      "band": 3157,
      "remembered": 3158,
      "roll": 3159,
      "discuss": 3160,
      "blow": 3161,
      "##ara": 3162,
      "tis": 3163,
      "greatest": 3164,
      "opportunity": 3165,
      "##anted": 3166,
      "##etic": 3167,
      "##ctions": 3168,
      "##head": 3169,
      "meaning": 3170,
      "rank": 3171,
      "officer": 3172,
      "evidence": 3173,
      "courage": 3174,
      "trib": 3175,
      "##itor": 3176,
      "officers": 3177,
      "14": 3178,
      "wil": 3179,
      "intellig": 3180,
      "##go": 3181,
      "##ests": 3182,
      "##itive": 3183,
      "nay": 3184,
      "##vation": 3185,
      "aug": 3186,
      "holy": 3187,
      "13": 3188,
      "dust": 3189,
      "surprised": 3190,
      "due": 3191,
      "yellow": 3192,
      "hills": 3193,
      "der": 3194,
      "##attered": 3195,
      "##ishment": 3196,
      "fault": 3197,
      "bread": 3198,
      "square": 3199,
      "##bur": 3200,
      "kne": 3201,
      "cho": 3202,
      "comb": 3203,
      "mountains": 3204,
      "pity": 3205,
      "wine": 3206,
      "deck": 3207,
      "drop": 3208,
      "bod": 3209,
      "##ires": 3210,
      "pot": 3211,
      "pack": 3212,
      "finished": 3213,
      "pounds": 3214,
      "##to": 3215,
      "breast": 3216,
      "otherwise": 3217,
      "##iant": 3218,
      "spirits": 3219,
      "nice": 3220,
      "servant": 3221,
      "brave": 3222,
      "liked": 3223,
      "smoke": 3224,
      "higher": 3225,
      "##enn": 3226,
      "smo": 3227,
      "##yr": 3228,
      "##gment": 3229,
      "cabin": 3230,
      "##pected": 3231,
      "existence": 3232,
      "thrown": 3233,
      "suspic": 3234,
      "profess": 3235,
      "intended": 3236,
      "grat": 3237,
      "interrupt": 3238,
      "jer": 3239,
      "study": 3240,
      "shame": 3241,
      "wasn": 3242,
      "ordinary": 3243,
      "cow": 3244,
      "angry": 3245,
      "##ral": 3246,
      "constit": 3247,
      "##umph": 3248,
      "lod": 3249,
      "footnote": 3250,
      "apparently": 3251,
      "evidently": 3252,
      "##amber": 3253,
      "height": 3254,
      "gri": 3255,
      "ash": 3256,
      "cruel": 3257,
      "dav": 3258,
      "affairs": 3259,
      "walking": 3260,
      "ones": 3261,
      "sty": 3262,
      "innoc": 3263,
      "names": 3264,
      "aside": 3265,
      "inh": 3266,
      "surr": 3267,
      "endeav": 3268,
      "faces": 3269,
      "labour": 3270,
      "settled": 3271,
      "bush": 3272,
      "di": 3273,
      "questions": 3274,
      "motion": 3275,
      "holding": 3276,
      "keeping": 3277,
      "cred": 3278,
      "shop": 3279,
      "paul": 3280,
      "space": 3281,
      "situation": 3282,
      "##umn": 3283,
      "waited": 3284,
      "tea": 3285,
      "twelve": 3286,
      "bas": 3287,
      "greatly": 3288,
      "everybody": 3289,
      "native": 3290,
      "##ify": 3291,
      "coast": 3292,
      "solemn": 3293,
      "hotel": 3294,
      "unh": 3295,
      "lat": 3296,
      "aware": 3297,
      "mater": 3298,
      "instance": 3299,
      "share": 3300,
      "##vey": 3301,
      "haven": 3302,
      "religion": 3303,
      "triumph": 3304,
      "possession": 3305,
      "##enth": 3306,
      "develop": 3307,
      "##bing": 3308,
      "scot": 3309,
      "facts": 3310,
      "ep": 3311,
      "distingu": 3312,
      "animals": 3313,
      "san": 3314,
      "deliver": 3315,
      "tail": 3316,
      "##antic": 3317,
      "majesty": 3318,
      "rub": 3319,
      "amount": 3320,
      "weight": 3321,
      "##aly": 3322,
      "twice": 3323,
      "##iii": 3324,
      "happiness": 3325,
      "familiar": 3326,
      "bless": 3327,
      "regular": 3328,
      "terms": 3329,
      "ideas": 3330,
      "pointed": 3331,
      "report": 3332,
      "coat": 3333,
      "##osity": 3334,
      "shoulders": 3335,
      "prete": 3336,
      "bare": 3337,
      "##imate": 3338,
      "obliged": 3339,
      "explain": 3340,
      "taste": 3341,
      "suffer": 3342,
      "mac": 3343,
      "considerable": 3344,
      "##aked": 3345,
      "##fortun": 3346,
      "##por": 3347,
      "##oint": 3348,
      "weeks": 3349,
      "page": 3350,
      "shown": 3351,
      "receive": 3352,
      "value": 3353,
      "fier": 3354,
      "cook": 3355,
      "witness": 3356,
      "bri": 3357,
      "confidence": 3358,
      "arrange": 3359,
      "clean": 3360,
      "##uses": 3361,
      "unk": 3362,
      "lose": 3363,
      "dign": 3364,
      "interv": 3365,
      "crossed": 3366,
      "##ulous": 3367,
      "represent": 3368,
      "##ounced": 3369,
      "unw": 3370,
      "suggested": 3371,
      "equal": 3372,
      "proved": 3373,
      "tired": 3374,
      "finally": 3375,
      "##ulation": 3376,
      "built": 3377,
      "fill": 3378,
      "troops": 3379,
      "##rop": 3380,
      "##icated": 3381,
      "##aces": 3382,
      "reader": 3383,
      "artic": 3384,
      "subst": 3385,
      "forty": 3386,
      "woods": 3387,
      "##ointed": 3388,
      "inquir": 3389,
      "distant": 3390,
      "gray": 3391,
      "telling": 3392,
      "animal": 3393,
      "prefer": 3394,
      "murder": 3395,
      "forced": 3396,
      "ren": 3397,
      "richard": 3398,
      "stern": 3399,
      "##arily": 3400,
      "carriage": 3401,
      "roof": 3402,
      "distur": 3403,
      "working": 3404,
      "whispered": 3405,
      "disappe": 3406,
      "##esp": 3407,
      "test": 3408,
      "hurt": 3409,
      "##ishing": 3410,
      "authority": 3411,
      "sufficient": 3412,
      "america": 3413,
      "acquaint": 3414,
      "affair": 3415,
      "dozen": 3416,
      "fortun": 3417,
      "finding": 3418,
      "##ached": 3419,
      "process": 3420,
      "##race": 3421,
      "exer": 3422,
      "prove": 3423,
      "example": 3424,
      "design": 3425,
      "touched": 3426,
      "rocks": 3427,
      "speed": 3428,
      "##hern": 3429,
      "progress": 3430,
      "trade": 3431,
      "bent": 3432,
      "watching": 3433,
      "pit": 3434,
      "papers": 3435,
      "##com": 3436,
      "reb": 3437,
      "willing": 3438,
      "thom": 3439,
      "organ": 3440,
      "foreign": 3441,
      "threat": 3442,
      "fingers": 3443,
      "interesting": 3444,
      "##nds": 3445,
      "promised": 3446,
      "edge": 3447,
      "excellent": 3448,
      "lies": 3449,
      "##ike": 3450,
      "golden": 3451,
      "univers": 3452,
      "legs": 3453,
      "alive": 3454,
      "sele": 3455,
      "explained": 3456,
      "ble": 3457,
      "grown": 3458,
      "instinct": 3459,
      "mentioned": 3460,
      "##sy": 3461,
      "##iments": 3462,
      "nine": 3463,
      "##uls": 3464,
      "spect": 3465,
      "##ception": 3466,
      "pictures": 3467,
      "##unch": 3468,
      "conqu": 3469,
      "pra": 3470,
      "##gen": 3471,
      "gives": 3472,
      "caused": 3473,
      "sacri": 3474,
      "##road": 3475,
      "hom": 3476,
      "mam": 3477,
      "##bers": 3478,
      "method": 3479,
      "hither": 3480,
      "##iles": 3481,
      "lake": 3482,
      "worst": 3483,
      "possess": 3484,
      "##arther": 3485,
      "takes": 3486,
      "##eer": 3487,
      "aud": 3488,
      "farther": 3489,
      "##pir": 3490,
      "##cer": 3491,
      "##cent": 3492,
      "putting": 3493,
      "absolutely": 3494,
      "##ushing": 3495,
      "thorough": 3496,
      "bay": 3497,
      "sides": 3498,
      "##oid": 3499,
      "pair": 3500,
      "bid": 3501,
      "##gin": 3502,
      "rode": 3503,
      "##stone": 3504,
      "myst": 3505,
      "tongue": 3506,
      "streets": 3507,
      "exec": 3508,
      "##ams": 3509,
      "gloom": 3510,
      "palace": 3511,
      "doesn": 3512,
      "material": 3513,
      "political": 3514,
      "##reg": 3515,
      "destroy": 3516,
      "hide": 3517,
      "##enance": 3518,
      "honor": 3519,
      "imagine": 3520,
      "##tering": 3521,
      "wealth": 3522,
      "##hip": 3523,
      "points": 3524,
      "bon": 3525,
      "row": 3526,
      "building": 3527,
      "anne": 3528,
      "prevent": 3529,
      "por": 3530,
      "##iny": 3531,
      "##istic": 3532,
      "shape": 3533,
      "##mond": 3534,
      "bishop": 3535,
      "special": 3536,
      "##bury": 3537,
      "farm": 3538,
      "satisfied": 3539,
      "rejo": 3540,
      "support": 3541,
      "dull": 3542,
      "hurried": 3543,
      "empty": 3544,
      "rule": 3545,
      "fellows": 3546,
      "mas": 3547,
      "pos": 3548,
      "##asm": 3549,
      "handsome": 3550,
      "ride": 3551,
      "agreed": 3552,
      "##erous": 3553,
      "judgment": 3554,
      "naturally": 3555,
      "saint": 3556,
      "mighty": 3557,
      "catch": 3558,
      "windows": 3559,
      "sorrow": 3560,
      "sen": 3561,
      "##isters": 3562,
      "saved": 3563,
      "opening": 3564,
      "wed": 3565,
      "savage": 3566,
      "##min": 3567,
      "truly": 3568,
      "search": 3569,
      "cath": 3570,
      "##oat": 3571,
      "instru": 3572,
      "pard": 3573,
      "detail": 3574,
      "hate": 3575,
      "similar": 3576,
      "ham": 3577,
      "madame": 3578,
      "upper": 3579,
      "scr": 3580,
      "treas": 3581,
      "##ification": 3582,
      "drive": 3583,
      "##gs": 3584,
      "bridge": 3585,
      "worthy": 3586,
      "trem": 3587,
      "surface": 3588,
      "##ially": 3589,
      "settle": 3590,
      "ordered": 3591,
      "##field": 3592,
      "happen": 3593,
      "##chief": 3594,
      "pu": 3595,
      "nob": 3596,
      "wicked": 3597,
      "iii": 3598,
      "wants": 3599,
      "ga": 3600,
      "dun": 3601,
      "tremb": 3602,
      "##ena": 3603,
      "sacrif": 3604,
      "afford": 3605,
      "nose": 3606,
      "##asc": 3607,
      "pan": 3608,
      "regret": 3609,
      "dwell": 3610,
      "##oll": 3611,
      "moments": 3612,
      "record": 3613,
      "tale": 3614,
      "anybody": 3615,
      "##att": 3616,
      "odd": 3617,
      "##orious": 3618,
      "yards": 3619,
      "myster": 3620,
      "20": 3621,
      "powers": 3622,
      "content": 3623,
      "stage": 3624,
      "failed": 3625,
      "vig": 3626,
      "novel": 3627,
      "occurred": 3628,
      "lands": 3629,
      "##ades": 3630,
      "fierce": 3631,
      "compar": 3632,
      "tor": 3633,
      "steam": 3634,
      "proof": 3635,
      "##theless": 3636,
      "movement": 3637,
      "##rey": 3638,
      "inhab": 3639,
      "shel": 3640,
      "smiling": 3641,
      "shock": 3642,
      "louis": 3643,
      "##pet": 3644,
      "nevertheless": 3645,
      "august": 3646,
      "cit": 3647,
      "brief": 3648,
      "##oes": 3649,
      "##ker": 3650,
      "desper": 3651,
      "dressed": 3652,
      "throw": 3653,
      "hearts": 3654,
      "cool": 3655,
      "nearer": 3656,
      "glory": 3657,
      "##ension": 3658,
      "fully": 3659,
      "relief": 3660,
      "listened": 3661,
      "science": 3662,
      "##ables": 3663,
      "##asons": 3664,
      "aid": 3665,
      "noticed": 3666,
      "unfortun": 3667,
      "extraord": 3668,
      "rul": 3669,
      "advanced": 3670,
      "ol": 3671,
      "usually": 3672,
      "##using": 3673,
      "sac": 3674,
      "servants": 3675,
      "ale": 3676,
      "bob": 3677,
      "amb": 3678,
      "possibly": 3679,
      "actually": 3680,
      "liberty": 3681,
      "ban": 3682,
      "hal": 3683,
      "freed": 3684,
      "growing": 3685,
      "ly": 3686,
      "sex": 3687,
      "laughing": 3688,
      "mercy": 3689,
      "soldier": 3690,
      "exerc": 3691,
      "tar": 3692,
      "stead": 3693,
      "expressed": 3694,
      "moving": 3695,
      "directly": 3696,
      "fighting": 3697,
      "skin": 3698,
      "diss": 3699,
      "importance": 3700,
      "hurry": 3701,
      "arth": 3702,
      "persu": 3703,
      "rare": 3704,
      "chamber": 3705,
      "yester": 3706,
      "assured": 3707,
      "gle": 3708,
      "hence": 3709,
      "sev": 3710,
      "ener": 3711,
      "shoot": 3712,
      "carefully": 3713,
      "belief": 3714,
      "asse": 3715,
      "##con": 3716,
      "ghost": 3717,
      "##quis": 3718,
      "pieces": 3719,
      "##acle": 3720,
      "accident": 3721,
      "hell": 3722,
      "##uced": 3723,
      "parli": 3724,
      "equally": 3725,
      "yesterday": 3726,
      "##now": 3727,
      "mach": 3728,
      "##ication": 3729,
      "driven": 3730,
      "convin": 3731,
      "dangerous": 3732,
      "##kin": 3733,
      "##acc": 3734,
      "mistress": 3735,
      "wore": 3736,
      "marked": 3737,
      "aut": 3738,
      "plants": 3739,
      "advance": 3740,
      "inside": 3741,
      "favor": 3742,
      "worked": 3743,
      "events": 3744,
      "wag": 3745,
      "capital": 3746,
      "foolish": 3747,
      "drove": 3748,
      "##usted": 3749,
      "admitted": 3750,
      "rooms": 3751,
      "scre": 3752,
      "##aval": 3753,
      "teeth": 3754,
      "vir": 3755,
      "obey": 3756,
      "huge": 3757,
      "##night": 3758,
      "benef": 3759,
      "tempt": 3760,
      "##ensive": 3761,
      "seek": 3762,
      "##ulf": 3763,
      "mile": 3764,
      "##ology": 3765,
      "couple": 3766,
      "cup": 3767,
      "loc": 3768,
      "iss": 3769,
      "chang": 3770,
      "welcome": 3771,
      "satisfaction": 3772,
      "noise": 3773,
      "remarkable": 3774,
      "keen": 3775,
      "sympathy": 3776,
      "ships": 3777,
      "sum": 3778,
      "excit": 3779,
      "century": 3780,
      "exte": 3781,
      "jump": 3782,
      "##eping": 3783,
      "joined": 3784,
      "arthur": 3785,
      "##aries": 3786,
      "bos": 3787,
      "##oci": 3788,
      "##na": 3789,
      "franc": 3790,
      "resem": 3791,
      "sooner": 3792,
      "park": 3793,
      "##ural": 3794,
      "instantly": 3795,
      "particularly": 3796,
      "##illy": 3797,
      "##cription": 3798,
      "superior": 3799,
      "appears": 3800,
      "imagination": 3801,
      "##alous": 3802,
      "confess": 3803,
      "demanded": 3804,
      "minds": 3805,
      "travel": 3806,
      "##ograph": 3807,
      "countenance": 3808,
      "despair": 3809,
      "bore": 3810,
      "birth": 3811,
      "leading": 3812,
      "portion": 3813,
      "intellect": 3814,
      "grim": 3815,
      "entr": 3816,
      "parliament": 3817,
      "measure": 3818,
      "##pper": 3819,
      "wet": 3820,
      "yield": 3821,
      "indign": 3822,
      "price": 3823,
      "subm": 3824,
      "##uce": 3825,
      "occupied": 3826,
      "original": 3827,
      "dreadful": 3828,
      "advice": 3829,
      "philip": 3830,
      "nodd": 3831,
      "succeeded": 3832,
      "contain": 3833,
      "busy": 3834,
      "suffered": 3835,
      "wounded": 3836,
      "popular": 3837,
      "robert": 3838,
      "gathered": 3839,
      "awful": 3840,
      "suit": 3841,
      "pier": 3842,
      "named": 3843,
      "horn": 3844,
      "proport": 3845,
      "impat": 3846,
      "philosoph": 3847,
      "impression": 3848,
      "taught": 3849,
      "flat": 3850,
      "plant": 3851,
      "singular": 3852,
      "##ability": 3853,
      "##aud": 3854,
      "conditions": 3855,
      "supper": 3856,
      "##key": 3857,
      "associ": 3858,
      "##ky": 3859,
      "ice": 3860,
      "hearing": 3861,
      "recoll": 3862,
      "played": 3863,
      "qual": 3864,
      "##erve": 3865,
      "fet": 3866,
      "companions": 3867,
      "vic": 3868,
      "betr": 3869,
      "lifted": 3870,
      "concerned": 3871,
      "united": 3872,
      "excitement": 3873,
      "jul": 3874,
      "remind": 3875,
      "guns": 3876,
      "season": 3877,
      "seized": 3878,
      "join": 3879,
      "rh": 3880,
      "double": 3881,
      "##acity": 3882,
      "##ette": 3883,
      "group": 3884,
      "voy": 3885,
      "stones": 3886,
      "fred": 3887,
      "ceased": 3888,
      "stairs": 3889,
      "paused": 3890,
      "amaz": 3891,
      "contem": 3892,
      "rome": 3893,
      "splendid": 3894,
      "unkn": 3895,
      "flesh": 3896,
      "##iance": 3897,
      "corresp": 3898,
      "correspond": 3899,
      "##ville": 3900,
      "fruit": 3901,
      "smith": 3902,
      "terror": 3903,
      "club": 3904,
      "minister": 3905,
      "excl": 3906,
      "necessity": 3907,
      "daily": 3908,
      "partly": 3909,
      "smooth": 3910,
      "begun": 3911,
      "##hold": 3912,
      "wes": 3913,
      "mistake": 3914,
      "##iding": 3915,
      "extraordinary": 3916,
      "regarded": 3917,
      "kingdom": 3918,
      "cult": 3919,
      "shell": 3920,
      "flor": 3921,
      "flower": 3922,
      "possessed": 3923,
      "lin": 3924,
      "elect": 3925,
      "princess": 3926,
      "pin": 3927,
      "jan": 3928,
      "##aming": 3929,
      "prospect": 3930,
      "tot": 3931,
      "somebody": 3932,
      "powerful": 3933,
      "ack": 3934,
      "calling": 3935,
      "##zy": 3936,
      "absence": 3937,
      "admit": 3938,
      "undert": 3939,
      "seated": 3940,
      "thinks": 3941,
      "exped": 3942,
      "ment": 3943,
      "buy": 3944,
      "required": 3945,
      "ros": 3946,
      "unknown": 3947,
      "level": 3948,
      "thomas": 3949,
      "sunday": 3950,
      "##angers": 3951,
      "##bid": 3952,
      "##isc": 3953,
      "information": 3954,
      "proceeded": 3955,
      "feat": 3956,
      "corre": 3957,
      "serve": 3958,
      "falling": 3959,
      "dish": 3960,
      "hosp": 3961,
      "struggle": 3962,
      "baby": 3963,
      "education": 3964,
      "accompl": 3965,
      "##orous": 3966,
      "acknow": 3967,
      "pardon": 3968,
      "event": 3969,
      "brain": 3970,
      "unhapp": 3971,
      "blank": 3972,
      "25": 3973,
      "mont": 3974,
      "##ainted": 3975,
      "carrying": 3976,
      "##oos": 3977,
      "lone": 3978,
      "acquaintance": 3979,
      "hopes": 3980,
      "##estic": 3981,
      "resolved": 3982,
      "worn": 3983,
      "##ffe": 3984,
      "resist": 3985,
      "kindly": 3986,
      "##ode": 3987,
      "pill": 3988,
      "princip": 3989,
      "pause": 3990,
      "interested": 3991,
      "##ik": 3992,
      "remains": 3993,
      "scott": 3994,
      "##for": 3995,
      "cam": 3996,
      "mult": 3997,
      "size": 3998,
      "comr": 3999,
      "principle": 4000,
      "caut": 4001,
      "##get": 4002,
      "tele": 4003,
      "rush": 4004,
      "knees": 4005,
      "barb": 4006,
      "ara": 4007,
      "brill": 4008,
      "temple": 4009,
      "midst": 4010,
      "##iffer": 4011,
      "curi": 4012,
      "refused": 4013,
      "##gl": 4014,
      "stands": 4015,
      "pulled": 4016,
      "000": 4017,
      "fairly": 4018,
      "doors": 4019,
      "useful": 4020,
      "greek": 4021,
      "etern": 4022,
      "##erved": 4023,
      "clever": 4024,
      "conscience": 4025,
      "bree": 4026,
      "##thus": 4027,
      "exceed": 4028,
      "roman": 4029,
      "##lied": 4030,
      "interp": 4031,
      "distress": 4032,
      "##ustomed": 4033,
      "frag": 4034,
      "lovely": 4035,
      "gain": 4036,
      "sought": 4037,
      "thunder": 4038,
      "profession": 4039,
      "color": 4040,
      "##asped": 4041,
      "gay": 4042,
      "polic": 4043,
      "somehow": 4044,
      "severe": 4045,
      "##with": 4046,
      "presented": 4047,
      "pil": 4048,
      "choose": 4049,
      "lion": 4050,
      "##rant": 4051,
      "##leep": 4052,
      "voices": 4053,
      "hut": 4054,
      "style": 4055,
      "cliff": 4056,
      "consequence": 4057,
      "prisoner": 4058,
      "clearly": 4059,
      "freedom": 4060,
      "vague": 4061,
      "##illing": 4062,
      "asleep": 4063,
      "citiz": 4064,
      "cart": 4065,
      "served": 4066,
      "indiffer": 4067,
      "desert": 4068,
      "waters": 4069,
      "##hen": 4070,
      "##bits": 4071,
      "comfortable": 4072,
      "##ae": 4073,
      "shouted": 4074,
      "elder": 4075,
      "weary": 4076,
      "explan": 4077,
      "described": 4078,
      "loose": 4079,
      "gro": 4080,
      "##oul": 4081,
      "schem": 4082,
      "military": 4083,
      "##ancing": 4084,
      "wisdom": 4085,
      "governor": 4086,
      "amid": 4087,
      "##ading": 4088,
      "divine": 4089,
      "##umber": 4090,
      "glanced": 4091,
      "excuse": 4092,
      "highest": 4093,
      "saf": 4094,
      "cig": 4095,
      "memb": 4096,
      "poetry": 4097,
      "hoped": 4098,
      "task": 4099,
      "retreat": 4100,
      "contrary": 4101,
      "kindness": 4102,
      "strike": 4103,
      "##racted": 4104,
      "etc": 4105,
      "ox": 4106,
      "hole": 4107,
      "prim": 4108,
      "enemies": 4109,
      "##rent": 4110,
      "professor": 4111,
      "30": 4112,
      "wholly": 4113,
      "##llen": 4114,
      "fare": 4115,
      "stars": 4116,
      "assemb": 4117,
      "mood": 4118,
      "credit": 4119,
      "##ourse": 4120,
      "dollars": 4121,
      "##ases": 4122,
      "excited": 4123,
      "tend": 4124,
      "rag": 4125,
      "clouds": 4126,
      "mons": 4127,
      "dor": 4128,
      "##uments": 4129,
      "plenty": 4130,
      "behold": 4131,
      "boats": 4132,
      "##father": 4133,
      "##right": 4134,
      "intention": 4135,
      "##aker": 4136,
      "##ocr": 4137,
      "colle": 4138,
      "##ulated": 4139,
      "dying": 4140,
      "illustration": 4141,
      "ruin": 4142,
      "gradually": 4143,
      "proc": 4144,
      "principles": 4145,
      "indians": 4146,
      "somewhere": 4147,
      "obv": 4148,
      "jes": 4149,
      "closely": 4150,
      "##ruction": 4151,
      "thrust": 4152,
      "drunk": 4153,
      "withd": 4154,
      "dogs": 4155,
      "fields": 4156,
      "completely": 4157,
      "dignity": 4158,
      "relie": 4159,
      "##ss": 4160,
      "extent": 4161,
      "##oly": 4162,
      "##stand": 4163,
      "##ldom": 4164,
      "lover": 4165,
      "mud": 4166,
      "##urd": 4167,
      "##ustri": 4168,
      "sar": 4169,
      "reasons": 4170,
      "##nes": 4171,
      "vision": 4172,
      "asking": 4173,
      "produce": 4174,
      "21": 4175,
      "ta": 4176,
      "buck": 4177,
      "wash": 4178,
      "distr": 4179,
      "##istr": 4180,
      "arrival": 4181,
      "relations": 4182,
      "##gypt": 4183,
      "treated": 4184,
      "respons": 4185,
      "##ois": 4186,
      "virtue": 4187,
      "independ": 4188,
      "##pap": 4189,
      "lam": 4190,
      "##wick": 4191,
      "##elt": 4192,
      "washing": 4193,
      "delicate": 4194,
      "thanks": 4195,
      "egypt": 4196,
      "religious": 4197,
      "burning": 4198,
      "national": 4199,
      "##abel": 4200,
      "immense": 4201,
      "volume": 4202,
      "critic": 4203,
      "##isher": 4204,
      "vers": 4205,
      "anger": 4206,
      "##iot": 4207,
      "message": 4208,
      "curiosity": 4209,
      "##bb": 4210,
      "flight": 4211,
      "centre": 4212,
      "rig": 4213,
      "##ov": 4214,
      "lawy": 4215,
      "genius": 4216,
      "##astic": 4217,
      "baron": 4218,
      "heat": 4219,
      "craw": 4220,
      "whenever": 4221,
      "sprang": 4222,
      "ease": 4223,
      "practice": 4224,
      "guide": 4225,
      "ahead": 4226,
      "unex": 4227,
      "theory": 4228,
      "gods": 4229,
      "bodies": 4230,
      "trif": 4231,
      "constant": 4232,
      "capable": 4233,
      "famous": 4234,
      "desired": 4235,
      "##iable": 4236,
      "sentiment": 4237,
      "lit": 4238,
      "joe": 4239,
      "ze": 4240,
      "accepted": 4241,
      "rapidly": 4242,
      "moreover": 4243,
      "crew": 4244,
      "careful": 4245,
      "published": 4246,
      "cord": 4247,
      "stuff": 4248,
      "avoid": 4249,
      "contempt": 4250,
      "aver": 4251,
      "female": 4252,
      "manage": 4253,
      "##mber": 4254,
      "protest": 4255,
      "forgive": 4256,
      "islands": 4257,
      "escaped": 4258,
      "##ef": 4259,
      "obtain": 4260,
      "rif": 4261,
      "ach": 4262,
      "innocent": 4263,
      "log": 4264,
      "pressed": 4265,
      "spec": 4266,
      "##cip": 4267,
      "bearing": 4268,
      "notes": 4269,
      "##ourable": 4270,
      "literature": 4271,
      "mate": 4272,
      "hollow": 4273,
      "##plic": 4274,
      "enthus": 4275,
      "accustomed": 4276,
      "enthusi": 4277,
      "22": 4278,
      "dawn": 4279,
      "job": 4280,
      "fought": 4281,
      "wheel": 4282,
      "##omm": 4283,
      "##ieur": 4284,
      "members": 4285,
      "stories": 4286,
      "horror": 4287,
      "consideration": 4288,
      "##erson": 4289,
      "ended": 4290,
      "eliz": 4291,
      "##aling": 4292,
      "sink": 4293,
      "##iber": 4294,
      "manif": 4295,
      "softly": 4296,
      "24": 4297,
      "frightened": 4298,
      "##oms": 4299,
      "##oring": 4300,
      "exch": 4301,
      "evident": 4302,
      "stan": 4303,
      "spo": 4304,
      "infinite": 4305,
      "larger": 4306,
      "haw": 4307,
      "##mas": 4308,
      "faithful": 4309,
      "miserable": 4310,
      "whil": 4311,
      "grief": 4312,
      "sacred": 4313,
      "infer": 4314,
      "##ours": 4315,
      "deeply": 4316,
      "david": 4317,
      "invol": 4318,
      "aband": 4319,
      "##cts": 4320,
      "##ller": 4321,
      "oce": 4322,
      "hadn": 4323,
      "younger": 4324,
      "bew": 4325,
      "fifteen": 4326,
      "interrupted": 4327,
      "##asing": 4328,
      "anxiety": 4329,
      "seldom": 4330,
      "fold": 4331,
      "doubtless": 4332,
      "visible": 4333,
      "exhib": 4334,
      "murmured": 4335,
      "parties": 4336,
      "objects": 4337,
      "scen": 4338,
      "ling": 4339,
      "resemb": 4340,
      "##reci": 4341,
      "sup": 4342,
      "inhabit": 4343,
      "yard": 4344,
      "inquired": 4345,
      "amuse": 4346,
      "trail": 4347,
      "needed": 4348,
      "recall": 4349,
      "engage": 4350,
      "rum": 4351,
      "newspap": 4352,
      "throughout": 4353,
      "##kind": 4354,
      "handed": 4355,
      "creatures": 4356,
      "##kins": 4357,
      "lucy": 4358,
      "fro": 4359,
      "trick": 4360,
      "merch": 4361,
      "obst": 4362,
      "aim": 4363,
      "hidden": 4364,
      "playing": 4365,
      "##asant": 4366,
      "kitch": 4367,
      "##irm": 4368,
      "proportion": 4369,
      "dram": 4370,
      "pipe": 4371,
      "##while": 4372,
      "##iation": 4373,
      "sounds": 4374,
      "##atory": 4375,
      "establish": 4376,
      "nodded": 4377,
      "writ": 4378,
      "unable": 4379,
      "thoroughly": 4380,
      "##nal": 4381,
      "prompt": 4382,
      "finger": 4383,
      "figures": 4384,
      "##erning": 4385,
      "jane": 4386,
      "conclusion": 4387,
      "safety": 4388,
      "##igned": 4389,
      "utterly": 4390,
      "caval": 4391,
      "risk": 4392,
      "arranged": 4393,
      "fled": 4394,
      "env": 4395,
      "uncom": 4396,
      "##win": 4397,
      "##alian": 4398,
      "gently": 4399,
      "flying": 4400,
      "fee": 4401,
      "rust": 4402,
      "asham": 4403,
      "##oking": 4404,
      "rushed": 4405,
      "store": 4406,
      "circle": 4407,
      "gained": 4408,
      "bul": 4409,
      "suffering": 4410,
      "##iven": 4411,
      "monsieur": 4412,
      "##inging": 4413,
      "mild": 4414,
      "papa": 4415,
      "##ien": 4416,
      "crim": 4417,
      "everywhere": 4418,
      "uncons": 4419,
      "##ales": 4420,
      "##lessly": 4421,
      "ashamed": 4422,
      "highly": 4423,
      "throat": 4424,
      "unus": 4425,
      "scorn": 4426,
      "extremely": 4427,
      "23": 4428,
      "##stairs": 4429,
      "##ashing": 4430,
      "returning": 4431,
      "features": 4432,
      "bath": 4433,
      "mystery": 4434,
      "approached": 4435,
      "manners": 4436,
      "helped": 4437,
      "pad": 4438,
      "addressed": 4439,
      "spare": 4440,
      "entrance": 4441,
      "186": 4442,
      "card": 4443,
      "sheep": 4444,
      "obtained": 4445,
      "title": 4446,
      "nerv": 4447,
      "key": 4448,
      "##ential": 4449,
      "bringing": 4450,
      "rolled": 4451,
      "council": 4452,
      "showing": 4453,
      "choice": 4454,
      "adop": 4455,
      "martin": 4456,
      "whilst": 4457,
      "jac": 4458,
      "subjects": 4459,
      "sell": 4460,
      "##iqu": 4461,
      "clo": 4462,
      "depth": 4463,
      "grate": 4464,
      "proposed": 4465,
      "observe": 4466,
      "hunting": 4467,
      "tells": 4468,
      "##ointment": 4469,
      "bran": 4470,
      "edward": 4471,
      "occasionally": 4472,
      "kitchen": 4473,
      "wing": 4474,
      "lest": 4475,
      "meanwhile": 4476,
      "##utation": 4477,
      "friendly": 4478,
      "practical": 4479,
      "##arse": 4480,
      "voyage": 4481,
      "characters": 4482,
      "reckon": 4483,
      "##lace": 4484,
      "friendship": 4485,
      "kings": 4486,
      "ral": 4487,
      "bought": 4488,
      "fever": 4489,
      "leap": 4490,
      "relation": 4491,
      "##iece": 4492,
      "stiff": 4493,
      "ocean": 4494,
      "removed": 4495,
      "sour": 4496,
      "stout": 4497,
      "##aks": 4498,
      "breaking": 4499,
      "hit": 4500,
      "compe": 4501,
      "lonely": 4502,
      "apr": 4503,
      "tent": 4504,
      "weap": 4505,
      "irish": 4506,
      "##osen": 4507,
      "grant": 4508,
      "labor": 4509,
      "connected": 4510,
      "russ": 4511,
      "wondered": 4512,
      "jealous": 4513,
      "mankind": 4514,
      "prepar": 4515,
      "sha": 4516,
      "reve": 4517,
      "buried": 4518,
      "dece": 4519,
      "greet": 4520,
      "restr": 4521,
      "plat": 4522,
      "tight": 4523,
      "mission": 4524,
      "admiration": 4525,
      "spanish": 4526,
      "unhappy": 4527,
      "displ": 4528,
      "stepped": 4529,
      "##omp": 4530,
      "quality": 4531,
      "brothers": 4532,
      "constitution": 4533,
      "negle": 4534,
      "concerning": 4535,
      "easter": 4536,
      "##izing": 4537,
      "bord": 4538,
      "increased": 4539,
      "forgot": 4540,
      "unconscious": 4541,
      "sport": 4542,
      "confusion": 4543,
      "doctr": 4544,
      "##pless": 4545,
      "coach": 4546,
      "##ox": 4547,
      "grie": 4548,
      "chosen": 4549,
      "signs": 4550,
      "mysterious": 4551,
      "sons": 4552,
      "cottage": 4553,
      "distinguished": 4554,
      "hunt": 4555,
      "##uing": 4556,
      "##enger": 4557,
      "numbers": 4558,
      "blame": 4559,
      "##bor": 4560,
      "becoming": 4561,
      "##utions": 4562,
      "worship": 4563,
      "ba": 4564,
      "##cher": 4565,
      "swept": 4566,
      "sid": 4567,
      "careless": 4568,
      "##ulse": 4569,
      "ech": 4570,
      "##oused": 4571,
      "reven": 4572,
      "slightly": 4573,
      "magnific": 4574,
      "##uding": 4575,
      "##rees": 4576,
      "becomes": 4577,
      "rendered": 4578,
      "gets": 4579,
      "laughter": 4580,
      "feather": 4581,
      "accordingly": 4582,
      "plainly": 4583,
      "charming": 4584,
      "knife": 4585,
      "disappeared": 4586,
      "blessed": 4587,
      "secure": 4588,
      "alas": 4589,
      "clergy": 4590,
      "##ators": 4591,
      "inclined": 4592,
      "dance": 4593,
      "##fulness": 4594,
      "reward": 4595,
      "quant": 4596,
      "bosom": 4597,
      "##pire": 4598,
      "mamma": 4599,
      "meal": 4600,
      "wishes": 4601,
      "lights": 4602,
      "cigar": 4603,
      "indul": 4604,
      "wound": 4605,
      "accompanied": 4606,
      "orn": 4607,
      "dw": 4608,
      "rude": 4609,
      "##opping": 4610,
      "##acles": 4611,
      "precious": 4612,
      "abst": 4613,
      "entertain": 4614,
      "glim": 4615,
      "supply": 4616,
      "eth": 4617,
      "previous": 4618,
      "shade": 4619,
      "##inal": 4620,
      "waste": 4621,
      "alarm": 4622,
      "cere": 4623,
      "absurd": 4624,
      "dig": 4625,
      "##ips": 4626,
      "project": 4627,
      "fleet": 4628,
      "uneas": 4629,
      "literary": 4630,
      "aspect": 4631,
      "lieut": 4632,
      "wra": 4633,
      "tower": 4634,
      "physical": 4635,
      "cattle": 4636,
      "whist": 4637,
      "delighted": 4638,
      "rad": 4639,
      "spark": 4640,
      "182": 4641,
      "purch": 4642,
      "listening": 4643,
      "appreci": 4644,
      "sufficiently": 4645,
      "prayer": 4646,
      "yo": 4647,
      "understanding": 4648,
      "histor": 4649,
      "##cr": 4650,
      "emer": 4651,
      "match": 4652,
      "##eter": 4653,
      "##illa": 4654,
      "prosper": 4655,
      "##ids": 4656,
      "##inder": 4657,
      "series": 4658,
      "strict": 4659,
      "melanch": 4660,
      "cheeks": 4661,
      "xv": 4662,
      "slave": 4663,
      "mour": 4664,
      "hers": 4665,
      "drift": 4666,
      "ward": 4667,
      "charm": 4668,
      "od": 4669,
      "habits": 4670,
      "##xed": 4671,
      "steady": 4672,
      "oct": 4673,
      "unto": 4674,
      "plate": 4675,
      "argument": 4676,
      "##rif": 4677,
      "##istol": 4678,
      "hitherto": 4679,
      "##cture": 4680,
      "hyp": 4681,
      "abroad": 4682,
      "conven": 4683,
      "theat": 4684,
      "cheek": 4685,
      "abb": 4686,
      "##abeth": 4687,
      "nur": 4688,
      "employed": 4689,
      "##off": 4690,
      "##oqu": 4691,
      "emotion": 4692,
      "unb": 4693,
      "angel": 4694,
      "lux": 4695,
      "picked": 4696,
      "##vere": 4697,
      "margar": 4698,
      "##eding": 4699,
      "brow": 4700,
      "discovery": 4701,
      "notion": 4702,
      "##iture": 4703,
      "pred": 4704,
      "singing": 4705,
      "active": 4706,
      "duties": 4707,
      "intense": 4708,
      "flung": 4709,
      "fourth": 4710,
      "##ta": 4711,
      "frequently": 4712,
      "steep": 4713,
      "probable": 4714,
      "ralph": 4715,
      "protect": 4716,
      "26": 4717,
      "subs": 4718,
      "lately": 4719,
      "##ancy": 4720,
      "brig": 4721,
      "column": 4722,
      "afric": 4723,
      "solid": 4724,
      "madam": 4725,
      "melancholy": 4726,
      "charl": 4727,
      "##house": 4728,
      "ming": 4729,
      "##ese": 4730,
      "##urity": 4731,
      "cell": 4732,
      "addition": 4733,
      "scotland": 4734,
      "bol": 4735,
      "principal": 4736,
      "queer": 4737,
      "slept": 4738,
      "ages": 4739,
      "member": 4740,
      "pushed": 4741,
      "patience": 4742,
      "intim": 4743,
      "older": 4744,
      "dreams": 4745,
      "strongly": 4746,
      "hint": 4747,
      "whence": 4748,
      "riding": 4749,
      "type": 4750,
      "revolution": 4751,
      "trial": 4752,
      "##iday": 4753,
      "male": 4754,
      "explanation": 4755,
      "##onstr": 4756,
      "merry": 4757,
      "assistance": 4758,
      "precise": 4759,
      "lan": 4760,
      "preach": 4761,
      "interview": 4762,
      "##umes": 4763,
      "faced": 4764,
      "elizabeth": 4765,
      "##room": 4766,
      "ends": 4767,
      "conver": 4768,
      "##ived": 4769,
      "immediate": 4770,
      "kissed": 4771,
      "fert": 4772,
      "stup": 4773,
      "spend": 4774,
      "unfortunate": 4775,
      "francis": 4776,
      "##isions": 4777,
      "desperate": 4778,
      "wretched": 4779,
      "##ped": 4780,
      "margaret": 4781,
      "27": 4782,
      "##pher": 4783,
      "commission": 4784,
      "##acon": 4785,
      "wings": 4786,
      "rage": 4787,
      "virgin": 4788,
      "##eous": 4789,
      "forehead": 4790,
      "collect": 4791,
      "exha": 4792,
      "intelligence": 4793,
      "lock": 4794,
      "##ander": 4795,
      "inher": 4796,
      "##ization": 4797,
      "nap": 4798,
      "perse": 4799,
      "ax": 4800,
      "##inent": 4801,
      "ped": 4802,
      "##ailed": 4803,
      "quarrel": 4804,
      "gazed": 4805,
      "rab": 4806,
      "appreh": 4807,
      "##atively": 4808,
      "natives": 4809,
      "informed": 4810,
      "phr": 4811,
      "souls": 4812,
      "lieuten": 4813,
      "effects": 4814,
      "domestic": 4815,
      "established": 4816,
      "brook": 4817,
      "nin": 4818,
      "profound": 4819,
      "praise": 4820,
      "armed": 4821,
      "numerous": 4822,
      "consciousness": 4823,
      "asc": 4824,
      "brand": 4825,
      "##net": 4826,
      "affected": 4827,
      "beard": 4828,
      "block": 4829,
      "nort": 4830,
      "chiefly": 4831,
      "##udd": 4832,
      "leaf": 4833,
      "##ption": 4834,
      "sacrifice": 4835,
      "suspicion": 4836,
      "western": 4837,
      "##rich": 4838,
      "description": 4839,
      "bones": 4840,
      "police": 4841,
      "correct": 4842,
      "continue": 4843,
      "shows": 4844,
      "convinced": 4845,
      "nations": 4846,
      "feared": 4847,
      "lamp": 4848,
      "base": 4849,
      "##chan": 4850,
      "28": 4851,
      "awa": 4852,
      "weakness": 4853,
      "cele": 4854,
      "puzz": 4855,
      "spl": 4856,
      "fox": 4857,
      "smell": 4858,
      "##rem": 4859,
      "energy": 4860,
      "##ken": 4861,
      "propos": 4862,
      "interests": 4863,
      "craft": 4864,
      "eh": 4865,
      "lack": 4866,
      "stret": 4867,
      "domin": 4868,
      "raise": 4869,
      "rope": 4870,
      "infant": 4871,
      "stared": 4872,
      "india": 4873,
      "managed": 4874,
      "##pse": 4875,
      "unexpected": 4876,
      "##geon": 4877,
      "perceived": 4878,
      "wre": 4879,
      "composed": 4880,
      "mounted": 4881,
      "term": 4882,
      "parents": 4883,
      "frame": 4884,
      "helpless": 4885,
      "##onic": 4886,
      "##umbled": 4887,
      "prisoners": 4888,
      "intend": 4889,
      "29": 4890,
      "violent": 4891,
      "plans": 4892,
      "landl": 4893,
      "alice": 4894,
      "##fall": 4895,
      "widow": 4896,
      "##agger": 4897,
      "surrounded": 4898,
      "##ivity": 4899,
      "enorm": 4900,
      "consent": 4901,
      "crime": 4902,
      "shining": 4903,
      "##ims": 4904,
      "generous": 4905,
      "##board": 4906,
      "repub": 4907,
      "troubles": 4908,
      "attitude": 4909,
      "patient": 4910,
      "bottle": 4911,
      "disposed": 4912,
      "walter": 4913,
      "transl": 4914,
      "acquainted": 4915,
      "delightful": 4916,
      "181": 4917,
      "abrupt": 4918,
      "##of": 4919,
      "preced": 4920,
      "provided": 4921,
      "##gu": 4922,
      "##ceiving": 4923,
      "obsc": 4924,
      "trembling": 4925,
      "clerk": 4926,
      "luc": 4927,
      "grandfather": 4928,
      "##eem": 4929,
      "quarters": 4930,
      "rear": 4931,
      "os": 4932,
      "horrible": 4933,
      "egg": 4934,
      "artist": 4935,
      "setting": 4936,
      "scra": 4937,
      "throne": 4938,
      "experi": 4939,
      "text": 4940,
      "regiment": 4941,
      "painted": 4942,
      "##bre": 4943,
      "apt": 4944,
      "max": 4945,
      "ignorant": 4946,
      "asce": 4947,
      "misery": 4948,
      "rang": 4949,
      "cher": 4950,
      "stretched": 4951,
      "swell": 4952,
      "lighted": 4953,
      "hanging": 4954,
      "instit": 4955,
      "calls": 4956,
      "gaze": 4957,
      "perpet": 4958,
      "writer": 4959,
      "striking": 4960,
      "##unted": 4961,
      "deliber": 4962,
      "aven": 4963,
      "##uries": 4964,
      "exception": 4965,
      "skill": 4966,
      "dave": 4967,
      "diam": 4968,
      "##ounce": 4969,
      "june": 4970,
      "guil": 4971,
      "defence": 4972,
      "poems": 4973,
      "opinions": 4974,
      "reform": 4975,
      "gest": 4976,
      "union": 4977,
      "##icip": 4978,
      "uttered": 4979,
      "engine": 4980,
      "bowed": 4981,
      "inhabitants": 4982,
      "household": 4983,
      "ken": 4984,
      "beach": 4985,
      "##very": 4986,
      "##bly": 4987,
      "needs": 4988,
      "spiritual": 4989,
      "arose": 4990,
      "sang": 4991,
      "instr": 4992,
      "boots": 4993,
      "amongst": 4994,
      "shake": 4995,
      "183": 4996,
      "outl": 4997,
      "recomm": 4998,
      "##inate": 4999,
      "##va": 5000,
      "##isp": 5001,
      "leaning": 5002,
      "magic": 5003,
      "##ixt": 5004,
      "hastily": 5005,
      "chest": 5006,
      "desir": 5007,
      "coloured": 5008,
      "##char": 5009,
      "appointed": 5010,
      "calcul": 5011,
      "delay": 5012,
      "nurse": 5013,
      "image": 5014,
      "control": 5015,
      "##ulate": 5016,
      "terr": 5017,
      "current": 5018,
      "unl": 5019,
      "curtain": 5020,
      "actual": 5021,
      "repro": 5022,
      "mental": 5023,
      "##owned": 5024,
      "difficulties": 5025,
      "scient": 5026,
      "turns": 5027,
      "squire": 5028,
      "brilliant": 5029,
      "arab": 5030,
      "celebr": 5031,
      "branches": 5032,
      "proph": 5033,
      "tax": 5034,
      "invest": 5035,
      "shelter": 5036,
      "libr": 5037,
      "lordship": 5038,
      "pow": 5039,
      "views": 5040,
      "exercise": 5041,
      "efforts": 5042,
      "waist": 5043,
      "vac": 5044,
      "likewise": 5045,
      "anywhere": 5046,
      "##icate": 5047,
      "edition": 5048,
      "announced": 5049,
      "final": 5050,
      "sees": 5051,
      "useless": 5052,
      "pope": 5053,
      "##ault": 5054,
      "ridic": 5055,
      "stupid": 5056,
      "##gue": 5057,
      "drag": 5058,
      "##itate": 5059,
      "pig": 5060,
      "stephen": 5061,
      "sept": 5062,
      "##ffee": 5063,
      "sher": 5064,
      "attract": 5065,
      "##ubb": 5066,
      "##ilities": 5067,
      "shadows": 5068,
      "range": 5069,
      "dir": 5070,
      "emper": 5071,
      "farmer": 5072,
      "warning": 5073,
      "president": 5074,
      "republic": 5075,
      "victory": 5076,
      "##port": 5077,
      "intent": 5078,
      "refuse": 5079,
      "shakes": 5080,
      "##ads": 5081,
      "italian": 5082,
      "anch": 5083,
      "eagerly": 5084,
      "lawyer": 5085,
      "meat": 5086,
      "lieutenant": 5087,
      "guest": 5088,
      "valu": 5089,
      "unm": 5090,
      "market": 5091,
      "glorious": 5092,
      "college": 5093,
      "coffee": 5094,
      "rat": 5095,
      "venture": 5096,
      "provin": 5097,
      "sunsh": 5098,
      "successful": 5099,
      "##zed": 5100,
      "encoun": 5101,
      "vul": 5102,
      "ard": 5103,
      "leaned": 5104,
      "nons": 5105,
      "winds": 5106,
      "sank": 5107,
      "bark": 5108,
      "##iform": 5109,
      "rights": 5110,
      "washington": 5111,
      "##udes": 5112,
      "warri": 5113,
      "shaking": 5114,
      "guilty": 5115,
      "##leness": 5116,
      "shouldn": 5117,
      "request": 5118,
      "scattered": 5119,
      "scheme": 5120,
      "##eld": 5121,
      "brid": 5122,
      "sax": 5123,
      "##worth": 5124,
      "lane": 5125,
      "consist": 5126,
      "changes": 5127,
      "##achel": 5128,
      "negro": 5129,
      "secretary": 5130,
      "resumed": 5131,
      "gates": 5132,
      "jesus": 5133,
      "loving": 5134,
      "sovere": 5135,
      "sovereign": 5136,
      "cultiv": 5137,
      "##urance": 5138,
      "track": 5139,
      "##ulted": 5140,
      "italy": 5141,
      "appeal": 5142,
      "interf": 5143,
      "improve": 5144,
      "tide": 5145,
      "parl": 5146,
      "eternal": 5147,
      "mans": 5148,
      "##ipping": 5149,
      "sout": 5150,
      "##aph": 5151,
      "fatal": 5152,
      "resc": 5153,
      "##ston": 5154,
      "##col": 5155,
      "ju": 5156,
      "guests": 5157,
      "estate": 5158,
      "au": 5159,
      "##ghter": 5160,
      "require": 5161,
      "borne": 5162,
      "recovered": 5163,
      "swall": 5164,
      "idle": 5165,
      "variety": 5166,
      "gift": 5167,
      "ours": 5168,
      "##za": 5169,
      "contempl": 5170,
      "banks": 5171,
      "eve": 5172,
      "utmost": 5173,
      "chin": 5174,
      "convey": 5175,
      "retired": 5176,
      "##bridge": 5177,
      "sisters": 5178,
      "##lers": 5179,
      "approaching": 5180,
      "humble": 5181,
      "##otes": 5182,
      "descended": 5183,
      "loft": 5184,
      "connection": 5185,
      "##bour": 5186,
      "fired": 5187,
      "complex": 5188,
      "humour": 5189,
      "heir": 5190,
      "circumstance": 5191,
      "flash": 5192,
      "irr": 5193,
      "hesitated": 5194,
      "bride": 5195,
      "pron": 5196,
      "unp": 5197,
      "condem": 5198,
      "##ums": 5199,
      "thousands": 5200,
      "inex": 5201,
      "##opher": 5202,
      "cries": 5203,
      "specul": 5204,
      "lunch": 5205,
      "slipped": 5206,
      "chim": 5207,
      "fanci": 5208,
      "##acious": 5209,
      "gran": 5210,
      "flood": 5211,
      "follows": 5212,
      "##aining": 5213,
      "waves": 5214,
      "alike": 5215,
      "dared": 5216,
      "increase": 5217,
      "##ological": 5218,
      "date": 5219,
      "nearest": 5220,
      "##lict": 5221,
      "occasions": 5222,
      "departure": 5223,
      "acknowled": 5224,
      "reference": 5225,
      "##iel": 5226,
      "wolf": 5227,
      "vanished": 5228,
      "contained": 5229,
      "concluded": 5230,
      "arist": 5231,
      "marsh": 5232,
      "tort": 5233,
      "nervous": 5234,
      "muttered": 5235,
      "ident": 5236,
      "ug": 5237,
      "troubled": 5238,
      "wi": 5239,
      "bost": 5240,
      "protection": 5241,
      "causes": 5242,
      "jose": 5243,
      "##alt": 5244,
      "##jud": 5245,
      "flew": 5246,
      "introduced": 5247,
      "oak": 5248,
      "recon": 5249,
      "painful": 5250,
      "grasp": 5251,
      "learning": 5252,
      "hearted": 5253,
      "nonsense": 5254,
      "clar": 5255,
      "sunshine": 5256,
      "non": 5257,
      "##rier": 5258,
      "remarks": 5259,
      "acted": 5260,
      "devoted": 5261,
      "properly": 5262,
      "patri": 5263,
      "divided": 5264,
      "oppress": 5265,
      "mistaken": 5266,
      "northern": 5267,
      "##edy": 5268,
      "pistol": 5269,
      "privile": 5270,
      "##ram": 5271,
      "cheerful": 5272,
      "##uge": 5273,
      "bye": 5274,
      "pac": 5275,
      "separate": 5276,
      "jones": 5277,
      "adventure": 5278,
      "sorts": 5279,
      "farewell": 5280,
      "poison": 5281,
      "uniform": 5282,
      "##olic": 5283,
      "forbid": 5284,
      "sinc": 5285,
      "attended": 5286,
      "permitted": 5287,
      "directed": 5288,
      "##apt": 5289,
      "goods": 5290,
      "rib": 5291,
      "degrees": 5292,
      "attached": 5293,
      "assure": 5294,
      "prud": 5295,
      "kinds": 5296,
      "cru": 5297,
      "contri": 5298,
      "sleeping": 5299,
      "ire": 5300,
      "##peare": 5301,
      "nav": 5302,
      "ens": 5303,
      "countries": 5304,
      "qualities": 5305,
      "alex": 5306,
      "inse": 5307,
      "pir": 5308,
      "toler": 5309,
      "struct": 5310,
      "##eps": 5311,
      "forces": 5312,
      "observ": 5313,
      "seriously": 5314,
      "giant": 5315,
      "##more": 5316,
      "##liness": 5317,
      "gallant": 5318,
      "refr": 5319,
      "lap": 5320,
      "compreh": 5321,
      "contrast": 5322,
      "dur": 5323,
      "##ws": 5324,
      "violence": 5325,
      "staring": 5326,
      "sensible": 5327,
      "official": 5328,
      "##conom": 5329,
      "manifest": 5330,
      "econom": 5331,
      "freely": 5332,
      "counter": 5333,
      "##zing": 5334,
      "deny": 5335,
      "##ouring": 5336,
      "wooden": 5337,
      "##arrass": 5338,
      "rollo": 5339,
      "cave": 5340,
      "naked": 5341,
      "seas": 5342,
      "cheap": 5343,
      "flame": 5344,
      "##lies": 5345,
      "philosophy": 5346,
      "details": 5347,
      "##standing": 5348,
      "emperor": 5349,
      "marble": 5350,
      "fancied": 5351,
      "disci": 5352,
      "acts": 5353,
      "crying": 5354,
      "ideal": 5355,
      "july": 5356,
      "nest": 5357,
      "##cast": 5358,
      "commanded": 5359,
      "clay": 5360,
      "imagined": 5361,
      "throwing": 5362,
      "renew": 5363,
      "ignorance": 5364,
      "##atched": 5365,
      "folks": 5366,
      "offe": 5367,
      "destroyed": 5368,
      "observation": 5369,
      "counsel": 5370,
      "##inity": 5371,
      "fac": 5372,
      "headed": 5373,
      "tu": 5374,
      "englishman": 5375,
      "parted": 5376,
      "slaves": 5377,
      "movements": 5378,
      "coo": 5379,
      "feast": 5380,
      "wake": 5381,
      "##sey": 5382,
      "colon": 5383,
      "earlier": 5384,
      "anyone": 5385,
      "gracious": 5386,
      "insisted": 5387,
      "portra": 5388,
      "scientific": 5389,
      "folk": 5390,
      "yonder": 5391,
      "suspect": 5392,
      "universal": 5393,
      "stronger": 5394,
      "steadily": 5395,
      "tied": 5396,
      "ath": 5397,
      "##ura": 5398,
      "##eman": 5399,
      "agreeable": 5400,
      "christmas": 5401,
      "sighed": 5402,
      "groan": 5403,
      "beheld": 5404,
      "incident": 5405,
      "towns": 5406,
      "leader": 5407,
      "cy": 5408,
      "breeze": 5409,
      "##atch": 5410,
      "mechan": 5411,
      "assert": 5412,
      "conviction": 5413,
      "butter": 5414,
      "##ares": 5415,
      "gif": 5416,
      "sket": 5417,
      "##uits": 5418,
      "wilder": 5419,
      "fried": 5420,
      "statement": 5421,
      "ray": 5422,
      "dearest": 5423,
      "fil": 5424,
      "compass": 5425,
      "surround": 5426,
      "adam": 5427,
      "##eg": 5428,
      "grateful": 5429,
      "expedition": 5430,
      "cared": 5431,
      "aloud": 5432,
      "##engers": 5433,
      "##cest": 5434,
      "shone": 5435,
      "results": 5436,
      "pall": 5437,
      "sailor": 5438,
      "haste": 5439,
      "fanny": 5440,
      "enjoyed": 5441,
      "element": 5442,
      "cock": 5443,
      "eastern": 5444,
      "om": 5445,
      "##nat": 5446,
      "sear": 5447,
      "overt": 5448,
      "##osure": 5449,
      "hungry": 5450,
      "trace": 5451,
      "recognized": 5452,
      "byron": 5453,
      "proble": 5454,
      "gravely": 5455,
      "represented": 5456,
      "##ella": 5457,
      "obed": 5458,
      "awake": 5459,
      "gazing": 5460,
      "righteous": 5461,
      "pointing": 5462,
      "##bon": 5463,
      "astonishment": 5464,
      "knocked": 5465,
      "consult": 5466,
      "begged": 5467,
      "##pended": 5468,
      "eleven": 5469,
      "thine": 5470,
      "##lest": 5471,
      "wondering": 5472,
      "withdra": 5473,
      "meantime": 5474,
      "embarrass": 5475,
      "ugly": 5476,
      "ot": 5477,
      "slightest": 5478,
      "families": 5479,
      "##otted": 5480,
      "hated": 5481,
      "treasure": 5482,
      "##othing": 5483,
      "district": 5484,
      "stamp": 5485,
      "copy": 5486,
      "thence": 5487,
      "pages": 5488,
      "attempted": 5489,
      "gal": 5490,
      "empire": 5491,
      "##etr": 5492,
      "eating": 5493,
      "loves": 5494,
      "##rick": 5495,
      "considering": 5496,
      "library": 5497,
      "constantly": 5498,
      "torn": 5499,
      "bloom": 5500,
      "sharply": 5501,
      "resolution": 5502,
      "rifle": 5503,
      "vulgar": 5504,
      "article": 5505,
      "cann": 5506,
      "##che": 5507,
      "lee": 5508,
      "reality": 5509,
      "sincere": 5510,
      "toss": 5511,
      "atm": 5512,
      "jun": 5513,
      "##ha": 5514,
      "##inction": 5515,
      "##ipper": 5516,
      "##unning": 5517,
      "eyed": 5518,
      "unusual": 5519,
      "magnificent": 5520,
      "visited": 5521,
      "apartment": 5522,
      "atmosp": 5523,
      "glo": 5524,
      "bask": 5525,
      "disposition": 5526,
      "ireland": 5527,
      "grounds": 5528,
      "southern": 5529,
      "abund": 5530,
      "echo": 5531,
      "surv": 5532,
      "enormous": 5533,
      "quantity": 5534,
      "shed": 5535,
      "thorn": 5536,
      "strangers": 5537,
      "folly": 5538,
      "##uary": 5539,
      "unre": 5540,
      "##uf": 5541,
      "steel": 5542,
      "belonged": 5543,
      "maybe": 5544,
      "sentence": 5545,
      "dancing": 5546,
      "heath": 5547,
      "##rence": 5548,
      "nights": 5549,
      "purple": 5550,
      "ner": 5551,
      "flour": 5552,
      "smaller": 5553,
      "salt": 5554,
      "jimmy": 5555,
      "delivered": 5556,
      "swim": 5557,
      "anticip": 5558,
      "awk": 5559,
      "paint": 5560,
      "31": 5561,
      "mead": 5562,
      "serge": 5563,
      "tear": 5564,
      "rud": 5565,
      "mortal": 5566,
      "defend": 5567,
      "##rous": 5568,
      "slope": 5569,
      "canoe": 5570,
      "heavily": 5571,
      "inquiry": 5572,
      "soil": 5573,
      "flag": 5574,
      "##edge": 5575,
      "crack": 5576,
      "seam": 5577,
      "propri": 5578,
      "crowded": 5579,
      "rested": 5580,
      "##chester": 5581,
      "awkward": 5582,
      "ded": 5583,
      "dischar": 5584,
      "reign": 5585,
      "valuable": 5586,
      "confident": 5587,
      "perple": 5588,
      "##erate": 5589,
      "garr": 5590,
      "##agg": 5591,
      "deserted": 5592,
      "reproach": 5593,
      "sixty": 5594,
      "fears": 5595,
      "pursued": 5596,
      "doctrine": 5597,
      "##pent": 5598,
      "nut": 5599,
      "neat": 5600,
      "driving": 5601,
      "rele": 5602,
      "gratitude": 5603,
      "wave": 5604,
      "apparent": 5605,
      "##low": 5606,
      "visitor": 5607,
      "plun": 5608,
      "mah": 5609,
      "harold": 5610,
      "favourite": 5611,
      "oath": 5612,
      "pink": 5613,
      "destruction": 5614,
      "silk": 5615,
      "dil": 5616,
      "selfish": 5617,
      "##burg": 5618,
      "namely": 5619,
      "##ds": 5620,
      "clos": 5621,
      "spani": 5622,
      "fulf": 5623,
      "ses": 5624,
      "curs": 5625,
      "billy": 5626,
      "ruth": 5627,
      "grin": 5628,
      "startled": 5629,
      "pant": 5630,
      "uncertain": 5631,
      "classes": 5632,
      "roar": 5633,
      "owing": 5634,
      "dise": 5635,
      "chain": 5636,
      "dus": 5637,
      "career": 5638,
      "##itating": 5639,
      "##vert": 5640,
      "##olation": 5641,
      "outer": 5642,
      "milk": 5643,
      "admiral": 5644,
      "prose": 5645,
      "colours": 5646,
      "commer": 5647,
      "local": 5648,
      "astonished": 5649,
      "obvious": 5650,
      "wandering": 5651,
      "tum": 5652,
      "impulse": 5653,
      "##arsh": 5654,
      "firmly": 5655,
      "tick": 5656,
      "##uine": 5657,
      "entering": 5658,
      "cad": 5659,
      "intellectual": 5660,
      "archite": 5661,
      "branch": 5662,
      "fed": 5663,
      "185": 5664,
      "crept": 5665,
      "fix": 5666,
      "shortly": 5667,
      "shoes": 5668,
      "conceal": 5669,
      "##elle": 5670,
      "falls": 5671,
      "dutch": 5672,
      "inch": 5673,
      "adj": 5674,
      "tyr": 5675,
      "fame": 5676,
      "attrib": 5677,
      "hunter": 5678,
      "tremend": 5679,
      "printed": 5680,
      "mode": 5681,
      "##opes": 5682,
      "stoop": 5683,
      "touching": 5684,
      "ell": 5685,
      "##mes": 5686,
      "contrib": 5687,
      "disturbed": 5688,
      "les": 5689,
      "mixed": 5690,
      "swear": 5691,
      "##ache": 5692,
      "accur": 5693,
      "jon": 5694,
      "##sm": 5695,
      "enterpr": 5696,
      "definite": 5697,
      "stair": 5698,
      "suggestion": 5699,
      "##can": 5700,
      "##ray": 5701,
      "objection": 5702,
      "masters": 5703,
      "boston": 5704,
      "bade": 5705,
      "print": 5706,
      "##atives": 5707,
      "continually": 5708,
      "pace": 5709,
      "##umbling": 5710,
      "##och": 5711,
      "gos": 5712,
      "satur": 5713,
      "##pel": 5714,
      "mock": 5715,
      "contents": 5716,
      "landed": 5717,
      "##omin": 5718,
      "saddle": 5719,
      "jean": 5720,
      "sie": 5721,
      "bushes": 5722,
      "fairy": 5723,
      "articles": 5724,
      "committed": 5725,
      "chose": 5726,
      "##attering": 5727,
      "##uch": 5728,
      "##ula": 5729,
      "compet": 5730,
      "prejud": 5731,
      "sof": 5732,
      "##rim": 5733,
      "hook": 5734,
      "earnestly": 5735,
      "population": 5736,
      "##kerchief": 5737,
      "tomb": 5738,
      "sob": 5739,
      "sore": 5740,
      "ascertain": 5741,
      "examined": 5742,
      "wander": 5743,
      "##iveness": 5744,
      "april": 5745,
      "finds": 5746,
      "##rand": 5747,
      "development": 5748,
      "absor": 5749,
      "maiden": 5750,
      "hind": 5751,
      "hay": 5752,
      "##ante": 5753,
      "barn": 5754,
      "arrangement": 5755,
      "nurs": 5756,
      "whit": 5757,
      "atmosphere": 5758,
      "loyal": 5759,
      "handkerchief": 5760,
      "respectable": 5761,
      "batt": 5762,
      "encoura": 5763,
      "stayed": 5764,
      "leaped": 5765,
      "applied": 5766,
      "horiz": 5767,
      "dragged": 5768,
      "##enom": 5769,
      "incon": 5770,
      "##ifying": 5771,
      "184": 5772,
      "##rels": 5773,
      "decision": 5774,
      "reflection": 5775,
      "exquis": 5776,
      "politics": 5777,
      "hamm": 5778,
      "wherever": 5779,
      "##ington": 5780,
      "##othy": 5781,
      "sins": 5782,
      "mich": 5783,
      "ancest": 5784,
      "midnight": 5785,
      "musc": 5786,
      "frequent": 5787,
      "bun": 5788,
      "signal": 5789,
      "murd": 5790,
      "drinking": 5791,
      "compared": 5792,
      "bust": 5793,
      "beasts": 5794,
      "descend": 5795,
      "spain": 5796,
      "mul": 5797,
      "poured": 5798,
      "minded": 5799,
      "##isation": 5800,
      "smoking": 5801,
      "gardens": 5802,
      "lords": 5803,
      "barbar": 5804,
      "senses": 5805,
      "andrew": 5806,
      "remaining": 5807,
      "fid": 5808,
      "##ctor": 5809,
      "noon": 5810,
      "benefit": 5811,
      "veget": 5812,
      "pars": 5813,
      "gang": 5814,
      "solitary": 5815,
      "perceive": 5816,
      "##abled": 5817,
      "county": 5818,
      "assumed": 5819,
      "exquisite": 5820,
      "schol": 5821,
      "##isure": 5822,
      "compelled": 5823,
      "ingen": 5824,
      "rout": 5825,
      "vivid": 5826,
      "disappointed": 5827,
      "locked": 5828,
      "unlike": 5829,
      "lads": 5830,
      "daughters": 5831,
      "elsewhere": 5832,
      "fires": 5833,
      "humanity": 5834,
      "vessels": 5835,
      "ashore": 5836,
      "check": 5837,
      "extended": 5838,
      "recollect": 5839,
      "##itz": 5840,
      "helen": 5841,
      "swiftly": 5842,
      "distinctly": 5843,
      "jacob": 5844,
      "doth": 5845,
      "excess": 5846,
      "safely": 5847,
      "bewild": 5848,
      "##ari": 5849,
      "experiment": 5850,
      "mischief": 5851,
      "##grat": 5852,
      "burned": 5853,
      "maintain": 5854,
      "##isy": 5855,
      "relieved": 5856,
      "grav": 5857,
      "duch": 5858,
      "purposes": 5859,
      "signific": 5860,
      "surre": 5861,
      "countess": 5862,
      "##liest": 5863,
      "marks": 5864,
      "parad": 5865,
      "scenes": 5866,
      "ned": 5867,
      "sed": 5868,
      "goodness": 5869,
      "sober": 5870,
      "peril": 5871,
      "cunning": 5872,
      "punishment": 5873,
      "leisure": 5874,
      "precip": 5875,
      "verse": 5876,
      "alb": 5877,
      "beaten": 5878,
      "##eral": 5879,
      "romance": 5880,
      "bert": 5881,
      "services": 5882,
      "cavalry": 5883,
      "reflect": 5884,
      "phenom": 5885,
      "urged": 5886,
      "187": 5887,
      "deeper": 5888,
      "monarch": 5889,
      "editor": 5890,
      "fel": 5891,
      "180": 5892,
      "generation": 5893,
      "dining": 5894,
      "candle": 5895,
      "flow": 5896,
      "decor": 5897,
      "florence": 5898,
      "beings": 5899,
      "sailed": 5900,
      "impl": 5901,
      "substance": 5902,
      "dismiss": 5903,
      "lightly": 5904,
      "daylight": 5905,
      "champ": 5906,
      "unple": 5907,
      "bi": 5908,
      "eloqu": 5909,
      "##amm": 5910,
      "superst": 5911,
      "##ata": 5912,
      "stated": 5913,
      "exceedingly": 5914,
      "##ational": 5915,
      "sheet": 5916,
      "exert": 5917,
      "limbs": 5918,
      "suspected": 5919,
      "declare": 5920,
      "parish": 5921,
      "kate": 5922,
      "poets": 5923,
      "fores": 5924,
      "gig": 5925,
      "knee": 5926,
      "consequences": 5927,
      "separated": 5928,
      "savages": 5929,
      "pool": 5930,
      "coward": 5931,
      "merchant": 5932,
      "failure": 5933,
      "glit": 5934,
      "wanting": 5935,
      "##ols": 5936,
      "inner": 5937,
      "veh": 5938,
      "##inks": 5939,
      "romantic": 5940,
      "##ada": 5941,
      "nich": 5942,
      "central": 5943,
      "germany": 5944,
      "audience": 5945,
      "dart": 5946,
      "inches": 5947,
      "pup": 5948,
      "yer": 5949,
      "badly": 5950,
      "##bow": 5951,
      "tempor": 5952,
      "##plicity": 5953,
      "comment": 5954,
      "specim": 5955,
      "essential": 5956,
      "pilgr": 5957,
      "burden": 5958,
      "sergeant": 5959,
      "silly": 5960,
      "achie": 5961,
      "32": 5962,
      "marched": 5963,
      "departed": 5964,
      "rolling": 5965,
      "pursuit": 5966,
      "diamond": 5967,
      "lesson": 5968,
      "reject": 5969,
      "admin": 5970,
      "railway": 5971,
      "##cel": 5972,
      "furnished": 5973,
      "sending": 5974,
      "pear": 5975,
      "cleared": 5976,
      "jest": 5977,
      "doc": 5978,
      "confused": 5979,
      "absent": 5980,
      "collected": 5981,
      "smart": 5982,
      "ult": 5983,
      "alter": 5984,
      "ruff": 5985,
      "disturb": 5986,
      "journal": 5987,
      "disgrace": 5988,
      "enthusiasm": 5989,
      "footst": 5990,
      "flock": 5991,
      "deed": 5992,
      "disag": 5993,
      "debt": 5994,
      "reputation": 5995,
      "disgu": 5996,
      "deem": 5997,
      "deer": 5998,
      "gover": 5999,
      "zeal": 6000,
      "##pes": 6001,
      "wrath": 6002,
      "weigh": 6003,
      "##ais": 6004,
      "##olen": 6005,
      "crossing": 6006,
      "gesture": 6007,
      "thither": 6008,
      "disappointment": 6009,
      "possibility": 6010,
      "buff": 6011,
      "35": 6012,
      "neph": 6013,
      "autumn": 6014,
      "lamb": 6015,
      "discussion": 6016,
      "owner": 6017,
      "inev": 6018,
      "remote": 6019,
      "frost": 6020,
      "score": 6021,
      "harsh": 6022,
      "parent": 6023,
      "sust": 6024,
      "policy": 6025,
      "travelling": 6026,
      "invited": 6027,
      "heavens": 6028,
      "##idents": 6029,
      "fisher": 6030,
      "opposition": 6031,
      "indignation": 6032,
      "strain": 6033,
      "40": 6034,
      "wy": 6035,
      "medic": 6036,
      "seed": 6037,
      "tob": 6038,
      "barg": 6039,
      "drank": 6040,
      "brush": 6041,
      "abruptly": 6042,
      "ted": 6043,
      "readily": 6044,
      "gown": 6045,
      "structure": 6046,
      "adventures": 6047,
      "merc": 6048,
      "##omb": 6049,
      "afterward": 6050,
      "precisely": 6051,
      "roads": 6052,
      "joseph": 6053,
      "pine": 6054,
      "fury": 6055,
      "##greg": 6056,
      "starting": 6057,
      "roger": 6058,
      "acting": 6059,
      "speaks": 6060,
      "jar": 6061,
      "machine": 6062,
      "haz": 6063,
      "examination": 6064,
      "traged": 6065,
      "charged": 6066,
      "##vering": 6067,
      "plot": 6068,
      "neighbor": 6069,
      "hugh": 6070,
      "chann": 6071,
      "philosopher": 6072,
      "##withstanding": 6073,
      "cities": 6074,
      "applic": 6075,
      "criticism": 6076,
      "emph": 6077,
      "notwithstanding": 6078,
      "missed": 6079,
      "exposed": 6080,
      "soph": 6081,
      "curse": 6082,
      "warn": 6083,
      "growth": 6084,
      "##olet": 6085,
      "saturday": 6086,
      "tour": 6087,
      "slip": 6088,
      "victor": 6089,
      "xxx": 6090,
      "nephew": 6091,
      "citizens": 6092,
      "boast": 6093,
      "rand": 6094,
      "##keep": 6095,
      "sailors": 6096,
      "european": 6097,
      "brick": 6098,
      "friedrich": 6099,
      "related": 6100,
      "straw": 6101,
      "reasonable": 6102,
      "##ieties": 6103,
      "review": 6104,
      "joke": 6105,
      "selection": 6106,
      "pitch": 6107,
      "runs": 6108,
      "179": 6109,
      "##oot": 6110,
      "fasc": 6111,
      "supreme": 6112,
      "engagement": 6113,
      "wives": 6114,
      "trusted": 6115,
      "tribe": 6116,
      "##isk": 6117,
      "shakespeare": 6118,
      "fain": 6119,
      "nove": 6120,
      "modest": 6121,
      "##orse": 6122,
      "##inger": 6123,
      "ram": 6124,
      "liqu": 6125,
      "heartily": 6126,
      "reflected": 6127,
      "33": 6128,
      "coin": 6129,
      "ate": 6130,
      "phrase": 6131,
      "tomm": 6132,
      "##ober": 6133,
      "fetch": 6134,
      "shy": 6135,
      "dirty": 6136,
      "tin": 6137,
      "granted": 6138,
      "begins": 6139,
      "##omed": 6140,
      "theatre": 6141,
      "altern": 6142,
      "profit": 6143,
      "ethel": 6144,
      "concealed": 6145,
      "directions": 6146,
      "terrif": 6147,
      "finish": 6148,
      "rules": 6149,
      "memor": 6150,
      "chape": 6151,
      "trump": 6152,
      "tid": 6153,
      "accomplished": 6154,
      "carol": 6155,
      "duchess": 6156,
      "reduced": 6157,
      "spell": 6158,
      "recent": 6159,
      "acquired": 6160,
      "swung": 6161,
      "gil": 6162,
      "newspaper": 6163,
      "entreat": 6164,
      "insist": 6165,
      "staff": 6166,
      "##ana": 6167,
      "lively": 6168,
      "neighbourhood": 6169,
      "tones": 6170,
      "##iring": 6171,
      "##vin": 6172,
      "##usions": 6173,
      "furniture": 6174,
      "september": 6175,
      "hopeless": 6176,
      "amusement": 6177,
      "chuck": 6178,
      "refuge": 6179,
      "whereas": 6180,
      "october": 6181,
      "exhausted": 6182,
      "wedding": 6183,
      "permit": 6184,
      "owe": 6185,
      "mingled": 6186,
      "steamer": 6187,
      "fund": 6188,
      "raising": 6189,
      "sounded": 6190,
      "expense": 6191,
      "tremendous": 6192,
      "patron": 6193,
      "##raction": 6194,
      "##ribly": 6195,
      "execution": 6196,
      "encourage": 6197,
      "laying": 6198,
      "strangely": 6199,
      "characteristic": 6200,
      "silently": 6201,
      "dou": 6202,
      "##gate": 6203,
      "batter": 6204,
      "immort": 6205,
      "surrender": 6206,
      "vii": 6207,
      "developed": 6208,
      "landlord": 6209,
      "incred": 6210,
      "##tha": 6211,
      "desk": 6212,
      "electric": 6213,
      "goin": 6214,
      "million": 6215,
      "ventured": 6216,
      "##lv": 6217,
      "committ": 6218,
      "prayers": 6219,
      "##esy": 6220,
      "mos": 6221,
      "darling": 6222,
      "##ris": 6223,
      "prevented": 6224,
      "##ai": 6225,
      "tales": 6226,
      "cutting": 6227,
      "lur": 6228,
      "##ernal": 6229,
      "distinction": 6230,
      "readers": 6231,
      "##amation": 6232,
      "beloved": 6233,
      "dimin": 6234,
      "polite": 6235,
      "ms": 6236,
      "pound": 6237,
      "timid": 6238,
      "seeking": 6239,
      "positive": 6240,
      "mast": 6241,
      "glow": 6242,
      "quiver": 6243,
      "##ground": 6244,
      "gloomy": 6245,
      "forever": 6246,
      "leather": 6247,
      "marquis": 6248,
      "gale": 6249,
      "amused": 6250,
      "region": 6251,
      "annoy": 6252,
      "endure": 6253,
      "independent": 6254,
      "perman": 6255,
      "irres": 6256,
      "trip": 6257,
      "##ique": 6258,
      "amy": 6259,
      "commenced": 6260,
      "##work": 6261,
      "porter": 6262,
      "prime": 6263,
      "moonlight": 6264,
      "noted": 6265,
      "tap": 6266,
      "wot": 6267,
      "##ael": 6268,
      "50": 6269,
      "hundreds": 6270,
      "shiver": 6271,
      "##ctive": 6272,
      "muse": 6273,
      "##usive": 6274,
      "messenger": 6275,
      "puzzled": 6276,
      "ambition": 6277,
      "shield": 6278,
      "keeps": 6279,
      "gathering": 6280,
      "continent": 6281,
      "ruined": 6282,
      "elev": 6283,
      "bible": 6284,
      "##ded": 6285,
      "provisions": 6286,
      "##oman": 6287,
      "tommy": 6288,
      "pip": 6289,
      "##llers": 6290,
      "fortunate": 6291,
      "investig": 6292,
      "arrive": 6293,
      "describe": 6294,
      "reaching": 6295,
      "rebell": 6296,
      "cant": 6297,
      "##icken": 6298,
      "gas": 6299,
      "##iverse": 6300,
      "doubtful": 6301,
      "wreck": 6302,
      "comrades": 6303,
      "insult": 6304,
      "commander": 6305,
      "decide": 6306,
      "scand": 6307,
      "penetr": 6308,
      "##zan": 6309,
      "eust": 6310,
      "tobacc": 6311,
      "violet": 6312,
      "jumped": 6313,
      "landing": 6314,
      "error": 6315,
      "musk": 6316,
      "nigh": 6317,
      "##don": 6318,
      "alf": 6319,
      "intimate": 6320,
      "stuck": 6321,
      "upstairs": 6322,
      "altered": 6323,
      "fearful": 6324,
      "operation": 6325,
      "africa": 6326,
      "wandered": 6327,
      "wilderness": 6328,
      "##burgh": 6329,
      "agent": 6330,
      "anyway": 6331,
      "188": 6332,
      "knights": 6333,
      "chimney": 6334,
      "clara": 6335,
      "performed": 6336,
      "attent": 6337,
      "propose": 6338,
      "respects": 6339,
      "agony": 6340,
      "##olate": 6341,
      "actions": 6342,
      "leon": 6343,
      "charity": 6344,
      "gallop": 6345,
      "passes": 6346,
      "sunk": 6347,
      "##pton": 6348,
      "belonging": 6349,
      "##uv": 6350,
      "rival": 6351,
      "##ician": 6352,
      "##arf": 6353,
      "division": 6354,
      "beds": 6355,
      "heels": 6356,
      "comrade": 6357,
      "##ule": 6358,
      "brings": 6359,
      "anchor": 6360,
      "##anging": 6361,
      "rent": 6362,
      "conceive": 6363,
      "reminded": 6364,
      "niece": 6365,
      "##ico": 6366,
      "closer": 6367,
      "canv": 6368,
      "likes": 6369,
      "communication": 6370,
      "arrangements": 6371,
      "fitted": 6372,
      "avail": 6373,
      "##ingham": 6374,
      "outward": 6375,
      "##actory": 6376,
      "contrad": 6377,
      "##pired": 6378,
      "revel": 6379,
      "scale": 6380,
      "reef": 6381,
      "isa": 6382,
      "rav": 6383,
      "brut": 6384,
      "##gest": 6385,
      "##rid": 6386,
      "attacked": 6387,
      "fathers": 6388,
      "pretend": 6389,
      "34": 6390,
      "happens": 6391,
      "devotion": 6392,
      "admirable": 6393,
      "guy": 6394,
      "drum": 6395,
      "intervals": 6396,
      "jolly": 6397,
      "conquer": 6398,
      "adopted": 6399,
      "subd": 6400,
      "worry": 6401,
      "##umin": 6402,
      "daz": 6403,
      "##gram": 6404,
      "fest": 6405,
      "simplicity": 6406,
      "feeble": 6407,
      "pover": 6408,
      "fountain": 6409,
      "prize": 6410,
      "prem": 6411,
      "flut": 6412,
      "coal": 6413,
      "##alled": 6414,
      "temp": 6415,
      "sunset": 6416,
      "##upon": 6417,
      "oil": 6418,
      "resent": 6419,
      "lust": 6420,
      "discipl": 6421,
      "sensation": 6422,
      "priests": 6423,
      "majority": 6424,
      "##akened": 6425,
      "accounts": 6426,
      "eighteen": 6427,
      "##iour": 6428,
      "##natural": 6429,
      "##gers": 6430,
      "abandoned": 6431,
      "cloak": 6432,
      "honourable": 6433,
      "##ulars": 6434,
      "poverty": 6435,
      "##ifully": 6436,
      "created": 6437,
      "restless": 6438,
      "passengers": 6439,
      "conception": 6440,
      "resting": 6441,
      "magaz": 6442,
      "bud": 6443,
      "##ita": 6444,
      "eaten": 6445,
      "dumb": 6446,
      "##sworth": 6447,
      "heed": 6448,
      "prod": 6449,
      "chall": 6450,
      "consequently": 6451,
      "remem": 6452,
      "feels": 6453,
      "tobacco": 6454,
      "latin": 6455,
      "##alog": 6456,
      "eleg": 6457,
      "duck": 6458,
      "platform": 6459,
      "kh": 6460,
      "recommend": 6461,
      "wond": 6462,
      "apple": 6463,
      "##lla": 6464,
      "necessarily": 6465,
      "emily": 6466,
      "existed": 6467,
      "brass": 6468,
      "moss": 6469,
      "risen": 6470,
      "merit": 6471,
      "studied": 6472,
      "anyhow": 6473,
      "##rily": 6474,
      "laura": 6475,
      "buildings": 6476,
      "realized": 6477,
      "fortnight": 6478,
      "pile": 6479,
      "err": 6480,
      "fifth": 6481,
      "thread": 6482,
      "beck": 6483,
      "experienced": 6484,
      "apply": 6485,
      "source": 6486,
      "ridiculous": 6487,
      "proposition": 6488,
      "guards": 6489,
      "centuries": 6490,
      "curiously": 6491,
      "vanity": 6492,
      "stirred": 6493,
      "indifferent": 6494,
      "clergyman": 6495,
      "preserved": 6496,
      "suppress": 6497,
      "lofty": 6498,
      "heap": 6499,
      "holds": 6500,
      "glen": 6501,
      "examine": 6502,
      "threatened": 6503,
      "dashed": 6504,
      "beating": 6505,
      "races": 6506,
      "##gie": 6507,
      "blew": 6508,
      "dub": 6509,
      "##aign": 6510,
      "##ensions": 6511,
      "succession": 6512,
      "tiny": 6513,
      "contro": 6514,
      "##umption": 6515,
      "plays": 6516,
      "detect": 6517,
      "repeat": 6518,
      "inferior": 6519,
      "sally": 6520,
      "elements": 6521,
      "corru": 6522,
      "aged": 6523,
      "tenderness": 6524,
      "bund": 6525,
      "wrought": 6526,
      "scri": 6527,
      "reluct": 6528,
      "instrument": 6529,
      "genuine": 6530,
      "isabel": 6531,
      "##mony": 6532,
      "pains": 6533,
      "tradition": 6534,
      "toil": 6535,
      "unpleasant": 6536,
      "revenge": 6537,
      "arts": 6538,
      "scul": 6539,
      "aust": 6540,
      "enl": 6541,
      "tendency": 6542,
      "wars": 6543,
      "##otte": 6544,
      "masses": 6545,
      "problem": 6546,
      "repent": 6547,
      "morr": 6548,
      "affectionate": 6549,
      "fi": 6550,
      "disagree": 6551,
      "victim": 6552,
      "##any": 6553,
      "rachel": 6554,
      "holl": 6555,
      "apolog": 6556,
      "distrib": 6557,
      "basket": 6558,
      "extrem": 6559,
      "blessing": 6560,
      "##row": 6561,
      "##piration": 6562,
      "distinguish": 6563,
      "sway": 6564,
      "establishment": 6565,
      "betray": 6566,
      "bows": 6567,
      "bred": 6568,
      "feed": 6569,
      "##umps": 6570,
      "solic": 6571,
      "supported": 6572,
      "graceful": 6573,
      "pluck": 6574,
      "feb": 6575,
      "rhy": 6576,
      "teaching": 6577,
      "flashed": 6578,
      "using": 6579,
      "##eries": 6580,
      "que": 6581,
      "landsc": 6582,
      "ceremony": 6583,
      "nick": 6584,
      "trifle": 6585,
      "stu": 6586,
      "average": 6587,
      "##pture": 6588,
      "oliver": 6589,
      "issue": 6590,
      "subsequ": 6591,
      "esteem": 6592,
      "motive": 6593,
      "##otions": 6594,
      "encl": 6595,
      "security": 6596,
      "##ola": 6597,
      "depos": 6598,
      "hiding": 6599,
      "depress": 6600,
      "scotch": 6601,
      "november": 6602,
      "fishing": 6603,
      "citizen": 6604,
      "groups": 6605,
      "shooting": 6606,
      "##pled": 6607,
      "pref": 6608,
      "garrison": 6609,
      "##umm": 6610,
      "troop": 6611,
      "treatment": 6612,
      "enabled": 6613,
      "##asper": 6614,
      "bitterly": 6615,
      "obeyed": 6616,
      "##smith": 6617,
      "unse": 6618,
      "confessed": 6619,
      "advert": 6620,
      "community": 6621,
      "saints": 6622,
      "cyn": 6623,
      "cryst": 6624,
      "polly": 6625,
      "germ": 6626,
      "kid": 6627,
      "anth": 6628,
      "passions": 6629,
      "settlement": 6630,
      "shepher": 6631,
      "bears": 6632,
      "anton": 6633,
      "##pert": 6634,
      "##lance": 6635,
      "attach": 6636,
      "##ails": 6637,
      "jaw": 6638,
      "calmly": 6639,
      "##boy": 6640,
      "twas": 6641,
      "kick": 6642,
      "chase": 6643,
      "##place": 6644,
      "##icing": 6645,
      "providence": 6646,
      "eggs": 6647,
      "##uously": 6648,
      "mould": 6649,
      "resistance": 6650,
      "foul": 6651,
      "shirt": 6652,
      "minor": 6653,
      "parting": 6654,
      "britain": 6655,
      "##alf": 6656,
      "tun": 6657,
      "##lyn": 6658,
      "measures": 6659,
      "##law": 6660,
      "invitation": 6661,
      "residence": 6662,
      "burnt": 6663,
      "manuf": 6664,
      "xxv": 6665,
      "##ooked": 6666,
      "passages": 6667,
      "sadly": 6668,
      "patter": 6669,
      "interior": 6670,
      "gib": 6671,
      "confer": 6672,
      "narrative": 6673,
      "multitude": 6674,
      "bern": 6675,
      "trot": 6676,
      "stroke": 6677,
      "##ipe": 6678,
      "##iated": 6679,
      "dressing": 6680,
      "partner": 6681,
      "##after": 6682,
      "exchange": 6683,
      "interc": 6684,
      "confined": 6685,
      "disgust": 6686,
      "viv": 6687,
      "capacity": 6688,
      "thirst": 6689,
      "catholic": 6690,
      "##aine": 6691,
      "doorway": 6692,
      "##lets": 6693,
      "rein": 6694,
      "patriot": 6695,
      "repair": 6696,
      "chairs": 6697,
      "hospital": 6698,
      "enterprise": 6699,
      "cease": 6700,
      "lily": 6701,
      "sem": 6702,
      "##racy": 6703,
      "chances": 6704,
      "oxford": 6705,
      "##angled": 6706,
      "cha": 6707,
      "clut": 6708,
      "##orne": 6709,
      "gerald": 6710,
      "formerly": 6711,
      "moor": 6712,
      "pole": 6713,
      "witch": 6714,
      "maria": 6715,
      "##inking": 6716,
      "letting": 6717,
      "struggling": 6718,
      "cannon": 6719,
      "ecc": 6720,
      "phot": 6721,
      "gallery": 6722,
      "damp": 6723,
      "washed": 6724,
      "tops": 6725,
      "treach": 6726,
      "convention": 6727,
      "solitude": 6728,
      "fow": 6729,
      "shaft": 6730,
      "writers": 6731,
      "curt": 6732,
      "beth": 6733,
      "slain": 6734,
      "##esis": 6735,
      "##olent": 6736,
      "occasional": 6737,
      "##ym": 6738,
      "vice": 6739,
      "paying": 6740,
      "##uming": 6741,
      "retire": 6742,
      "faded": 6743,
      "ske": 6744,
      "proceedings": 6745,
      "##erted": 6746,
      "##ste": 6747,
      "##inations": 6748,
      "irre": 6749,
      "tragedy": 6750,
      "anxiously": 6751,
      "austri": 6752,
      "universe": 6753,
      "string": 6754,
      "##atherine": 6755,
      "marve": 6756,
      "##urer": 6757,
      "contented": 6758,
      "##gra": 6759,
      "completed": 6760,
      "kin": 6761,
      "induced": 6762,
      "36": 6763,
      "##ffin": 6764,
      "millions": 6765,
      "receiving": 6766,
      "humor": 6767,
      "##ias": 6768,
      "##apes": 6769,
      "fatig": 6770,
      "roused": 6771,
      "liberal": 6772,
      "##wing": 6773,
      "##outs": 6774,
      "subtle": 6775,
      "deadly": 6776,
      "saxon": 6777,
      "stole": 6778,
      "standard": 6779,
      "china": 6780,
      "ald": 6781,
      "legal": 6782,
      "flushed": 6783,
      "misfort": 6784,
      "climb": 6785,
      "bloss": 6786,
      "demonstr": 6787,
      "containing": 6788,
      "pp": 6789,
      "##oubted": 6790,
      "introduction": 6791,
      "horizon": 6792,
      "betrayed": 6793,
      "na": 6794,
      "writes": 6795,
      "beer": 6796,
      "balance": 6797,
      "lege": 6798,
      "sails": 6799,
      "venice": 6800,
      "##shire": 6801,
      "comparison": 6802,
      "portrait": 6803,
      "lev": 6804,
      "##mo": 6805,
      "overcome": 6806,
      "misfortune": 6807,
      "regarding": 6808,
      "##lands": 6809,
      "seventy": 6810,
      "##isl": 6811,
      "veil": 6812,
      "pressure": 6813,
      "nerves": 6814,
      "##keeper": 6815,
      "angels": 6816,
      "captured": 6817,
      "whither": 6818,
      "interfere": 6819,
      "##ucted": 6820,
      "##itory": 6821,
      "offence": 6822,
      "manufact": 6823,
      "committee": 6824,
      "load": 6825,
      "weapons": 6826,
      "fant": 6827,
      "hans": 6828,
      "including": 6829,
      "persuaded": 6830,
      "caution": 6831,
      "##ses": 6832,
      "yea": 6833,
      "wret": 6834,
      "dwelling": 6835,
      "blows": 6836,
      "restored": 6837,
      "venge": 6838,
      "tig": 6839,
      "##agon": 6840,
      "##oir": 6841,
      "twil": 6842,
      "lantern": 6843,
      "##gging": 6844,
      "irreg": 6845,
      "intelligent": 6846,
      "limited": 6847,
      "slavery": 6848,
      "bind": 6849,
      "secured": 6850,
      "scru": 6851,
      "rivers": 6852,
      "climbed": 6853,
      "##ropri": 6854,
      "instructions": 6855,
      "##oying": 6856,
      "rover": 6857,
      "referred": 6858,
      "100": 6859,
      "deeds": 6860,
      "entit": 6861,
      "complaint": 6862,
      "symb": 6863,
      "bone": 6864,
      "losing": 6865,
      "reported": 6866,
      "twilight": 6867,
      "congrat": 6868,
      "lucky": 6869,
      "##itors": 6870,
      "advancing": 6871,
      "##mother": 6872,
      "awe": 6873,
      "felix": 6874,
      "helm": 6875,
      "cree": 6876,
      "conceived": 6877,
      "walks": 6878,
      "questioned": 6879,
      "##org": 6880,
      "alarmed": 6881,
      "depends": 6882,
      "##irk": 6883,
      "wearing": 6884,
      "twink": 6885,
      "rejoined": 6886,
      "lance": 6887,
      "prodig": 6888,
      "puff": 6889,
      "##anqu": 6890,
      "fastened": 6891,
      "cathed": 6892,
      "sits": 6893,
      "scarlet": 6894,
      "ful": 6895,
      "pockets": 6896,
      "hart": 6897,
      "mourn": 6898,
      "celebrated": 6899,
      "##back": 6900,
      "enable": 6901,
      "artific": 6902,
      "dad": 6903,
      "##ero": 6904,
      "hastings": 6905,
      "undoubted": 6906,
      "murmur": 6907,
      "visitors": 6908,
      "subl": 6909,
      "dorothy": 6910,
      "divers": 6911,
      "ink": 6912,
      "comparatively": 6913,
      "disease": 6914,
      "hesitation": 6915,
      "chapel": 6916,
      "##mpt": 6917,
      "signed": 6918,
      "hospit": 6919,
      "overl": 6920,
      "collection": 6921,
      "traveller": 6922,
      "interval": 6923,
      "easier": 6924,
      "##ete": 6925,
      "fertil": 6926,
      "rushing": 6927,
      "herm": 6928,
      "climate": 6929,
      "border": 6930,
      "##rian": 6931,
      "glasses": 6932,
      "penny": 6933,
      "dy": 6934,
      "section": 6935,
      "neighbours": 6936,
      "##aid": 6937,
      "virtues": 6938,
      "powder": 6939,
      "##elia": 6940,
      "passionate": 6941,
      "permission": 6942,
      "claims": 6943,
      "inquiries": 6944,
      "persec": 6945,
      "breathing": 6946,
      "##itty": 6947,
      "palm": 6948,
      "practically": 6949,
      "##irmed": 6950,
      "spaniards": 6951,
      "arn": 6952,
      "upright": 6953,
      "map": 6954,
      "antiqu": 6955,
      "##itively": 6956,
      "songs": 6957,
      "##iana": 6958,
      "display": 6959,
      "decent": 6960,
      "lightning": 6961,
      "rod": 6962,
      "increasing": 6963,
      "admire": 6964,
      "impressed": 6965,
      "mun": 6966,
      "schools": 6967,
      "campaign": 6968,
      "doubts": 6969,
      "##inson": 6970,
      "##aging": 6971,
      "appet": 6972,
      "##ocracy": 6973,
      "instances": 6974,
      "viii": 6975,
      "uneasy": 6976,
      "##anda": 6977,
      "gross": 6978,
      "driver": 6979,
      "admired": 6980,
      "indifference": 6981,
      "offering": 6982,
      "bench": 6983,
      "##gent": 6984,
      "##iner": 6985,
      "acknowledged": 6986,
      "assembled": 6987,
      "gorge": 6988,
      "behalf": 6989,
      "orch": 6990,
      "monstr": 6991,
      "shaw": 6992,
      "fashioned": 6993,
      "irregular": 6994,
      "resour": 6995,
      "stopping": 6996,
      "schoon": 6997,
      "##irts": 6998,
      "prol": 6999,
      "compare": 7000,
      "learnt": 7001,
      "wages": 7002,
      "wilt": 7003,
      "ridge": 7004,
      "root": 7005,
      "landscape": 7006,
      "honey": 7007,
      "paradise": 7008,
      "37": 7009,
      "lik": 7010,
      "legisl": 7011,
      "evol": 7012,
      "discourse": 7013,
      "diver": 7014,
      "bargain": 7015,
      "obedience": 7016,
      "dict": 7017,
      "ster": 7018,
      "net": 7019,
      "puts": 7020,
      "existing": 7021,
      "myth": 7022,
      "ade": 7023,
      "tribes": 7024,
      "neglect": 7025,
      "##bell": 7026,
      "push": 7027,
      "##ements": 7028,
      "invis": 7029,
      "preferred": 7030,
      "compliment": 7031,
      "susan": 7032,
      "employment": 7033,
      "##ints": 7034,
      "##aved": 7035,
      "##allel": 7036,
      "##izes": 7037,
      "##cle": 7038,
      "##itious": 7039,
      "swar": 7040,
      "fortunately": 7041,
      "revealed": 7042,
      "norman": 7043,
      "shouting": 7044,
      "footsteps": 7045,
      "convenient": 7046,
      "tub": 7047,
      "income": 7048,
      "impatient": 7049,
      "glimpse": 7050,
      "mostly": 7051,
      "december": 7052,
      "horrid": 7053,
      "##borough": 7054,
      "relative": 7055,
      "bedroom": 7056,
      "edin": 7057,
      "prey": 7058,
      "##enched": 7059,
      "tables": 7060,
      "perfection": 7061,
      "floating": 7062,
      "recognised": 7063,
      "preparations": 7064,
      "advantages": 7065,
      "cares": 7066,
      "individuals": 7067,
      "guilt": 7068,
      "candid": 7069,
      "warned": 7070,
      "sofa": 7071,
      "gifts": 7072,
      "weapon": 7073,
      "ratt": 7074,
      "abandon": 7075,
      "##uity": 7076,
      "waved": 7077,
      "189": 7078,
      "trembled": 7079,
      "##aments": 7080,
      "haul": 7081,
      "##vag": 7082,
      "verses": 7083,
      "inward": 7084,
      "johnny": 7085,
      "##just": 7086,
      "##itudes": 7087,
      "appla": 7088,
      "norm": 7089,
      "sweep": 7090,
      "painting": 7091,
      "trunk": 7092,
      "counted": 7093,
      "##ems": 7094,
      "dine": 7095,
      "##iency": 7096,
      "spear": 7097,
      "##orus": 7098,
      "dew": 7099,
      "##eling": 7100,
      "##whel": 7101,
      "skipper": 7102,
      "conducted": 7103,
      "jerry": 7104,
      "joan": 7105,
      "exagger": 7106,
      "conflict": 7107,
      "extravag": 7108,
      "performance": 7109,
      "contract": 7110,
      "founded": 7111,
      "opposed": 7112,
      "wrapped": 7113,
      "##rated": 7114,
      "monday": 7115,
      "dreamed": 7116,
      "denied": 7117,
      "correspondence": 7118,
      "butt": 7119,
      "glancing": 7120,
      "handle": 7121,
      "coarse": 7122,
      "goss": 7123,
      "##coat": 7124,
      "generations": 7125,
      "constru": 7126,
      "bells": 7127,
      "quit": 7128,
      "followers": 7129,
      "sne": 7130,
      "##eration": 7131,
      "rescue": 7132,
      "brute": 7133,
      "geoff": 7134,
      "##ino": 7135,
      "particulars": 7136,
      "carl": 7137,
      "hideous": 7138,
      "january": 7139,
      "stolen": 7140,
      "supplied": 7141,
      "guessed": 7142,
      "##iah": 7143,
      "reverence": 7144,
      "funny": 7145,
      "indust": 7146,
      "happily": 7147,
      "teacher": 7148,
      "lincol": 7149,
      "ton": 7150,
      "lincoln": 7151,
      "tie": 7152,
      "raw": 7153,
      "45": 7154,
      "##icient": 7155,
      "proceeding": 7156,
      "enjoyment": 7157,
      "neglected": 7158,
      "overwhel": 7159,
      "##ops": 7160,
      "pruss": 7161,
      "railroad": 7162,
      "shru": 7163,
      "saving": 7164,
      "natured": 7165,
      "total": 7166,
      "##ensible": 7167,
      "responsibility": 7168,
      "##hin": 7169,
      "shri": 7170,
      "bough": 7171,
      "hasn": 7172,
      "##gage": 7173,
      "survey": 7174,
      "vengeance": 7175,
      "frown": 7176,
      "blast": 7177,
      "tramp": 7178,
      "jos": 7179,
      "sailing": 7180,
      "ench": 7181,
      "attracted": 7182,
      "jeff": 7183,
      "38": 7184,
      "brisk": 7185,
      "inquire": 7186,
      "##arian": 7187,
      "mob": 7188,
      "bart": 7189,
      "cape": 7190,
      "##lock": 7191,
      "faintly": 7192,
      "##anks": 7193,
      "##ulations": 7194,
      "##vest": 7195,
      "repose": 7196,
      "limit": 7197,
      "supposing": 7198,
      "warmth": 7199,
      "pretended": 7200,
      "halted": 7201,
      "travellers": 7202,
      "awakened": 7203,
      "refresh": 7204,
      "justified": 7205,
      "hearty": 7206,
      "edinburgh": 7207,
      "##iate": 7208,
      "pressing": 7209,
      "hush": 7210,
      "##illery": 7211,
      "proposal": 7212,
      "dougl": 7213,
      "##ques": 7214,
      "michael": 7215,
      "sale": 7216,
      "dean": 7217,
      "confession": 7218,
      "authors": 7219,
      "chill": 7220,
      "princes": 7221,
      "varieties": 7222,
      "thoughtful": 7223,
      "sugar": 7224,
      "differences": 7225,
      "tram": 7226,
      "cos": 7227,
      "lem": 7228,
      "assurance": 7229,
      "johnson": 7230,
      "ponder": 7231,
      "prepare": 7232,
      "wherefore": 7233,
      "##anim": 7234,
      "##ilda": 7235,
      "lawn": 7236,
      "testim": 7237,
      "##ineas": 7238,
      "shaken": 7239,
      "christians": 7240,
      "##vo": 7241,
      "sul": 7242,
      "##itan": 7243,
      "monk": 7244,
      "motionless": 7245,
      "##ago": 7246,
      "appropri": 7247,
      "imperfect": 7248,
      "picturesque": 7249,
      "butler": 7250,
      "manus": 7251,
      "brood": 7252,
      "##ensity": 7253,
      "incap": 7254,
      "behav": 7255,
      "furious": 7256,
      "torment": 7257,
      "indicated": 7258,
      "laun": 7259,
      "clad": 7260,
      "channel": 7261,
      "nic": 7262,
      "arise": 7263,
      "respond": 7264,
      "fragments": 7265,
      "feathers": 7266,
      "herbert": 7267,
      "##aneous": 7268,
      "eldest": 7269,
      "cards": 7270,
      "vest": 7271,
      "believing": 7272,
      "sevent": 7273,
      "painter": 7274,
      "summit": 7275,
      "critical": 7276,
      "thet": 7277,
      "belt": 7278,
      "righteousness": 7279,
      "rasc": 7280,
      "seats": 7281,
      "plunged": 7282,
      "daring": 7283,
      "stores": 7284,
      "commonly": 7285,
      "##vous": 7286,
      "penn": 7287,
      "##ulating": 7288,
      "satisfy": 7289,
      "rash": 7290,
      "cotton": 7291,
      "lass": 7292,
      "drowned": 7293,
      "torr": 7294,
      "seeds": 7295,
      "impart": 7296,
      "slee": 7297,
      "connect": 7298,
      "degr": 7299,
      "##raced": 7300,
      "emotions": 7301,
      "##ipt": 7302,
      "##jah": 7303,
      "gospel": 7304,
      "blown": 7305,
      "reserve": 7306,
      "trap": 7307,
      "positively": 7308,
      "commons": 7309,
      "dat": 7310,
      "ornament": 7311,
      "disord": 7312,
      "whir": 7313,
      "slender": 7314,
      "bloody": 7315,
      "fitz": 7316,
      "roses": 7317,
      "resign": 7318,
      "travelled": 7319,
      "motives": 7320,
      "wont": 7321,
      "maintained": 7322,
      "occupation": 7323,
      "##asion": 7324,
      "stro": 7325,
      "mason": 7326,
      "##berg": 7327,
      "rabbit": 7328,
      "pronounced": 7329,
      "leads": 7330,
      "mex": 7331,
      "##forth": 7332,
      "apost": 7333,
      "incons": 7334,
      "39": 7335,
      "dash": 7336,
      "##uish": 7337,
      "ranks": 7338,
      "foundation": 7339,
      "hunger": 7340,
      "eleph": 7341,
      "##rice": 7342,
      "##rington": 7343,
      "hatred": 7344,
      "boldly": 7345,
      "entitled": 7346,
      "operations": 7347,
      "accompany": 7348,
      "recollection": 7349,
      "murdered": 7350,
      "assume": 7351,
      "wheels": 7352,
      "folded": 7353,
      "##sell": 7354,
      "belongs": 7355,
      "columb": 7356,
      "thief": 7357,
      "dwelt": 7358,
      "invisible": 7359,
      "illness": 7360,
      "manuscript": 7361,
      "attempts": 7362,
      "##elly": 7363,
      "resolute": 7364,
      "##ige": 7365,
      "##master": 7366,
      "##quet": 7367,
      "doubted": 7368,
      "henri": 7369,
      "violently": 7370,
      "seconds": 7371,
      "austr": 7372,
      "personally": 7373,
      "desires": 7374,
      "methods": 7375,
      "umb": 7376,
      "tarzan": 7377,
      "villages": 7378,
      "disagreeable": 7379,
      "shrew": 7380,
      "##angle": 7381,
      "altar": 7382,
      "depths": 7383,
      "trim": 7384,
      "shill": 7385,
      "geoffrey": 7386,
      "##oard": 7387,
      "##mund": 7388,
      "mol": 7389,
      "unjust": 7390,
      "##essie": 7391,
      "##icial": 7392,
      "##yard": 7393,
      "holiday": 7394,
      "drops": 7395,
      "jews": 7396,
      "##inter": 7397,
      "##urst": 7398,
      "ministers": 7399,
      "historical": 7400,
      "damn": 7401,
      "americans": 7402,
      "cu": 7403,
      "discipline": 7404,
      "selected": 7405,
      "##oiselle": 7406,
      "checked": 7407,
      "pilgrim": 7408,
      "attain": 7409,
      "magistr": 7410,
      "changing": 7411,
      "gleam": 7412,
      "lip": 7413,
      "preparing": 7414,
      "hoarse": 7415,
      "eag": 7416,
      "grain": 7417,
      "holes": 7418,
      "##rael": 7419,
      "student": 7420,
      "##burn": 7421,
      "yielded": 7422,
      "schooner": 7423,
      "sullen": 7424,
      "retorted": 7425,
      "grows": 7426,
      "charlie": 7427,
      "##oft": 7428,
      "##olas": 7429,
      "induce": 7430,
      "contact": 7431,
      "cathedral": 7432,
      "prair": 7433,
      "childhood": 7434,
      "raven": 7435,
      "alm": 7436,
      "thankful": 7437,
      "ruins": 7438,
      "russian": 7439,
      "certainty": 7440,
      "breed": 7441,
      "deserve": 7442,
      "cash": 7443,
      "##eur": 7444,
      "##inence": 7445,
      "yourselves": 7446,
      "warriors": 7447,
      "##ration": 7448,
      "jam": 7449,
      "##case": 7450,
      "##anny": 7451,
      "##aves": 7452,
      "invent": 7453,
      "##asy": 7454,
      "goth": 7455,
      "flora": 7456,
      "persist": 7457,
      "submit": 7458,
      "expecting": 7459,
      "presents": 7460,
      "compr": 7461,
      "spur": 7462,
      "lun": 7463,
      "sixteen": 7464,
      "##cribed": 7465,
      "fence": 7466,
      "cure": 7467,
      "##rage": 7468,
      "dropping": 7469,
      "summoned": 7470,
      "mutual": 7471,
      "ave": 7472,
      "##uting": 7473,
      "woe": 7474,
      "ost": 7475,
      "educated": 7476,
      "bapt": 7477,
      "ing": 7478,
      "tranqu": 7479,
      "persuade": 7480,
      "obscure": 7481,
      "madness": 7482,
      "steal": 7483,
      "##yl": 7484,
      "remorse": 7485,
      "larry": 7486,
      "responsible": 7487,
      "mack": 7488,
      "wasted": 7489,
      "crou": 7490,
      "ix": 7491,
      "canvas": 7492,
      "trades": 7493,
      "medicine": 7494,
      "##ns": 7495,
      "bond": 7496,
      "parson": 7497,
      "activity": 7498,
      "##encies": 7499,
      "##wart": 7500,
      "staying": 7501,
      "fourteen": 7502,
      "##pson": 7503,
      "swords": 7504,
      "wagon": 7505,
      "##frey": 7506,
      "clam": 7507,
      "respecting": 7508,
      "corps": 7509,
      "arrested": 7510,
      "napole": 7511,
      "##aced": 7512,
      "pleasures": 7513,
      "uncommon": 7514,
      "garments": 7515,
      "newspapers": 7516,
      "throng": 7517,
      "uncomfort": 7518,
      "stretch": 7519,
      "prel": 7520,
      "foe": 7521,
      "rarely": 7522,
      "dame": 7523,
      "vale": 7524,
      "lessons": 7525,
      "si": 7526,
      "gladstone": 7527,
      "university": 7528,
      "remembr": 7529,
      "stom": 7530,
      "stagg": 7531,
      "dishon": 7532,
      "finest": 7533,
      "defer": 7534,
      "bother": 7535,
      "unfortunately": 7536,
      "indic": 7537,
      "douglas": 7538,
      "##ider": 7539,
      "photograph": 7540,
      "involved": 7541,
      "bald": 7542,
      "##ua": 7543,
      "upward": 7544,
      "thereby": 7545,
      "injury": 7546,
      "##iations": 7547,
      "chem": 7548,
      "disple": 7549,
      "plains": 7550,
      "procession": 7551,
      "answers": 7552,
      "studies": 7553,
      "intercourse": 7554,
      "##olence": 7555,
      "peaceful": 7556,
      "bonnet": 7557,
      "##ishes": 7558,
      "originally": 7559,
      "sinking": 7560,
      "accum": 7561,
      "churches": 7562,
      "siege": 7563,
      "mail": 7564,
      "bars": 7565,
      "wink": 7566,
      "clust": 7567,
      "eustace": 7568,
      "spared": 7569,
      "conspic": 7570,
      "##graph": 7571,
      "lovers": 7572,
      "##ibilities": 7573,
      "ps": 7574,
      "visits": 7575,
      "determination": 7576,
      "owned": 7577,
      "satisfactory": 7578,
      "forming": 7579,
      "inspired": 7580,
      "convent": 7581,
      "superf": 7582,
      "volumes": 7583,
      "issued": 7584,
      "descent": 7585,
      "aye": 7586,
      "naught": 7587,
      "dislike": 7588,
      "training": 7589,
      "chamb": 7590,
      "fortunes": 7591,
      "tempted": 7592,
      "febru": 7593,
      "longing": 7594,
      "injured": 7595,
      "promptly": 7596,
      "##athan": 7597,
      "speaker": 7598,
      "von": 7599,
      "tumult": 7600,
      "jung": 7601,
      "trained": 7602,
      "parallel": 7603,
      "deceived": 7604,
      "##igs": 7605,
      "inevitable": 7606,
      "assembly": 7607,
      "february": 7608,
      "flies": 7609,
      "endless": 7610,
      "theirs": 7611,
      "madem": 7612,
      "previously": 7613,
      "authorities": 7614,
      "atl": 7615,
      "formal": 7616,
      "alexander": 7617,
      "rocky": 7618,
      "displayed": 7619,
      "retain": 7620,
      "derived": 7621,
      "disappear": 7622,
      "shaped": 7623,
      "stomach": 7624,
      "pere": 7625,
      "unne": 7626,
      "collar": 7627,
      "mademoiselle": 7628,
      "arguments": 7629,
      "copper": 7630,
      "recently": 7631,
      "sentiments": 7632,
      "fools": 7633,
      "borr": 7634,
      "sund": 7635,
      "reception": 7636,
      "blowing": 7637,
      "##apsed": 7638,
      "harbour": 7639,
      "gasped": 7640,
      "##din": 7641,
      "robin": 7642,
      "spectacle": 7643,
      "##cia": 7644,
      "maud": 7645,
      "axe": 7646,
      "gamb": 7647,
      "solemnly": 7648,
      "rus": 7649,
      "stately": 7650,
      "fost": 7651,
      "lif": 7652,
      "privilege": 7653,
      "offices": 7654,
      "peasant": 7655,
      "lud": 7656,
      "gravity": 7657,
      "ladder": 7658,
      "imperial": 7659,
      "extern": 7660,
      "##leton": 7661,
      "jealousy": 7662,
      "##rog": 7663,
      "rigid": 7664,
      "limits": 7665,
      "gab": 7666,
      "thoughtfully": 7667,
      "julia": 7668,
      "regions": 7669,
      "whip": 7670,
      "crimson": 7671,
      "abbey": 7672,
      "department": 7673,
      "entertained": 7674,
      "included": 7675,
      "purchase": 7676,
      "percy": 7677,
      "reckless": 7678,
      "assault": 7679,
      "shores": 7680,
      "conj": 7681,
      "##verse": 7682,
      "temptation": 7683,
      "kent": 7684,
      "awoke": 7685,
      "leaders": 7686,
      "amazement": 7687,
      "41": 7688,
      "heroic": 7689,
      "mak": 7690,
      "acknowledge": 7691,
      "ashes": 7692,
      "##sters": 7693,
      "els": 7694,
      "romans": 7695,
      "virginia": 7696,
      "pave": 7697,
      "willingly": 7698,
      "warrant": 7699,
      "election": 7700,
      "##riages": 7701,
      "roots": 7702,
      "unnecess": 7703,
      "##gings": 7704,
      "meek": 7705,
      "marian": 7706,
      "telegraph": 7707,
      "inherit": 7708,
      "##hib": 7709,
      "jap": 7710,
      "consisted": 7711,
      "answering": 7712,
      "pulling": 7713,
      "##enote": 7714,
      "access": 7715,
      "missing": 7716,
      "phenomena": 7717,
      "application": 7718,
      "aboard": 7719,
      "everyone": 7720,
      "sidenote": 7721,
      "waving": 7722,
      "##pers": 7723,
      "crest": 7724,
      "depri": 7725,
      "arrow": 7726,
      "button": 7727,
      "monstrous": 7728,
      "##alia": 7729,
      "largely": 7730,
      "presume": 7731,
      "resemblance": 7732,
      "sketch": 7733,
      "graham": 7734,
      "congress": 7735,
      "absorbed": 7736,
      "prolong": 7737,
      "struggled": 7738,
      "wip": 7739,
      "poly": 7740,
      "corners": 7741,
      "hastened": 7742,
      "streams": 7743,
      "creation": 7744,
      "backs": 7745,
      "realize": 7746,
      "marvel": 7747,
      "healthy": 7748,
      "ela": 7749,
      "##era": 7750,
      "remove": 7751,
      "##oration": 7752,
      "lend": 7753,
      "43": 7754,
      "strictly": 7755,
      "varied": 7756,
      "arrest": 7757,
      "lodge": 7758,
      "hearth": 7759,
      "shillings": 7760,
      "haunted": 7761,
      "seal": 7762,
      "rightly": 7763,
      "shif": 7764,
      "amusing": 7765,
      "rises": 7766,
      "parlour": 7767,
      "bron": 7768,
      "homes": 7769,
      "frog": 7770,
      "judged": 7771,
      "aught": 7772,
      "model": 7773,
      "hypoth": 7774,
      "perpetual": 7775,
      "defeat": 7776,
      "##force": 7777,
      "colored": 7778,
      "deserved": 7779,
      "frankly": 7780,
      "ferv": 7781,
      "##icted": 7782,
      "trous": 7783,
      "observing": 7784,
      "##wr": 7785,
      "prophet": 7786,
      "steward": 7787,
      "production": 7788,
      "conquered": 7789,
      "composition": 7790,
      "flames": 7791,
      "breth": 7792,
      "openly": 7793,
      "industry": 7794,
      "stable": 7795,
      "unworth": 7796,
      "wer": 7797,
      "weeping": 7798,
      "##umble": 7799,
      "quaint": 7800,
      "recalled": 7801,
      "materials": 7802,
      "undoubtedly": 7803,
      "surprising": 7804,
      "brethren": 7805,
      "charley": 7806,
      "artillery": 7807,
      "estim": 7808,
      "impatience": 7809,
      "gla": 7810,
      "mc": 7811,
      "##oa": 7812,
      "saith": 7813,
      "civilization": 7814,
      "ape": 7815,
      "matt": 7816,
      "discern": 7817,
      "afforded": 7818,
      "propriet": 7819,
      "##ona": 7820,
      "backward": 7821,
      "##ocratic": 7822,
      "42": 7823,
      "bend": 7824,
      "elabor": 7825,
      "##ulp": 7826,
      "ladyship": 7827,
      "complain": 7828,
      "observations": 7829,
      "clung": 7830,
      "wholes": 7831,
      "##aping": 7832,
      "amiable": 7833,
      "wherein": 7834,
      "erect": 7835,
      "capture": 7836,
      "##ea": 7837,
      "catching": 7838,
      "fiercely": 7839,
      "velve": 7840,
      "aren": 7841,
      "##ifications": 7842,
      "guardian": 7843,
      "##stead": 7844,
      "##etta": 7845,
      "medical": 7846,
      "bullet": 7847,
      "##dles": 7848,
      "closing": 7849,
      "plac": 7850,
      "fog": 7851,
      "perplex": 7852,
      "professional": 7853,
      "dangers": 7854,
      "cruelty": 7855,
      "infantry": 7856,
      "killing": 7857,
      "scottish": 7858,
      "inval": 7859,
      "boot": 7860,
      "considerably": 7861,
      "cabinet": 7862,
      "jen": 7863,
      "omn": 7864,
      "flatter": 7865,
      "ya": 7866,
      "##hile": 7867,
      "mustn": 7868,
      "draught": 7869,
      "sets": 7870,
      "scant": 7871,
      "envy": 7872,
      "cliffs": 7873,
      "fug": 7874,
      "blush": 7875,
      "youthful": 7876,
      "faults": 7877,
      "loaded": 7878,
      "transfer": 7879,
      "spin": 7880,
      "prevail": 7881,
      "nobles": 7882,
      "brains": 7883,
      "combat": 7884,
      "##icious": 7885,
      "preserve": 7886,
      "##istry": 7887,
      "janet": 7888,
      "shalt": 7889,
      "gladly": 7890,
      "prosperity": 7891,
      "suitable": 7892,
      "stim": 7893,
      "conspir": 7894,
      "wishing": 7895,
      "elbow": 7896,
      "insects": 7897,
      "encouraged": 7898,
      "seize": 7899,
      "##ez": 7900,
      "christianity": 7901,
      "heb": 7902,
      "portug": 7903,
      "napoleon": 7904,
      "endeavoured": 7905,
      "##nut": 7906,
      "luke": 7907,
      "villain": 7908,
      "dreary": 7909,
      "mansion": 7910,
      "##arded": 7911,
      "adorn": 7912,
      "sanct": 7913,
      "pony": 7914,
      "burg": 7915,
      "boxes": 7916,
      "searching": 7917,
      "shepherd": 7918,
      "pour": 7919,
      "woo": 7920,
      "energ": 7921,
      "condemned": 7922,
      "cic": 7923,
      "friday": 7924,
      "phoe": 7925,
      "cheerfully": 7926,
      "vigorous": 7927,
      "##ieu": 7928,
      "surrounding": 7929,
      "catherine": 7930,
      "olive": 7931,
      "wol": 7932,
      "innocence": 7933,
      "likeness": 7934,
      "##berry": 7935,
      "alfred": 7936,
      "lect": 7937,
      "shells": 7938,
      "morris": 7939,
      "kit": 7940,
      "advised": 7941,
      "lasted": 7942,
      "lecture": 7943,
      "specially": 7944,
      "concent": 7945,
      "tack": 7946,
      "vine": 7947,
      "bea": 7948,
      "salvation": 7949,
      "bewildered": 7950,
      "manager": 7951,
      "contempor": 7952,
      "##lings": 7953,
      "##ica": 7954,
      "ding": 7955,
      "needn": 7956,
      "deaf": 7957,
      "wordsworth": 7958,
      "lew": 7959,
      "discont": 7960,
      "unwilling": 7961,
      "vary": 7962,
      "cens": 7963,
      "##eon": 7964,
      "lowest": 7965,
      "memories": 7966,
      "##break": 7967,
      "##ean": 7968,
      "##enses": 7969,
      "statue": 7970,
      "nod": 7971,
      "venet": 7972,
      "verd": 7973,
      "treaty": 7974,
      "drama": 7975,
      "##ban": 7976,
      "chanced": 7977,
      "trop": 7978,
      "discussed": 7979,
      "##amy": 7980,
      "metal": 7981,
      "lowered": 7982,
      "infinitely": 7983,
      "bills": 7984,
      "rapt": 7985,
      "suited": 7986,
      "funeral": 7987,
      "##rs": 7988,
      "upwards": 7989,
      "magazine": 7990,
      "oz": 7991,
      "rays": 7992,
      "eb": 7993,
      "##teenth": 7994,
      "improved": 7995,
      "halt": 7996,
      "wad": 7997,
      "##uke": 7998,
      "wilson": 7999,
      "marie": 8000,
      "##retion": 8001,
      "inspect": 8002,
      "vicar": 8003,
      "regards": 8004,
      "courtesy": 8005,
      "inconven": 8006,
      "##oral": 8007,
      "swore": 8008,
      "skull": 8009,
      "##mod": 8010,
      "grove": 8011,
      "awhile": 8012,
      "declined": 8013,
      "renewed": 8014,
      "dried": 8015,
      "##esar": 8016,
      "wheat": 8017,
      "tore": 8018,
      "hem": 8019,
      "declar": 8020,
      "notions": 8021,
      "hardy": 8022,
      "advise": 8023,
      "dost": 8024,
      "earthly": 8025,
      "waiter": 8026,
      "hoping": 8027,
      "armies": 8028,
      "cultivated": 8029,
      "israel": 8030,
      "peas": 8031,
      "avenue": 8032,
      "oars": 8033,
      "indef": 8034,
      "wan": 8035,
      "chambers": 8036,
      "plum": 8037,
      "favourable": 8038,
      "policeman": 8039,
      "wounds": 8040,
      "contrived": 8041,
      "perch": 8042,
      "affections": 8043,
      "##arts": 8044,
      "bitterness": 8045,
      "exult": 8046,
      "peep": 8047,
      "maggie": 8048,
      "nicholas": 8049,
      "vote": 8050,
      "dispute": 8051,
      "immortal": 8052,
      "caps": 8053,
      "##emy": 8054,
      "downstairs": 8055,
      "smallest": 8056,
      "##dale": 8057,
      "sack": 8058,
      "##igate": 8059,
      "slumber": 8060,
      "intol": 8061,
      "eighty": 8062,
      "linen": 8063,
      "##hand": 8064,
      "moan": 8065,
      "##oting": 8066,
      "japan": 8067,
      "seeming": 8068,
      "##oons": 8069,
      "sooth": 8070,
      "chau": 8071,
      "##iano": 8072,
      "architecture": 8073,
      "##iary": 8074,
      "females": 8075,
      "fruits": 8076,
      "##licted": 8077,
      "conject": 8078,
      "terrace": 8079,
      "patch": 8080,
      "##inge": 8081,
      "plunder": 8082,
      "trag": 8083,
      "province": 8084,
      "##uated": 8085,
      "analy": 8086,
      "lament": 8087,
      "pursue": 8088,
      "louise": 8089,
      "indisp": 8090,
      "pic": 8091,
      "endeavour": 8092,
      "##enz": 8093,
      "improvement": 8094,
      "cub": 8095,
      "##ounted": 8096,
      "anna": 8097,
      "##icable": 8098,
      "##eline": 8099,
      "jewels": 8100,
      "##iser": 8101,
      "tidings": 8102,
      "cris": 8103,
      "snake": 8104,
      "smiles": 8105,
      "##ictions": 8106,
      "obviously": 8107,
      "rot": 8108,
      "carpet": 8109,
      "temporary": 8110,
      "##utor": 8111,
      "liver": 8112,
      "abstract": 8113,
      "cove": 8114,
      "psy": 8115,
      "humb": 8116,
      "##bear": 8117,
      "##ourt": 8118,
      "purse": 8119,
      "il": 8120,
      "advoc": 8121,
      "prett": 8122,
      "offended": 8123,
      "perf": 8124,
      "hasty": 8125,
      "whistle": 8126,
      "commence": 8127,
      "accommod": 8128,
      "team": 8129,
      "frozen": 8130,
      "desirable": 8131,
      "marvell": 8132,
      "timber": 8133,
      "sermon": 8134,
      "keeper": 8135,
      "innum": 8136,
      "hood": 8137,
      "severely": 8138,
      "wept": 8139,
      "bee": 8140,
      "prevailed": 8141,
      "##laced": 8142,
      "fern": 8143,
      "appetite": 8144,
      "sunlight": 8145,
      "withdrew": 8146,
      "##rate": 8147,
      "judges": 8148,
      "ample": 8149,
      "ez": 8150,
      "permanent": 8151,
      "readiness": 8152,
      "fiery": 8153,
      "armour": 8154,
      "ranch": 8155,
      "testimony": 8156,
      "##ethe": 8157,
      "dissol": 8158,
      "remo": 8159,
      "transport": 8160,
      "highness": 8161,
      "firing": 8162,
      "announce": 8163,
      "leonard": 8164,
      "ec": 8165,
      "couch": 8166,
      "nowhere": 8167,
      "##alem": 8168,
      "una": 8169,
      "bour": 8170,
      "wire": 8171,
      "##yll": 8172,
      "encounter": 8173,
      "##okes": 8174,
      "sorr": 8175,
      "pend": 8176,
      "brandy": 8177,
      "martyr": 8178,
      "chat": 8179,
      "##nel": 8180,
      "het": 8181,
      "childish": 8182,
      "wildly": 8183,
      "##ini": 8184,
      "##icks": 8185,
      "accused": 8186,
      "substit": 8187,
      "greg": 8188,
      "##mouth": 8189,
      "mant": 8190,
      "errand": 8191,
      "addressing": 8192,
      "secrets": 8193,
      "compassion": 8194,
      "creek": 8195,
      "gord": 8196,
      "sickness": 8197,
      "fiction": 8198,
      "clasped": 8199,
      "loudly": 8200,
      "brad": 8201,
      "transm": 8202,
      "prayed": 8203,
      "ragged": 8204,
      "innumerable": 8205,
      "loos": 8206,
      "probability": 8207,
      "##ustrious": 8208,
      "crushed": 8209,
      "idol": 8210,
      "sticks": 8211,
      "thumb": 8212,
      "chiefs": 8213,
      "mou": 8214,
      "haught": 8215,
      "uncon": 8216,
      "neighborhood": 8217,
      "bending": 8218,
      "spoil": 8219,
      "##ixture": 8220,
      "stare": 8221,
      "earliest": 8222,
      "simpl": 8223,
      "expectation": 8224,
      "chronic": 8225,
      "orange": 8226,
      "##olph": 8227,
      "monot": 8228,
      "intentions": 8229,
      "tip": 8230,
      "flu": 8231,
      "dora": 8232,
      "chival": 8233,
      "disguise": 8234,
      "breathed": 8235,
      "lent": 8236,
      "##udge": 8237,
      "complexion": 8238,
      "planted": 8239,
      "bax": 8240,
      "satan": 8241,
      "imprison": 8242,
      "recognition": 8243,
      "betty": 8244,
      "danced": 8245,
      "##car": 8246,
      "##ighted": 8247,
      "gossip": 8248,
      "##xx": 8249,
      "rela": 8250,
      "manly": 8251,
      "sensitive": 8252,
      "link": 8253,
      "glittering": 8254,
      "courts": 8255,
      "towers": 8256,
      "administr": 8257,
      "fascin": 8258,
      "tune": 8259,
      "perish": 8260,
      "speedily": 8261,
      "##aur": 8262,
      "##ands": 8263,
      "glowing": 8264,
      "uncomfortable": 8265,
      "fitting": 8266,
      "pious": 8267,
      "jacket": 8268,
      "heroes": 8269,
      "formid": 8270,
      "##ev": 8271,
      "luxury": 8272,
      "thresh": 8273,
      "thanked": 8274,
      "purely": 8275,
      "cough": 8276,
      "dined": 8277,
      "upset": 8278,
      "avo": 8279,
      "dense": 8280,
      "##bel": 8281,
      "blunt": 8282,
      "mend": 8283,
      "forests": 8284,
      "##tes": 8285,
      "##orter": 8286,
      "stirring": 8287,
      "##aux": 8288,
      "ambit": 8289,
      "terribly": 8290,
      "protestant": 8291,
      "discl": 8292,
      "remonstr": 8293,
      "edgar": 8294,
      "guarded": 8295,
      "consented": 8296,
      "##unte": 8297,
      "snap": 8298,
      "longed": 8299,
      "behaved": 8300,
      "math": 8301,
      "shan": 8302,
      "worsh": 8303,
      "adding": 8304,
      "arrows": 8305,
      "impressions": 8306,
      "measured": 8307,
      "additional": 8308,
      "criminal": 8309,
      "milton": 8310,
      "scandal": 8311,
      "brows": 8312,
      "returns": 8313,
      "wonderfully": 8314,
      "elderly": 8315,
      "pag": 8316,
      "warrior": 8317,
      "humil": 8318,
      "recognize": 8319,
      "##ography": 8320,
      "emphas": 8321,
      "theod": 8322,
      "gasp": 8323,
      "##illes": 8324,
      "scent": 8325,
      "delicious": 8326,
      "hann": 8327,
      "tomorrow": 8328,
      "baggage": 8329,
      "deemed": 8330,
      "impatiently": 8331,
      "cyr": 8332,
      "appointment": 8333,
      "lifting": 8334,
      "##ills": 8335,
      "termin": 8336,
      "##gon": 8337,
      "wiser": 8338,
      "jungle": 8339,
      "winding": 8340,
      "pleasing": 8341,
      "volunte": 8342,
      "independence": 8343,
      "dazz": 8344,
      "wretch": 8345,
      "nom": 8346,
      "precaut": 8347,
      "happier": 8348,
      "mirror": 8349,
      "lil": 8350,
      "imagin": 8351,
      "pierre": 8352,
      "breach": 8353,
      "monster": 8354,
      "association": 8355,
      "##asting": 8356,
      "remembrance": 8357,
      "spy": 8358,
      "owen": 8359,
      "outline": 8360,
      "##entially": 8361,
      "roared": 8362,
      "males": 8363,
      "hired": 8364,
      "escort": 8365,
      "angle": 8366,
      "xi": 8367,
      "luxur": 8368,
      "eyebr": 8369,
      "##ria": 8370,
      "agitation": 8371,
      "reports": 8372,
      "conveyed": 8373,
      "unpr": 8374,
      "lodgings": 8375,
      "contains": 8376,
      "embrace": 8377,
      "management": 8378,
      "##inine": 8379,
      "##atus": 8380,
      "turk": 8381,
      "enlar": 8382,
      "provision": 8383,
      "miller": 8384,
      "apprehension": 8385,
      "alan": 8386,
      "##usalem": 8387,
      "talent": 8388,
      "packed": 8389,
      "trousers": 8390,
      "eg": 8391,
      "breathe": 8392,
      "##rane": 8393,
      "bundle": 8394,
      "rings": 8395,
      "englishmen": 8396,
      "deliberately": 8397,
      "shrewd": 8398,
      "avoided": 8399,
      "formidable": 8400,
      "weep": 8401,
      "190": 8402,
      "dramatic": 8403,
      "harder": 8404,
      "shouts": 8405,
      "##dled": 8406,
      "greeted": 8407,
      "fertilised": 8408,
      "tam": 8409,
      "substant": 8410,
      "dickens": 8411,
      "covering": 8412,
      "isle": 8413,
      "briefly": 8414,
      "rous": 8415,
      "vit": 8416,
      "lots": 8417,
      "##ainder": 8418,
      "droop": 8419,
      "shine": 8420,
      "justly": 8421,
      "nois": 8422,
      "primitive": 8423,
      "yach": 8424,
      "hereafter": 8425,
      "##ulus": 8426,
      "someone": 8427,
      "marm": 8428,
      "delicacy": 8429,
      "lyd": 8430,
      "acad": 8431,
      "caroline": 8432,
      "corpor": 8433,
      "awfully": 8434,
      "dilig": 8435,
      "##foot": 8436,
      "promises": 8437,
      "hoof": 8438,
      "merits": 8439,
      "decay": 8440,
      "az": 8441,
      "countrymen": 8442,
      "musical": 8443,
      "lamps": 8444,
      "gulf": 8445,
      "##isle": 8446,
      "wits": 8447,
      "justify": 8448,
      "creep": 8449,
      "desolate": 8450,
      "beggar": 8451,
      "178": 8452,
      "miracle": 8453,
      "unworthy": 8454,
      "prior": 8455,
      "feature": 8456,
      "remembering": 8457,
      "dismissed": 8458,
      "dispos": 8459,
      "jerusalem": 8460,
      "obli": 8461,
      "han": 8462,
      "frontier": 8463,
      "communic": 8464,
      "##combe": 8465,
      "interpre": 8466,
      "newly": 8467,
      "twisted": 8468,
      "dollar": 8469,
      "##nie": 8470,
      "vap": 8471,
      "undertake": 8472,
      "conspicuous": 8473,
      "conclude": 8474,
      "dale": 8475,
      "prairie": 8476,
      "woke": 8477,
      "whale": 8478,
      "crash": 8479,
      "surgeon": 8480,
      "cecil": 8481,
      "horns": 8482,
      "sternly": 8483,
      "sant": 8484,
      "heavenly": 8485,
      "shallow": 8486,
      "stricken": 8487,
      "hunters": 8488,
      "plough": 8489,
      "demands": 8490,
      "commercial": 8491,
      "subdued": 8492,
      "traff": 8493,
      "##ersed": 8494,
      "greatness": 8495,
      "porch": 8496,
      "preceding": 8497,
      "hey": 8498,
      "##soever": 8499,
      "##inese": 8500,
      "essay": 8501,
      "vex": 8502,
      "injust": 8503,
      "incapable": 8504,
      "slau": 8505,
      "amidst": 8506,
      "shudd": 8507,
      "##roll": 8508,
      "wax": 8509,
      "sheer": 8510,
      "mothers": 8511,
      "suspicious": 8512,
      "unnecessary": 8513,
      "##inery": 8514,
      "cæ": 8515,
      "whirl": 8516,
      "thereof": 8517,
      "metaph": 8518,
      "customs": 8519,
      "artificial": 8520,
      "supplies": 8521,
      "veins": 8522,
      "##itations": 8523,
      "##arks": 8524,
      "external": 8525,
      "protested": 8526,
      "damned": 8527,
      "witnesses": 8528,
      "preparation": 8529,
      "60": 8530,
      "remainder": 8531,
      "burns": 8532,
      "scenery": 8533,
      "ancestors": 8534,
      "dismay": 8535,
      "nell": 8536,
      "springs": 8537,
      "drunken": 8538,
      "irresist": 8539,
      "ability": 8540,
      "amazed": 8541,
      "##nest": 8542,
      "shocked": 8543,
      "##uk": 8544,
      "facult": 8545,
      "##assad": 8546,
      "filling": 8547,
      "attractive": 8548,
      "calculated": 8549,
      "ry": 8550,
      "##lor": 8551,
      "phant": 8552,
      "rupert": 8553,
      "favorite": 8554,
      "plates": 8555,
      "requires": 8556,
      "corrid": 8557,
      "crisis": 8558,
      "rebellion": 8559,
      "faster": 8560,
      "vin": 8561,
      "##urg": 8562,
      "defect": 8563,
      "##cile": 8564,
      "encamp": 8565,
      "costume": 8566,
      "commands": 8567,
      "destiny": 8568,
      "consolation": 8569,
      "sexes": 8570,
      "literally": 8571,
      "chinese": 8572,
      "reserved": 8573,
      "introduce": 8574,
      "threshold": 8575,
      "combined": 8576,
      "cel": 8577,
      "beautifully": 8578,
      "incom": 8579,
      "confirmed": 8580,
      "arnold": 8581,
      "vital": 8582,
      "sel": 8583,
      "exists": 8584,
      "##assed": 8585,
      "dow": 8586,
      "blaze": 8587,
      "moderate": 8588,
      "elegant": 8589,
      "faculties": 8590,
      "assisted": 8591,
      "surm": 8592,
      "dod": 8593,
      "effected": 8594,
      "novels": 8595,
      "widely": 8596,
      "facing": 8597,
      "flush": 8598,
      "consists": 8599,
      "provide": 8600,
      "lic": 8601,
      "haunt": 8602,
      "tossed": 8603,
      "highland": 8604,
      "roaring": 8605,
      "cautiously": 8606,
      "44": 8607,
      "##vial": 8608,
      "capit": 8609,
      "alongside": 8610,
      "secretly": 8611,
      "holmes": 8612,
      "withdraw": 8613,
      "sublime": 8614,
      "ced": 8615,
      "##thew": 8616,
      "##ouch": 8617,
      "expressions": 8618,
      "pines": 8619,
      "clearing": 8620,
      "travers": 8621,
      "hull": 8622,
      "##ference": 8623,
      "##stein": 8624,
      "unacc": 8625,
      "echoed": 8626,
      "pavement": 8627,
      "clothing": 8628,
      "adopt": 8629,
      "steven": 8630,
      "restraint": 8631,
      "moses": 8632,
      "##bra": 8633,
      "##imately": 8634,
      "representative": 8635,
      "outs": 8636,
      "robbed": 8637,
      "achieve": 8638,
      "##pence": 8639,
      "bodily": 8640,
      "##atisf": 8641,
      "fors": 8642,
      "##usal": 8643,
      "reasoning": 8644,
      "coldly": 8645,
      "##arine": 8646,
      "indignant": 8647,
      "commod": 8648,
      "flee": 8649,
      "curtains": 8650,
      "helping": 8651,
      "foam": 8652,
      "mainly": 8653,
      "discharge": 8654,
      "angrily": 8655,
      "cambridge": 8656,
      "haired": 8657,
      "breadth": 8658,
      "telegram": 8659,
      "##ithe": 8660,
      "retained": 8661,
      "ginger": 8662,
      "##kers": 8663,
      "congreg": 8664,
      "lodging": 8665,
      "unseen": 8666,
      "jury": 8667,
      "##gence": 8668,
      "cursed": 8669,
      "eagle": 8670,
      "##ping": 8671,
      "velvet": 8672,
      "asks": 8673,
      "rece": 8674,
      "allan": 8675,
      "columns": 8676,
      "dirt": 8677,
      "thor": 8678,
      "##lying": 8679,
      "hatch": 8680,
      "chorus": 8681,
      "slay": 8682,
      "floated": 8683,
      "legend": 8684,
      "mall": 8685,
      "facul": 8686,
      "guid": 8687,
      "jackson": 8688,
      "vag": 8689,
      "sheets": 8690,
      "pond": 8691,
      "grandmother": 8692,
      "convuls": 8693,
      "##ado": 8694,
      "barbara": 8695,
      "hospitality": 8696,
      "##fl": 8697,
      "whoever": 8698,
      "##vant": 8699,
      "stillness": 8700,
      "occupy": 8701,
      "faculty": 8702,
      "illustrated": 8703,
      "gy": 8704,
      "voc": 8705,
      "frightful": 8706,
      "gn": 8707,
      "bits": 8708,
      "dismal": 8709,
      "wig": 8710,
      "injustice": 8711,
      "tact": 8712,
      "##ggy": 8713,
      "strongest": 8714,
      "archie": 8715,
      "choos": 8716,
      "serene": 8717,
      "heathen": 8718,
      "esmond": 8719,
      "transform": 8720,
      "select": 8721,
      "grasped": 8722,
      "impuls": 8723,
      "commanding": 8724,
      "##ridge": 8725,
      "##wich": 8726,
      "shops": 8727,
      "clothed": 8728,
      "campbell": 8729,
      "despite": 8730,
      "eagerness": 8731,
      "respected": 8732,
      "heights": 8733,
      "xii": 8734,
      "##ients": 8735,
      "relieve": 8736,
      "psych": 8737,
      "thie": 8738,
      "vacant": 8739,
      "ellen": 8740,
      "##atically": 8741,
      "##urred": 8742,
      "physician": 8743,
      "##sar": 8744,
      "edmund": 8745,
      "flowing": 8746,
      "traitor": 8747,
      "shriek": 8748,
      "moist": 8749,
      "##lain": 8750,
      "gilbert": 8751,
      "hedge": 8752,
      "regularly": 8753,
      "institution": 8754,
      "seaman": 8755,
      "doom": 8756,
      "caesar": 8757,
      "##maid": 8758,
      "overhead": 8759,
      "spee": 8760,
      "quarre": 8761,
      "charlotte": 8762,
      "charms": 8763,
      "fret": 8764,
      "senor": 8765,
      "staircase": 8766,
      "prudence": 8767,
      "comprehend": 8768,
      "subsequent": 8769,
      "wist": 8770,
      "nerve": 8771,
      "bru": 8772,
      "placing": 8773,
      "worldly": 8774,
      "bestowed": 8775,
      "vaguely": 8776,
      "alleg": 8777,
      "tempest": 8778,
      "##rig": 8779,
      "felic": 8780,
      "pillow": 8781,
      "isaac": 8782,
      "locks": 8783,
      "moore": 8784,
      "speeches": 8785,
      "colony": 8786,
      "economy": 8787,
      "foster": 8788,
      "##inth": 8789,
      "honestly": 8790,
      "dealing": 8791,
      "org": 8792,
      "##vy": 8793,
      "marching": 8794,
      "strikes": 8795,
      "limb": 8796,
      "dares": 8797,
      "momentary": 8798,
      "institutions": 8799,
      "pom": 8800,
      "viz": 8801,
      "##ba": 8802,
      "##esses": 8803,
      "inspiration": 8804,
      "producing": 8805,
      "divide": 8806,
      "examples": 8807,
      "egyptian": 8808,
      "gust": 8809,
      "hare": 8810,
      "kenn": 8811,
      "##inement": 8812,
      "stew": 8813,
      "harmony": 8814,
      "tavern": 8815,
      "punish": 8816,
      "shrill": 8817,
      "##arl": 8818,
      "condes": 8819,
      "marrying": 8820,
      "sandy": 8821,
      "meadow": 8822,
      "corrupt": 8823,
      "conserv": 8824,
      "crazy": 8825,
      "hurriedly": 8826,
      "##keys": 8827,
      "phoebe": 8828,
      "medium": 8829,
      "cigarette": 8830,
      "furnish": 8831,
      "forem": 8832,
      "sylv": 8833,
      "decidedly": 8834,
      "unnatural": 8835,
      "analog": 8836,
      "dreaming": 8837,
      "##cerity": 8838,
      "images": 8839,
      "symbol": 8840,
      "rans": 8841,
      "slipp": 8842,
      "##spr": 8843,
      "benev": 8844,
      "rugged": 8845,
      "posts": 8846,
      "contest": 8847,
      "ghosts": 8848,
      "##utable": 8849,
      "consol": 8850,
      "tread": 8851,
      "invention": 8852,
      "atlantic": 8853,
      "##lo": 8854,
      "shared": 8855,
      "aroused": 8856,
      "dealt": 8857,
      "students": 8858,
      "largest": 8859,
      "##dling": 8860,
      "accus": 8861,
      "excurs": 8862,
      "assuredly": 8863,
      "wool": 8864,
      "machinery": 8865,
      "rational": 8866,
      "sentimental": 8867,
      "pencil": 8868,
      "edith": 8869,
      "practised": 8870,
      "bidding": 8871,
      "cordial": 8872,
      "eyebrows": 8873,
      "discom": 8874,
      "##dened": 8875,
      "piano": 8876,
      "susp": 8877,
      "extensive": 8878,
      "vigil": 8879,
      "pang": 8880,
      "##estion": 8881,
      "##anche": 8882,
      "payment": 8883,
      "balls": 8884,
      "darwin": 8885,
      "rack": 8886,
      "hail": 8887,
      "enjoying": 8888,
      "hounds": 8889,
      "loun": 8890,
      "devils": 8891,
      "background": 8892,
      "bast": 8893,
      "hed": 8894,
      "sunny": 8895,
      "scream": 8896,
      "lawrence": 8897,
      "unreason": 8898,
      "mask": 8899,
      "bernard": 8900,
      "tru": 8901,
      "brib": 8902,
      "bees": 8903,
      "destined": 8904,
      "dipl": 8905,
      "russia": 8906,
      "sympathetic": 8907,
      "dusk": 8908,
      "beatrice": 8909,
      "##ida": 8910,
      "impert": 8911,
      "##rical": 8912,
      "##wed": 8913,
      "##xter": 8914,
      "sag": 8915,
      "engra": 8916,
      "fist": 8917,
      "48": 8918,
      "bacon": 8919,
      "pump": 8920,
      "hats": 8921,
      "##court": 8922,
      "pacific": 8923,
      "unqu": 8924,
      "miriam": 8925,
      "warmly": 8926,
      "assented": 8927,
      "experiments": 8928,
      "behaviour": 8929,
      "##arn": 8930,
      "pleasantly": 8931,
      "ringing": 8932,
      "exclamation": 8933,
      "##ca": 8934,
      "meadows": 8935,
      "suspicions": 8936,
      "ul": 8937,
      "cavern": 8938,
      "accomplish": 8939,
      "pyr": 8940,
      "##erick": 8941,
      "##lie": 8942,
      "exhibited": 8943,
      "##thy": 8944,
      "polished": 8945,
      "ghast": 8946,
      "everl": 8947,
      "calif": 8948,
      "associated": 8949,
      "backed": 8950,
      "stalk": 8951,
      "grip": 8952,
      "cargo": 8953,
      "joint": 8954,
      "gordon": 8955,
      "cush": 8956,
      "clare": 8957,
      "venerable": 8958,
      "eloquence": 8959,
      "document": 8960,
      "maker": 8961,
      "commerce": 8962,
      "wiz": 8963,
      "barren": 8964,
      "scared": 8965,
      "owners": 8966,
      "galley": 8967,
      "seventeen": 8968,
      "formation": 8969,
      "appreciate": 8970,
      "##icians": 8971,
      "##ila": 8972,
      "##dal": 8973,
      "##urable": 8974,
      "fancies": 8975,
      "##ogue": 8976,
      "##reet": 8977,
      "ceremon": 8978,
      "morality": 8979,
      "margin": 8980,
      "swam": 8981,
      "recorded": 8982,
      "rue": 8983,
      "traces": 8984,
      "prudent": 8985,
      "tiger": 8986,
      "abode": 8987,
      "martha": 8988,
      "partial": 8989,
      "rend": 8990,
      "dragon": 8991,
      "strang": 8992,
      "tab": 8993,
      "paths": 8994,
      "specimen": 8995,
      "courte": 8996,
      "murray": 8997,
      "frenchman": 8998,
      "sports": 8999,
      "##hire": 9000,
      "chalk": 9001,
      "francisco": 9002,
      "##ocks": 9003,
      "pett": 9004,
      "sweetness": 9005,
      "responded": 9006,
      "breathless": 9007,
      "encountered": 9008,
      "buffal": 9009,
      "appearing": 9010,
      "neighbouring": 9011,
      "##minster": 9012,
      "hypocr": 9013,
      "betw": 9014,
      "sixth": 9015,
      "vigor": 9016,
      "stove": 9017,
      "quoted": 9018,
      "morton": 9019,
      "##uction": 9020,
      "chains": 9021,
      "flick": 9022,
      "lace": 9023,
      "rows": 9024,
      "mix": 9025,
      "enlight": 9026,
      "peculiarly": 9027,
      "totally": 9028,
      "comprom": 9029,
      "##aneously": 9030,
      "encouragement": 9031,
      "##ceptible": 9032,
      "invari": 9033,
      "lingered": 9034,
      "pomp": 9035,
      "californ": 9036,
      "poetical": 9037,
      "trifling": 9038,
      "stained": 9039,
      "godd": 9040,
      "artistic": 9041,
      "throb": 9042,
      "constable": 9043,
      "function": 9044,
      "scare": 9045,
      "simon": 9046,
      "coral": 9047,
      "pam": 9048,
      "crystal": 9049,
      "attained": 9050,
      "pushing": 9051,
      "captive": 9052,
      "muscles": 9053,
      "poll": 9054,
      "valleys": 9055,
      "interpret": 9056,
      "fragment": 9057,
      "fantastic": 9058,
      "mixture": 9059,
      "brace": 9060,
      "dwarf": 9061,
      "swallow": 9062,
      "explos": 9063,
      "situated": 9064,
      "bulk": 9065,
      "wreat": 9066,
      "##itably": 9067,
      "foli": 9068,
      "hanged": 9069,
      "xiv": 9070,
      "vile": 9071,
      "shapes": 9072,
      "mouths": 9073,
      "tenderly": 9074,
      "sprung": 9075,
      "greeting": 9076,
      "##ican": 9077,
      "feud": 9078,
      "##ulously": 9079,
      "feminine": 9080,
      "ambassad": 9081,
      "abundance": 9082,
      "fatigue": 9083,
      "invariably": 9084,
      "today": 9085,
      "##ih": 9086,
      "awaken": 9087,
      "mirth": 9088,
      "swallowed": 9089,
      "hunted": 9090,
      "gothic": 9091,
      "nun": 9092,
      "neighbors": 9093,
      "greeks": 9094,
      "nig": 9095,
      "crowned": 9096,
      "culture": 9097,
      "oft": 9098,
      "doings": 9099,
      "##inkled": 9100,
      "defin": 9101,
      "boughs": 9102,
      "liquor": 9103,
      "stake": 9104,
      "enqu": 9105,
      "marvellous": 9106,
      "##icket": 9107,
      "mic": 9108,
      "hug": 9109,
      "honesty": 9110,
      "lind": 9111,
      "pleaded": 9112,
      "exchanged": 9113,
      "condemn": 9114,
      "gloves": 9115,
      "failing": 9116,
      "adap": 9117,
      "sworn": 9118,
      "diplom": 9119,
      "bot": 9120,
      "##geons": 9121,
      "cardinal": 9122,
      "drown": 9123,
      "distrust": 9124,
      "##castle": 9125,
      "muff": 9126,
      "vind": 9127,
      "ascended": 9128,
      "diamonds": 9129,
      "bin": 9130,
      "superiority": 9131,
      "fen": 9132,
      "##rep": 9133,
      "ford": 9134,
      "prejudice": 9135,
      "tan": 9136,
      "yawn": 9137,
      "spots": 9138,
      "175": 9139,
      "temperament": 9140,
      "##sett": 9141,
      "potat": 9142,
      "declaration": 9143,
      "##spring": 9144,
      "canada": 9145,
      "plague": 9146,
      "heel": 9147,
      "##atha": 9148,
      "solution": 9149,
      "slack": 9150,
      "glare": 9151,
      "singularly": 9152,
      "ferdin": 9153,
      "mayor": 9154,
      "lazy": 9155,
      "protected": 9156,
      "##cut": 9157,
      "hymn": 9158,
      "navy": 9159,
      "betwixt": 9160,
      "inclination": 9161,
      "arc": 9162,
      "hears": 9163,
      "barely": 9164,
      "ferdinand": 9165,
      "unconsciously": 9166,
      "##atical": 9167,
      "dol": 9168,
      "disd": 9169,
      "pert": 9170,
      "thro": 9171,
      "##ucky": 9172,
      "bomb": 9173,
      "specimens": 9174,
      "examining": 9175,
      "squee": 9176,
      "torture": 9177,
      "expressing": 9178,
      "thurs": 9179,
      "guided": 9180,
      "anguish": 9181,
      "dies": 9182,
      "sult": 9183,
      "afore": 9184,
      "liable": 9185,
      "sque": 9186,
      "incredible": 9187,
      "##ester": 9188,
      "robe": 9189,
      "##oping": 9190,
      "##occ": 9191,
      "cousins": 9192,
      "scholar": 9193,
      "evolution": 9194,
      "forgetting": 9195,
      "claimed": 9196,
      "sic": 9197,
      "bliss": 9198,
      "rider": 9199,
      "invented": 9200,
      "ket": 9201,
      "reass": 9202,
      "carved": 9203,
      "welcom": 9204,
      "hurrying": 9205,
      "rosy": 9206,
      "herr": 9207,
      "twist": 9208,
      "##ials": 9209,
      "creeping": 9210,
      "route": 9211,
      "##oh": 9212,
      "tooth": 9213,
      "bigger": 9214,
      "tongues": 9215,
      "doctors": 9216,
      "dusty": 9217,
      "carelessly": 9218,
      "lugg": 9219,
      "uses": 9220,
      "sculpt": 9221,
      "##agues": 9222,
      "dignified": 9223,
      "##otto": 9224,
      "burke": 9225,
      "globe": 9226,
      "thursday": 9227,
      "##vent": 9228,
      "trun": 9229,
      "##olk": 9230,
      "discretion": 9231,
      "holland": 9232,
      "restore": 9233,
      "gregory": 9234,
      "fn": 9235,
      "battles": 9236,
      "##oked": 9237,
      "essentially": 9238,
      "instruction": 9239,
      "persisted": 9240,
      "asserted": 9241,
      "climbing": 9242,
      "##zes": 9243,
      "mouse": 9244,
      "##pelled": 9245,
      "offers": 9246,
[...]
