#version: 0.2
Ġ t
h e
č Ċ
Ġ a
i n
Ġt he
Ġ w
Ġ s
Ġ o
r e
n d
h a
e r
o u
Ġ b
i t
i s
e d
Ġ m
o n
e n
Ġo f
Ġ f
Ġ c
Ġt o
Ġa nd
in g
o r
e s
Ġ Ġ
l l
Ġ d
a r
a n
a s
Ġ p
Ġ in
Ġ h
a t
Ġ l
Ġ he
Ġ n
Ġ ha
o m
ha t
Ġ I
l e
Ġb e
o t
Ġ g
i c
o w
u t
v e
s t
s e
l d
l y
i m
i d
Ġ e
Ġt hat
Ġ y
Ġt h
g h
en t
Ġw as
c e
i on
Ġ it
a l
Ġo n
e t
a y
it h
v er
Ġy ou
i r
Ġ re
ĠĠ ĠĠ
Ġ u
Ġw h
Ġa s
Ġh is
u r
Ġf or
a d
Ġw ith
Ġ T
Ġw e
r o
gh t
he r
a c
Ġs t
Ġ is
r i
Ġha d
Ġn ot
Ġa n
ou ld
a m
t er
o o
- -
Ġa t
a nd
i ll
i f
k e
Ġhe r
Ġ M
a in
e c
Ġ A
Ġ S
c h
' s
Ġh im
Ġ H
Ġm e
re d
es s
Ġs a
o re
i l
Ġ "
t h
Ġs e
Ġs u
Ġha ve
ic h
t he
a ll
ĠT he
Ġs o
Ġ B
om e
r om
. "
g e
Ġ r
u l
p p
Ġb y
i ght
Ġb ut
Ġs he
Ġm y
q u
Ġwh ich
Ġa ll
Ġ k
Ġ C
t o
u s
es t
, "
Ġo r
a b
Ġu p
Ġs h
e l
re s
e m
ou r
Ġf rom
Ġc on
Ġsa id
Ġ W
an t
at ion
Ġth is
ou s
Ġd o
Ġthe y
u st
Ġw he
ar d
u n
Ġwe re
in d
Ġn e
Ġ v
er s
Ġe x
Ġm an
l f
ĠĠĠĠ ĠĠĠĠ
r a
ar t
ver y
Ġwh o
ou t
on g
Ġd e
e ll
as t
is t
o s
Ġn o
i e
ec t
Ġa re
ha n
Ġon e
o l
oo d
u m
Ġ P
Ġthe m
Ġs p
Ġw ould
Ġa l
at e
Ġl i
ou nd
am e
Ġk n
Ġ L
o p
ou gh
on e
T he
Ġthe ir
i g
n t
Ġbe en
Ġa b
a k
ow n
Ġ G
Ġthe re
p t
c t
Ġo ut
Ġw or
' t
it t
or t
oo k
Ġc om
Ġ D
Ġl e
r y
i ve
Ġw ill
Ġ F
v en
se lf
ĠH e
o st
re at
t her
u re
it y
o d
a g
ac k
Ġwhe n
Ġ if
Ġ E
id e
o se
a ce
e nd
f f
a ke
he d
Ġp ro
e ar
Ġg o
Ġp l
Ġw hat
Ġyou r
Ġc an
Ġ j
c k
Ġm ore
Ġan y
a u
a re
i es
? "
ĠM r
o nd
Ġa g
Ġ qu
Ġc ould
Ġs ome
Ġ N
Ġu n
h ing
as s
ab le
e p
Ġ R
Ġ O
Ġa m
Ġa r
im e
Ġt r
in e
w e
in k
w ay
en ce
v ed
o f
Ġin to
p l
is h
n g
Ġ very
an ce
f ore
ic e
ot her
it e
Ġo ther
itt le
Ġt han
Ġ ro
ur n
Ġ '
Ġu s
Ġf e
Ġkn ow
Ġ J
ou ght
p er
m ent
all y
w n
u d
Ġs ha
Ġha s
ad e
Ġli ke
ĠI t
a ge
Ġt w
f ter
b le
or d
i ous
Ġc l
c c
Ġd id
Ġn ow
u ch
ing s
o ve
ĠĠ Ġ
Ġse e
Ġl ittle
Ġ en
Ġt ime
Ġb r
Ġl ook
Ġs ay
Ġab out
a p
er t
Ġsh ould
Ġup on
ou nt
Ġo ur
Ġ im
i re
ic k
Ġ _
res s
b e
i le
Ġg r
Ġa d
at her
Ġto o
re e
t e
Ġd is
Ġag ain
u e
v es
Ġb l
Ġo ver
Ġg reat
v ing
nd er
Ġthe n
Ġha nd
n e
Ġc h
ac t
ĠB ut
if e
Ġon ly
Y ou
Ġd own
k ed
ion s
Ġd ay
i p
b l
ar y
â Ģ
Ġp r
o y
h is
Ġof f
u ll
Ġp o
n ess
ĠA nd
f ul
i ed
Ġth ink
Ġm uch
! "
o ll
Ġp er
Ġa fter
Ġg ood
w ard
Ġm ust
Ġit s
ad y
Ġf l
s p
at ed
Ġp art
Ġm ade
Ġa pp
Ġbe fore
i ld
Ġh ow
Ġtw o
f or
t hat
m an
ir st
Ġsu ch
ha r
Ġm ay
r an
o ld
r u
Ġo wn
Ġ 1
is e
ri ght
Ġs c
t y
Ġw ay
Ġp re
Ġo ld
Ġth r
Ġl ong
Ġre m
a ve
f t
Ġbe t
in t
or n
ĠĠĠĠĠĠĠĠ ĠĠĠĠĠĠĠĠ
c l
Ġne ver
Ġm en
n ot
b er
ac h
Ġs m
Ġc ome
is s
ar k
Ġm ight
w h
on s
Ġthe se
an s
Ġu nder
re n
Ġb ack
e red
he n
Ġc ame
Ġwe ll
Ġf irst
Ġe ven
Ġwhe re
Ġ (
i ly
os s
ri ed
Ġse em
an c
l ed
p s
a v
f e
Ġe y
ig n
Ġg l
Ġp e
Ġhe re
Ġth ought
Ġbe c
Ġhim self
Ġd es
Ġcon t
ou se
at h
Ġe very
e ver
s o
d e
s h
a ir
ĠS he
e w
H e
Ġl et
Ġcom p
l ess
I t
Ġs l
Ġg et
or y
om et
Ġm ake
Ġth ose
Ġsha ll
Ġp ass
Ġm ost
au se
Ġj ust
i v
Ġbe l
Ġ K
Ġl ife
ri end
. '
Ġl ast
Ġim p
a red
Ġw r
at er
Ġa way
o ck
it ion
Ġthr ough
he s
Ġw ent
t ed
ot h
Ġat t
Ġbe ing
Ġbe g
w ith
c i
g et
at ter
Ġ ke
ear s
ĠI n
en s
en ed
l and
Ġex p
i z
i gh
o g
as e
Ġc all
Ġcon s
Ġt urn
i an
Ġo b
i ble
a w
Ġyou ng
Ġst ill
Ġhe ad
Ġa cc
Ġp res
or s
Ġd on
Ġwor d
m er
ert ain
r ow
Ġe ar
Ġc our
op le
ul t
Ġre t
a il
Ġo p
e x
al k
g ed
Ġt ake
Ġwith out
Ġre p
en er
Ġman y
Ġey es
Ġ V
ĠS t
Ġf riend
c on
Ġf ound
A nd
, '
w as
re t
Ġt ell
Ġw ant
Ġha r
th ing
ak ing
Ġth ough
Ġwor k
l i
m e
an g
in ce
Ġwh ile
Ġy et
' ll
m ed
Ġcom m
Ġf ar
Ġe ver
ation s
Ġ right
j ect
Ġ ent
Ġw om
Ġe nd
t ing
om ent
Ġf ace
b ut
ic al
he re
Ġs ame
u p
se l
Ġ You
Ġs omet
Ġp ut
ent ly
c om
Ġm ind
ic t
l es
Ġon ce
o ver
s s
way s
Ġnot hing
Ġm ar
h y
c ed
Ġpl ace
Ġs er
ow er
B ut
Ġsu pp
y ou
is hed
ĠThe y
n er
Ġd ist
. .
o b
ow ed
ĠMr s
m ost
Ġc ar
op e
i a
Ġsp e
Ġpe ople
Ġne w
p le
a id
i al
Ġre s
Ġin t
Ġan s
it her
ĠThe re
Ġm oment
Ġh ouse
d en
od y
Ġc ount
s u
Ġn at
i x
re st
Ġsa w
Ġg ot
Ġn ight
Ġhe art
Ġa c
Ġle ft
u nd
Ġth ings
m s
Ġs et
E R
Ġf ind
, --
ain ed
Ġb o
Ġan other
Ġlook ed
Ġth ing
Ġfe el
Ġd ec
Ġp le
k s
ut h
Ġd if
Ġwor ld
Ġc har
m y
oo l
ĠW e
ce pt
ct ion
a pt
Ġin st
ir l
im es
Ġc han
u al
re w
Ġl ight
g g
Ġs ec
in ed
v ent
Ġp ers
Ġseem ed
Ġf ather
it s
âĢ Ļ
Ġl ove
Ġsu b
we en
Ġd one
Ġbel ie
b y
Ġal ways
Ġtoo k
in ess
ĠE ng
Ġg ive
Ġf oll
c hed
n ing
Ġas ked
au ght
Ġth ree
ro ss
Ġf ell
ul ar
Ġch ild
is ed
ow s
Ġgo ing
Ġc ha
' d
a le
ĠC h
Ġk ind
Ġw ar
Ġfe w
Ġbet ter
Ġha pp
Ġs w
Ġg i
pp ed
Ġst r
p r
Ġe m
Ġagain st
a ut
Ġin d
Ġs ur
Ġhe ard
en se
Ġkn ew
Ġqu ite
Ġto ld
el t
d er
Ġs ide
Ġret urn
ha d
o ot
ha ps
i b
Ġs at
Ġre l
ff ect
get her
Ġ Y
Ġc r
Ġc ertain
Ġw a
Ġg u
Ġp oss
i red
ot t
Ġhand s
ĠG od
it ed
Ġre c
Ġre ad
ter s
Ġcour se
ull y
Ġen ough
ou b
Ġse en
Ġy ears
ak en
Ġre g
Ġro om
i er
Ġ čĊ
Ġsomet hing
Ġre st
Ġb oy
Ġha lf
os ed
sel ves
a pp
l ing
Ġso on
ĠI f
ward s
Ġb re
an y
Ġm atter
n o
Ġr ound
Ġne ar
wh ich
Ġhar d
Ġw ind
Ġbet ween
i et
Ġg irl
Ġ 2
Ġcon f
o ice
in s
Ġam ong
ver s
Ġo cc
Ġd el
Ġwho le
Ġbec ause
Ġwom an
Ġh our
as on
Ġe ach
Ġh ome
Ġdo or
at t
ra ve
ain t
p e
n ow
u res
Ġg ener
at ch
Ġal so
ĠT his
Ġst re
ĠT h
Ġa ct
d u
Ġwh om
Ġc le
Ġs il
ar s
Ġn ame
ent s
ĠThe n
Ġc o
ut e
Ġb ro
Ġn or
m en
orn ing
Ġke ep
Ġp ur
g er
ent le
ĠĠĠĠ Ġ
Ġc are
a z
Ġh um
Ġb est
s er
ĠA s
Ġme an
' m
en c
st and
Ġb oth
Ġm other
Ġm in
er n
Ġpo int
Ġc ur
Ġad d
W hat
h im
on t
Ġple as
Ġdis c
Ġsu re
x t
o ke
Ġin ter
at ing
Ġal most
ĠĠĠĠ ĠĠ
' ve
Ġas s
as ter
Ġ ri
ab ly
ow ing
b r
H E
oub t
l ish
S he
Ġl ess
ĠM iss
Ġst e
Ġc he
Ġd ra
re m
Ġ U
d ay
Ġha ving
Ġpo or
p h
Ġdo es
g r
te rest
er ing
Ġst and
ate ly
re nt
Ġsm all
Ġmy self
ou d
sp ect
Ġpres ent
ie f
Ġe l
Ġf elt
Ġf act
Ġturn ed
Ġex t
Ġhe l
k en
al s
Ġt er
Ġcount ry
ĠH is
en e
Ġs ent
Ġday s
Ġcall ed
Ġf am
am p
Ġb us
_ ,
f ort
The re
Ġh or
Ġr ather
ĠW hat
at es
Ġd ark
f l
Ġ [
Ġhe ar
Ġl o
Ġw ater
one y
un g
Ġs ince
Ġu nt
in c
we red
Ġop en
Ġt ill
Ġre f
Ġbeg an
est ion
Ġm orning
t on
Ġm o
p ro
ain s
Ġt alk
Ġm on
I n
Ġl and
ĠT hat
Ġword s
Ġg ave
Ġst ood
e y
ran ge
Ġs k
Ġad v
Ġl ar
f ully
W e
ĠJ o
u bl
Ġv is
Ġin de
ĠA n
Ġe v
Ġde ar
Ġb u
ĠF or
Ġar t
Ġany thing
w hat
ĠB r
Ġh igh
Ġhow ever
er y
ha ve
Ġin c
Ġd oubt
Ġv oice
un t
M r
ĠL ord
Ġne xt
ce i
Ġg entle
apt ain
k ing
re ad
ment s
Ġbelie ve
p art
ir d
et h
N o
us ed
Ġf ore
Ġans wered
ou th
Ġcan not
Ġbr ought
ou l
ud e
ou n
r ist
Ġu se
Ġw ond
? '
ie ld
Ġg one
Ġt aken
Ġne ed
s he
an k
ress ed
Ġn ec
Ġher self
Ġpers on
ant s
id er
it ies
Ġ1 8
-- --
t en
T hat
Ġf all
it ing
ar n
ĠW hen
u red
Ġbe aut
h n
Ġinde ed
Ġf ull
Ġad m
f ect
w or
ĠS ir
ac es
Ġin terest
ur ing
ĠS o
ĠA t
. _
f ic
Ġspe ak
ve l
et s
Ġp ower
e e
ĠM ar
Ġs ir
ent ion
Ġsu n
Ġbe h
as h
ce ed
Ġt e
Ġunt il
Ġs im
os ition
u b
Ġwh ite
Ġl ay
Ġtr ue
ĠA r
Ġh ope
Ġf r
Ġ ide
Ġa w
Ġh on
u ck
Ġhel p
em pt
Ġcont in
d den
Ġle ast
Ġc ond
b ed
Ġr un
Ġper haps
ĠT o
the y
is on
Ġt ri
W ell
re ady
Ġa ir
ag es
ie w
u ally
Ġto gether
a im
c le
et er
Y es
Ġw ife
O h
ect ed
O N
s ide
Ġstr ong
the re
is ter
Ġsu ff
Ġ es
ra ce
i ence
ac hed
Ġal ong
b ody
Ġs ort
Ġother s
w er
Ġl ady
Ġl au
Ġf ire
Ġc ol
Ġc ried
ĠEng lish
Ġsu dden
Ġdif fe
anc es
i ent
Ġsp ir
ha m
Ġwho se
ren ce
Ġgi ven
Ġs le
id es
Ġpl ay
Ġm oney
y ing
ĠA l
u g
c ri
pl ied
und red
Ġf our
end ed
u c
Ġh old
Ġl aw
Ġde ep
w here
Ġpass ed
Ġfor m
id ent
Ġc ase
if ic
Ġfe et
li ke
Ġthem selves
Ġrem em
Ġd r
Ġpre t
Ġbl ack
Ġsay s
Ġlar ge
Ġser v
ak es
f rom
t s
w ell
re am
Ġd ire
Ġre al
th ough
Ġ 3
Ġex c
in es
Ġlook ing
Ġpro p
Ġde ath
o or
ĠO n
sh ip
ĠN o
Ġle ave
id ed
Ġsh ort
Ġre ason
ious ly
le y
Ġse a
Ġf ur
Ġal one
Ġbeh ind
Ġa ff
an e
le ct
Ġqu estion
The y
th is
u ght
cei ved
Ġde ad
Ġp ri
Ġ *
Ġf a
ard s
Ġb ook
ĠP r
Ġcl ose
Ġst art
Ġre ally
ac ed
at ive
I N
Ġp rom
I I
' re
Ġo pp
u se
Ġwh y
Ġg re
ent y
ĠW h
Ġsp ec
o c
e ared
Ġs ing
Ġab ove
Ġst ru
The n
Ġs ound
H A
ot e
s on
r ing
w ould
Ġm et
Ġunder stand
Ġf ear
! '
Ġwhe ther
Ġw ish
Ġp ol
Ġf in
a ven
te red
en g
u ed
Ġe as
al ked
Ġs we
the m
e k
il ity
er c
Ġre plied
Ġof ten
ubl ic
if ul
ry ing
Ġgr ound
for m
Ġb ed
Ġc ir
we re
a h
ill ed
Ġh undred
ur al
-- "
Ġab s
Ġd ro
Ġkn own
or row
Ġ ill
ĠJo hn
Ġin v
T his
Ġd ri
ac ter
Ġto wn
Ġm is
aught er
Ġbr other
ĠCh rist
Ġman ner
. ]
Ġn um
Ġb ur
ar ing
Ġcom ing
il ed
Ġtr uth
il es
Ġlet ter
le t
Ġ ed
Ġal ready
Ġs ign
Ġl ad
s c
ĠA ll
0 0
Ġme et
am es
n y
I f
T ER
Ġwith in
Ġnat ure
Ġit self
o int
Ġs on
Ġel se
Ġto wards
at s
Ġfriend s
ut ion
. --
Ġsub ject
Ġs y
Ġde p
A N
Ġex pl
ro om
Ġor der
Ġr an
ove red
Ġf air
Ġli ve
Ġth us
Ġme ans
e v
Ġt imes
he ad
t r
ĠI nd
itt ed
) ,
Ġc or
Ġm od
st r
ess ion
Ġsec ond
a j
ĠH ow
Ġth ou
âĢ ľ
Ġsupp ose
is m
ne y
A R
the ir
Ġy ear
Ġe ffect
Ġob ser
ĠL ady
ous and
Ġsh ip
b it
g in
ur ch
Ġbus iness
as ion
Ġl ost
Ġnec ess
e ad
Ġwond er
Ġus ed
n ight
at ure
it er
Ġs oul
Ġreturn ed
Ġas k
Ġcle ar
Ġin s
ou ble
Ġme re
u ff
Ġt re
ĠK ing
on y
Ġor d
id ence
wh o
Ġt en
Ġbr ing
u nder
h il
ver al
ĠM y
Ġqu iet
Ġe ither
Ġey e
âĢ Ŀ
ĠH er
c um
E N
Ġapp ear
Ġhum an
Ġw alk
Ġb ad
h ow
Ġh ur
Ġb ody
ur y
ĠS p
c o
Ġke pt
Ġw ild
ic ular
b and
Ġhe ld
et y
Ġp ar
st er
itt ing
Ġper fect
Ġchild ren
ren ch
Ġs ense
Ġl ow
Ġob ject
is ing
d o
w ill
Ġde f
p ar
Ġw ood
ress ion
ĠI s
Ġc ap
re l
Ġle a
_ .
A s
Ġs ix
a x
Ġb ar
Ġs ight
iz ed
Ġsu m
Ġans wer
Ġre d
i ans
Ġcons ider
ĠC l
l ook
Ġw all
Ġw on
p ed
us h
Ġst range
ĠT HE
Ġar m
ĠEng land
Ġth y
Ġde v
ĠN ow
ing ly
Ġl ist
Ġspir it
ĠB e
i ally
Ġst ate
Ġgener al
Ġac ross
c ap
Ġre spect
Ġfell ow
Ġfam ily
un e
Ġwom en
M y
Ġf oot
Ġb es
d is
Ġk ing
O R
Ġhor se
Ġposs ible
in ation
Ġcomm on
Ġv iew
Ġsh ow
air s
us s
Ġv ar
ic es
Ġm aking
Ġde al
Ġin f
m on
Ġp at
E S
Ġp a
Ġchar acter
is f
Ġ ir
i ar
Ġfor t
mer ic
Ġle ad
Ġeven ing
us band
Ġab le
Ġseem s
Ġear th
Ġs ch
Ġo ught
ri e
Ġd em
W hen
Ġp ast
Ġp ain
Ġbec ome
Ġpro f
n ed
Ġdif fic
Ġb it
on es
ĠS c
Ġme m
ag ed
l ight
ow ers
Ġse veral
Ġgl ad
v al
Ġdid n
Ġm ount
Ġc ut
Ġthere fore
in ct
ant ly
Ġpro per
Ġide a
r ic
ang er
are nt
Ġm id
Ġth ousand
Ġt ou
ĠH ar
Ġs it
Ġex cept
Ġr a
Ġdec l
Ġf ree
Ġ Q
Ġqu ick
o ff
ond on
Ġsl ow
al th
Ġf ive
d le
Ġcon c
Ġ ut
Ġbl ood
ct or
c hes
Ġre ady
Ġro ad
S o
c es
c ons
Ġc a
Ġbeg in
b o
Ġar ri
Ġm ist
Ġacc ount
Ġdiffe rent
Ġst ory
Ġy e
w hen
Ġpro b
Ġbec ame
s ome
ut es
em ent
Ġt able
i ves
Ġc old
m p
ha nd
Ġsur pr
ter n
Ġb ig
m ore
Ġsp oke
Ġapp ro
Ġsle ep
Ġex cl
Ġ .
im ent
or ge
al ity
g es
c ious
Ġj ud
g o
bl ed
Ġremem ber
p ose
ot s
as ed
it ude
Ġwor th
ĠW ith
uth or
Ġro se
i ver
Ġpro du
Ġen g
T o
Ġar ound
Ġgo ld
Ġw atch
i i
N ow
Ġe qu
Ġbre ak
Ġ X
ĠĠĠĠĠĠĠĠĠĠĠĠĠĠĠĠ ĠĠĠĠĠĠĠĠ
Ġst ep
y ond
f ra
Ġ 4
T h
Ġpart y
Ġfor g
ĠG e
Ġf av
Ġfoll owed
ran k
if f
Ġgentle man
c ome
Ġsu cc
Ġp ay
Ġt ra
be en
in ter
Ġ est
our s
W hy
Ġdra w
th s
led ge
ĠO f
Ġst o
Ġf ig
Ġro ck
ar ch
if t
or m
Ġd uring
Ġp ublic
Ġpret ty
Ġle arn
Ġar ms
Ġd ut
Ġfeel ing
Ġim ag
ri age
H ow
att le
c an
ĠN ew
Ġhe av
Ġc e
Ġc ent
el s
Ġf ight
Ġc ross
ĠF rench
p re
Ġf ine
Ġh usband
med i
A t
Ġbeaut iful
Ġfor ward
im p
s m
re ed
Ġsudden ly
ĠB y
Ġapp eared
Ġst ay
Ġst ri
Ġoff ic
ĠA meric
Ġcon st
Ġpart icular
Ġst ud
g ing
Ġm ur
Ġocc asion
Ġthe e
Ġdire ct
C HA
ĠD o
anc y
g l
W h
) .
Ġl ine
Ġst ra
um p
Ġc ast
Ġcomm and
Ġse lf
Ġt em
Ġm ove
Ġadd ed
e al
am ent
g y
i or
in ner
res ent
Ġqu ar
ist s
Ġe le
Ġha ir
cum st
ĠL ondon
Ġdo ing
ĠU n
r act
Ġsc ar
c our
o e
aim ed
Ġd ream
ĠN or
fra id
Ġp ort
ous ly
F or
Ġcontin ued
Ġs qu
us hed
in ary
P TER
c ould
ound ed
w o
Ġex am
ĠW ill
res h
ĠC aptain
pp er
id ge
h ouse
ir t
Ġcomp le
ot ion
ĠC ol
Ġle g
N ot
Ġl ed
Ġre qu
Ġh ill
to gether
Ġm us
Ġc al
ess ed
Ġse nd
Ġl ate
Ġt aking
Ġso ci
Ġu nd
ĠB l
l s
Ġex per
il t
ĠT om
Ġso ld
itt en
âĢ Ķ
Ġhapp y
Ġcom es
ru pt
Ġsomet imes
if ied
Ġa ffect
Ġreg ard
Ġso ft
Ġbe yond
a ld
Ġm ine
Ġcertain ly
l er
ain ing
ĠĠĠĠ ĠĠĠ
Ġfr ont
Ġr u
Ġsec ret
en ing
Ġlau gh
g u
Ġd iv
Ġd anger
Ġhour s
Ġb right
Ġh ot
in ing
Ġ ve
Ġchan ge
Ġac qu
ĠO ne
ound s
ic s
b ert
Ġn one
Ġc oll
Ġop in
u ct
Ġpl ain
con t
O n
oss ible
Ġb ene
us ion
Ġch ief
ist ed
Ġfur ther
Ġb reat
Ġcar ried
Ġvis it
Ġimp ort
ver n
r on
Ġan im
Ġri ver
s ha
Ġv ill
re g
Ġwant ed
Ġyour self
ĠD e
Ġpro v
ou red
Ġen em
CHA PTER
Ġd et
ie ce
Ġevery thing
Ġs n
d d
ĠC om
Ġdis p
b ers
. ,
Ġwr ong
ir m
iz e
anc ed
r ance
Ġtw enty
Ġnat ural
r or
ha s
Ġlong er
Ġfa ith
Ġh op
se qu
Ġtr ust
Ġd aughter
Ġf ail
Ġsay ing
r ay
Ġbo at
I S
c he
Ġre ached
ĠN ot
it ions
a fter
Ġm aster
Ġboy s
i am
est ed
Ġsat isf
Ġan x
Ġdo g
qu e
Ġso l
Ġv al
Ġnear ly
Ġt ry
Ġa fraid
Ġt ried
Ġnum ber
Ġes cap
Ġchan ce
Ġcom fort
Ġha st
Ġre ceived
Ġwind ow
ĠO F
sh ould
ar r
Ġd est
S t
Ġswe et
Ġc ause
Ġp ict
Ġa ge
Ġa uthor
m in
ex p
Ġt end
Ġc reat
Ġset t
Ġdel ight
Ġc ity
Ġhard ly
Ġfor ce
i us
har d
ic ally
ce ive
Ġcomp an
ĠC har
ce nd
ll ed
o ly
eng th
Ġs ad
Ġc orn
Ġl ater
Ġsch ool
k es
i ol
Ġsha d
p ec
ab out
Ġp osition
the n
ĠL e
Ġear ly
Ġsa il
y our
j oy
Ġatt empt
Ġw alked
ect ion
Ġmin utes
Ġsucc ess
b ec
Ġwh is
Ġbe ar
as k
Ġf ool
se t
enc es
ĠP ar
Ġtr ouble
ust om
u es
Ġag o
Ġsl ight
Ġop ened
Ġrem ark
um e
Ġj o
Ġpri v
Ġli ving
Ġsu gg
s aid
Ġsil ence
Ġw it
i o
Ġexp ect
h ood
Ġm ag
Ġpr ay
ri ble
igh b
Ġf ast
on el
ag er
Ġpr act
Ġcha ir
fl u
iss ion
er v
ac y
w ise
Ġs ister
b s
Ġha t
Ġfor th
ĠE d
Ġnecess ary
Ġsu per
ick ed
Ġsp o
Ġsm ile
c ent
Ġin qu
ri es
Ġm outh
Ġt rave
k n
e ed
in to
Ġhis t
b el
D o
ĠGe orge
Ġe ff
ang u
m ing
Ġpur pose
.. ..
ol ute
u ke
Ġf if
ĠW hy
oo se
r it
id ing
Ġw at
Ġpr ot
ĠĠĠĠĠĠĠĠĠĠĠĠĠĠĠĠ ĠĠĠĠĠĠĠĠĠĠĠĠĠĠĠĠ
Ġme ant
Ġl aid
c ount
Ġm ad
Ġ 5
ix ed
Ġv ol
ag ain
f er
l ittle
ive ly
Ġl ab
p ly
g hed
Ġm iles
j ust
pp ing
d om
og n
ec h
t ime
ors es
Ġent ered
Ġcir cumst
ĠL et
ĠHe re
L E
Ġpleas ure
r ough
Ġs ens
Ġtr ans
Ġ1 7
om an
Ġp al
st ood
Ġscar ce
Ġthink ing
as es
ce ll
Ġdut y
Ġdist ance
Ġg rave
as ure
he l
t han
up on
Ġb ird
Ġent ire
i ers
Ġl ength
i ke
Ġy es
row d
eter m
Ġslow ly
v ol
Ġacc om
Ġne ither
Ġheav y
Ġget ting
wh ile
Ġpe ace
Ġwe ek
Ġdes p
Ġbro ken
ĠC ar
z e
Ġsa ve
Ġknow s
op s
Ġd a
Ġw is
Ġpr inc
Ġli ved
Ġli ps
enc y
se m
Ġt ro
Ġdes cri
ng th
res p
d es
Ġt reat
ĠW ell
Ġbl ue
ard en
Ġim medi
f ace
Ġl ord
fe rence
Ġprob ably
Ġgr and
Ġstand ing
ust r
ĠP ro
Ġexcl aimed
ra w
Ġdis app
Ġtre es
Ġstru ck
Ġex act
o om
Ġj oy
c han
Ġa v
b et
Ġhapp ened
g an
am ed
o le
bl ing
ĠO r
ad ed
Ġp ost
Ġpro ceed
ĠR e
I s
Ġto p
ĠG er
ch ing
Ġd ie
Ġacc ord
g reat
Ġsa fe
Ġyou th
Ġeas y
Ġch urch
Ġ ver
A ll
Ġm or
A T
ol og
ener al
c ertain
Ġcomp any
com p
Ġopin ion
il ing
Ġrep e
com m
l ong
Ġgre en
A n
Ġpo et
Ġm akes
be fore
Ġo bl
ran g
Ġe ight
A L
a ff
Ġd ied
O U
c ha
i res
Ġd inner
Ġwe ak
ĠM ary
Ġknow ledge
Ġd rew
Ġd ress
Ġpre p
Ġsha r
is es
Ġcon v
Ġg un
ĠD ick
Ġsto pped
no on
Ġwr itten
os p
ay s
ur s
Ġpr ison
ir ty
Ġs al
Ġcl ass
e ks
at he
o es
or ies
Ġrem ained
m a
Ġin cl
ĠB ar
Ġde g
iv id
Ġl ie
Ġgo vern
Ġwr ite
Ġc aptain
pl es
Ġhe aven
ash ion
Ġex ist
T HE
Ġc ry
Ġal though
Ġac cept
o red
en ess
ell ow
n est
Ġh ig
ĠO h
Ġlau ghed
ul ty
ex t
Ġp en
n a
Ġf ield
Ġr ich
Ġto r
ĠThe se
Ġb ott
pl ace
Ġne ighb
f ast
w ood
Ġan n
Ġm ention
ĠBr it
Ġs itting
ĠD r
o ved
Ġt one
. )
Ġcom pl
Ġserv ice
Ġcon vers
Ġm ark
Ġc rowd
Ġcour t
ĠA d
Ġpa per
pec ially
ĠS e
Ġm erc
Ġj our
Ġsil ent
ar m
d y
Ġpl an
Ġbel ow
; --
Ġres ult
Ġbu ild
Ġwhat ever
un ity
W ith
Ġo ri
rie f
Ġus ual
Ġfoll owing
Ġan g
re qu
O f
Ġsh out
k now
Ġl atter
in a
Ġc aught
Ġh orses
Ġstra ight
m n
ĠC on
are r
ac hing
ro ad
Ġint ell
ĠA fter
Ġhon our
Ġis land
a ul
Ġg all
Ġsh ore
Ġdiffic ult
ĠG r
ib ly
is hing
ĠF l
ha pp
Ġc amp
act ion
Ġfig ure
Ġ 6
ne w
se e
Ġthought s
Ġf ut
ri ll
Ġstre ngth
pl oy
Ġt rem
Ġfor get
ar row
iet y
is ion
Ġdes ire
or ry
Ġmo ved
Ġf resh
Ġbeaut y
ne ver
Ġb ound
Ġgr ow
Ġen joy
Ġl im
Ġwar m
Ġfoll ow
Ġcon cl
ock ed
Ġbro ke
Ġm ed
Ġwa it
Ġw ide
Ġbo ard
Ġlo ved
Ġg rew
b ur
Ġg az
st on
be red
se c
m orrow
Ġth ick
I T
it al
os ing
g ar
Ġt ree
Ġfor mer
Ġd en
ous es
Ġcar ry
on ly
i od
Ġdem and
him self
ic ed
ort ed
Ġnot e
Ġsing le
Ġe at
Ġsh owed
Ġsp ot
Ġf ing
i vers
Ġdr ink
th ought
Ġ âĢľ
iv il
Ġgo es
Ġd eterm
Ġsome what
ve re
er haps
ord s
d own
Ġnew s
Ġin flu
Ġmar ried
Ġd read
Ġsee ing
Ġmon ths
Ġenem y
bl es
Ġgreat er
Ġocc up
ot hes
Ġrel ig
te en
ar ked
Ġpl aced
Ġatt ack
hy s
Ġto ward
Mr s
c ar
Ġori gin
Ġbel ong
R E
Ġb urn
ĠS am
Ġinst ead
Ġim m
Ġatt ention
ĠD on
z en
Ġpol it
est y
ci ent
o on
s y
Ġc ab
Ġst one
Ġexp ected
Ġcont r
Ġl angu
Ġc re
end ing
un k
Ġpres ence
Ġstart ed
or k
ul iar
e very
Ġmere ly
e ven
Ġs ac
Ġp ull
f ather
Ġar my
m it
Ġno ble
u ous
Ġgl ass
ĠM ad
u ly
Ġrem ain
Ġcl oud
b re
t ic
Ġwa iting
Ġimp ossible
Ġm ass
aj or
Ġev il
ĠS ome
k ind
re me
ott en
Ġappear ance
Ġcomple te
he art
th ink
Ġe vent
Ġlike ly
est s
Ġp ec
Ã ©
Ġf at
ide red
ĠJ ack
it ation
Ġlet ters
Ġlad ies
H is
f ord
Ġbreat h
p ass
ill y
Ġm er
Ġpleas ant
Ġfav our
Ġstre et
b ack
Ġeff ort
Ġf it
I L
Ġc ru
z z
s omet
Ġsa v
c ceed
Ġs now
ent ed
re y
n ers
Ġh ung
p ri
Ġsc ene
r id
ur ope
Ġres ol
it ary
Ġr ap
ro y
Ġsim ple
ĠA m
ĠR ob
Ġso le
ro du
le nd
ĠĠĠĠĠĠĠĠ Ġ
al es
r is
at ic
Ġh un
h old
Ġv iol
Ġpl aces
ll ing
all ey
u ge
Ġhist ory
.. .
Ġrec ogn
g ood
Ġem b
Ġsuff ic
for med
ĠP eter
Ġarri ved
Ġp ap
ĠM an
Ġtalk ing
Ġgu ard
Ġsh ook
Ġexp ression
Ġg race
Ġcircumst ances
Ġobser ved
Ġfut ure
or ough
Ġwould n
Ġra ised
Ġocc ur
e en
ag ue
A h
r s
Ġbes ide
Ġp op
Ġ Z
Ġpass ion
Ġut ter
Ġr id
Ġf al
Ġwor se
n at
im ate
Ġc oun
j o
Ġc ou
p ers
Ġsh ot
Ġ |
L et
Ġsk y
re et
Ġafter noon
ĠH en
Ġal together
wor th
Ġspe aking
Ġexp ress
m ight
Ġple ase
Ġafter wards
D on
Ġmin ute
Ġm ess
kn own
Ġf illed
A l
Ġf ancy
Ġbro ad
Ġgi ving
Ġs in
Ġvill age
ri but
Ġdo ctor
Ġ er
E L
Ġk iss
ast e
d id
Ġf le
e an
Ġs orry
Ġsurpr ise
c r
Ġne g
âĢ ĺ
Ġinc re
ud ed
Ġun cle
d ist
ru ct
Ġbegin ning
m uch
ĠF rom
Ġd im
Ġstre am
Ġbook s
Ġg en
Ġgirl s
Ġsu sp
B e
Ġcould n
Ġha ng
ĠG l
Ġstru gg
id ly
Ġt ears
Ġs ick
it able
or a
et t
ic ate
Ġlea ving
ĠGer man
m ay
ĠA b
Ġg arden
Ġpo ck
Ġfam il
ul ation
Ġde part
Ġturn ing
Ġadm ir
Ġf un
Ġb attle
oll y
Ġcon sequ
el ess
Ġcorn er
um ed
ict ion
Ġem ploy
Ġspec ies
m ar
pt ion
ue en
Ġp ath
I C
over n
Ġf ly
Ġout side
all ed
Ġli ves
ĠP hil
Ġt y
ant age
Ġsh ut
s uch
Ġprinc ip
il s
ĠY et
ri f
g ment
in ite
ran ger
Ġjour ney
Ġoff ice
Ġpre v
as p
N D
Ġlook s
Ġsm o
Ġentire ly
m ber
Ġconvers ation
m ade
Ġg od
Ġt rying
s l
Ġwr ote
ĠP l
be y
ad d
Ġis n
Ġ 8
Ġdecl ared
w r
b ar
b ly
b ing
ĠM ay
Ġm iss
IN G
Ġper iod
Ġa ction
B y
Ġp aid
Ġle an
th rough
Ġha ll
Ġe ager
Ġsa ke
Ġeas ily
Ġes pecially
Ġ 7
Ġgener ally
Ġ ign
Ġf ro
Ġth ird
C h
ell ed
Ġpec uliar
Ġn ation
ra v
Ġescap e
Ġsy mp
ĠPr ince
ret ched
Ġ i
not e
Ġvar ious
Ġl iter
Ġl a
Ġm ut
Ġcond uct
Ġp ale
Ġm il
Ġimmedi ately
Ġobl ig
u ation
Ġbene ath
Ġinst ant
ad es
Ġcond ition
Ġscarce ly
r am
Ġrep ly
Ġr ate
Ġpre c
re ct
Ġabs olute
i ant
Ġhe ro
as hed
Ġlearn ed
Ġspe ech
b es
Ġapp arent
Ġp iece
Ġquick ly
Ġconc ern
Ġf aint
Ġcon n
Ġpers ons
Ġpre vent
en n
os op
Ġdire ction
1 8
Ġsm iled
st em
ĠAmeric an
ĠC an
Ġl if
Ġchar ge
Ġsu cceed
ill e
re c
d on
ĠF rance
Ġmar ry
Ġperfect ly
cl ock
Ġmo on
Ġent er
ed s
look ing
c har
ĠChrist ian
ĠE urope
Ġob t
with out
Ġ ii
Ġpart s
! --
Ġv ain
He re
Ġpriv ate
Ġc apt
lect ed
Ġtou ch
um ent
id ently
Ġfl oor
Ġr is
Ġt all
sp ir
Ġst op
Ġexact ly
Ġspo ken
Ġhon est
O ne
ge l
o x
ch ief
t wo
ĠE l
Ġcompan ion
Ġf ood
os es
A fter
Ġun less
Ġl ines
Ġchan ged
Ġsupp osed
ĠE m
Ġter rible
an ch
Ġf irm
p ered
Ġc ost
Ġb an
se em
Ġsoci ety
ĠP e
ĠCol onel
wor k
Ġv ict
Ġw ished
Ġw ise
Ġrepe ated
Ġsp ring
est ions
the se
Ġpro c
Ġsim ply
vel op
ail s
han t
es sel
Ġfall en
i ently
Ġear nest
m ust
anc ing
Ġthan k
i pped
Ġ id
Ġrun ning
Ġrep resent
Ġf ashion
oint ed
ll y
Ġf right
at or
Ġfore st
Ġcal m
ĠQ u
" '
c her
ant ed
Ġpleas ed
os ite
Ġtend er
Ġunder stood
Ġw and
Ġd om
Ġha bit
st one
Ġmar riage
Ġpur su
ĠH ouse
um b
Ġb ank
ie ve
Ġnec k
Ġk illed
y n
Ġcur ious
s ay
Ġmatter s
---- ----
Ġe t
ond er
Ġbit ter
ĠW here
ivid ual
Ġgentle men
Ġk ill
Ġv essel
Ġdiffic ulty
it es
Ġnot ice
Ġfeel ings
ri g
Ġf ixed
Ġl ower
c ol
Ġm ain
ĠS ha
Ġd are
ous in
r al
Ġc ivil
ic ation
ĠQ ueen
Ġbur st
Ġinflu ence
Ġm aid
Ġsum mer
ing u
f riend
Ġn arrow
a f
fort un
ib ility
Ġche er
Ġwall s
o cc
Ġhe alth
Ġme l
f irst
Ġear s
Ġstep s
Ġmid dle
p or
g ain
Ġcl er
ro p
Ġv an
Ġimport ant
Ġf ier
Ġp ure
Ġext reme
s it
Ġlea ves
i en
Ġall owed
g ress
i pp
ra p
Ġanx ious
not hing
em ber
Ġdist inct
S T
it ive
le ep
Ġre ach
ort unity
in st
re en
. âĢĿ
Ġv irt
k y
Ġbe at
Ġbelie ved
Ġp it
as hing
Ġa part
Ġshad ow
re p
al ed
Ġl ying
f ield
a ly
Ġdraw ing
Ġse par
Ġp un
Ġb orn
ant ic
n ce
Ġth rew
Ġexper ience
Ġgr ass
ĠJ ames
Ġall ow
Ġpict ure
Ġar g
it or
Ġha th
Ġtr ain
Ġbec om
ac her
ot ed
ĠHar ry
l aw
Ġb all
Ġh ost
Ġr ain
Ġrem arked
Ġir on
ish ment
Ġmur m
Ġc at
Ġfl owers
Ġs and
Ġcons idered
ke y
i um
Ġst at
Ġb ow
Ġtem per
ter ing
Ġcons cious
Ġpr oud
Ġr ace
: --
Ġcl aim
er ve
v ation
r ound
Ġmus ic
ar ily
O L
Ġpass age
Ġp i
Ġdeg ree
Ġser ious
re es
F oot
Ġv ent
a ving
Ġan cient
Ġshar p
ac c
Ġfal se
Ġcl osed
Ġm ill
ve y
Ġhar m
Ġquiet ly
Ġwat ched
Ġg ate
Ġwonder ful
e av
Ġcha p
Ġdiffe rence
Ġgl ance
ke ep
T H
Ġfif ty
d ing
Ġoff er
Ġre sp
are st
us es
Ġst ranger
el ve
Ġl oss
an n
Ġour selves
Ġprom ise
Ġdark ness
Ġway s
om en
Ġst ro
Ġa in
Ġlangu age
e es
Ġt ong
Ġbo x
ĠBrit ish
Ġse at
Ġv ast
Ġimp ro
Ġl oud
ĠD uke
d if
s ur
ĠWh o
Ġdra wn
Ġwr iting
Ġnor th
Ġp ra
Ġc overed
if y
Ġag ree
b ro
Ġyour s
Ġg ro
cept ion
Ġp hys
Ġcon ce
ir th
Ġse ven
Ġpass ing
Ġsp ite
Ġfor med
or se
um n
ĠG u
k in
Ġt alked
Ġbe ll
Ġf em
Ġex cell
W here
a ves
Ã ¦
Ġpres ently
Ġf ond
Ġp ress
Ġr ise
Ġg ame
as c
v iew
Ġf ra
Foot note
su pp
Ġeng aged
Ġdeterm ined
Ġh y
k er
Ġst ar
Ġmem ory
aj esty
ĠJ im
Ġdec ided
f le
Ġcr it
is to
h um
il ar
Ġd ue
er able
Ġdes ert
Ġoff ered
Ġgr ou
Ġh ouses
Ġapp l
Ġdro pped
Ġgu ess
or ne
Ġr ough
O M
Ġgovern ment
Ġcreat ure
ĠY ork
Ġf urn
Ġsp ent
i ven
Ġmod ern
pl ay
Ġc ra
su b
Wh o
Ġtr ou
Ġd ry
ak ed
Ġp hil
Ġc atch
be ing
Ġf ol
Ġa p
ĠT r
Ġem pt
Ġcl othes
ul ous
oun ced
ĠInd ian
Ġhead s
os ity
Ġmount ain
ĠE very
Ġre ck
ĠL a
Ġord ers
ĠW est
Ġaffect ion
ic hard
Ġpock et
f all
th ose
d ec
Ġl ot
ar l
ock s
sp e
Ġm ot
ĠS h
ha lf
so ci
t urn
Ġprodu ced
ree k
ĠM art
Ġass ist
ĠWill iam
ic ated
l ar
Ġc ases
E D
ci ence
Ġfor ms
ĠHen ry
Ġse arch
ing ing
Ġsp read
ĠE ven
Ġc ustom
Ġsy stem
Ġproper ty
somet hing
ul ated
Ġdes cend
Ġh id
Ġdisc overed
Ġbird s
ur ally
Ġpr ide
ag g
Ġbl ow
Ġe ld
II I
Ġfa ult
Ġsw ord
s ed
ĠY es
Ġv alley
E ng
her n
Ġli ked
Ġread ing
Ġ1 6
Ġfort une
p an
Ġs orrow
Ġad vent
Ġshould er
Ġb old
Ġcol our
in ci
form ation
are t
on ed
Ġst ick
A r
ut ed
Ġst ir
Ġbott om
ĠS m
a way
ater ial
Ġperson al
m itted
Ġapp re
Ġang ry
m ind
ĠPar is
ra ph
Ġu r
Ġbreak fast
Ġprep ared
he st
t w
Ġcomm un
Ġgreat est
Ġth in
Ġa ston
A M
Ġ -
Ġaccord ing
ac ing
Ġwa ited
Ġf requ
n ec
Ġf ru
Ġbl ind
o id
Ġb ab
Ġaw are
Ġbe ast
l t
im ents
Ġon es
e re
Ġw inter
Ġforg otten
f ound
Ġadv antage
us hing
ĠF ather
Ġopp osite
Ġp ounds
p et
Ġsp lend
Ġs ong
Ġsha re
ath y
Ġre ve
art her
Ġthr own
Ġth irty
eth od
Ġknow ing
00 0
Ġst ation
Ġr ising
Ġest ab
Ġw ine
Ġbre ast
ĠS w
Ġdisc uss
at tered
u x
l ast
Ġ 9
C ome
Ġsurpr ised
Ġ1 0
Ġb rave
Ġwork s
Ġan t
en ance
er ved
Ġp ity
Ġd am
Ġquar ter
ec es
e g
Ġev idence
Ġth ro
ĠC ha
Ġmor al
Ġsett led
Ġmeet ing
Ġhig her
, âĢĿ
Ġd ust
ll en
Ġjud ge
ish op
Ġc and
Ġwe ar
Ġign or
Ġn ames
Ġfin ished
ĠSp an
Ġstud y
it ution
Ġatt end
Ġc over
le g
? --
f it
Ġsp ace
Ġw id
Ġl ose
Ġjust ice
Ġsh own
Ġa unt
Ġremem bered
Ġint rodu
Ġb and
I ON
Ġn ice
Ġind ividual
Ġinter rupt
st ill
ail ed
in y
ĠL ou
Ġint ended
Ġmon th
ĠG eneral
ir ing
b oy
qu is
Ġcour age
Ġdo ll
Ġf aces
oy al
Ġp h
s es
ĠC ount
Ġsold iers
Ġs outh
Ġgreat ly
A D
Ġwe ather
Ġfact s
M iss
con c
ist ic
Ġter ms
e as
Ġte a
ab les
Ġord inary
Ġext ra
Ġsole mn
a it
Ġdep end
Ġ ess
cour se
Ġb ill
us ing
Ġmag n
H er
Ġlaw s
Ġoffic er
ac ious
Ġam ount
w ater
Ġwe eks
Ġoblig ed
b ury
ord inary
Ġnat ive
Ġm ort
Ġin no
Ġval ue
f act
Ġb are
Ġhe ight
Ġt aste
Ġopp ortunity
Ġde b
ess or
Ġbr own
Ġp ack
Ġmean ing
s w
Y our
Ġreg ular
c ame
Ġhur t
Ġm otion
Ġ1 5
Ġwe l
Ġoffic ers
ru ction
m other
ĠCh urch
Ġinst ance
Ġaff airs
Ġl uck
Ġcru el
he ther
Ġwhis pered
ific ation
Ġequ al
Ġc red
athe red
ic ious
Ġr ail
Ġcl im
Ġpro ved
Ġbre ad
um ber
ĠF rank
st e
bec ause
ĠA ND
is ters
ad ing
Ġhold ing
Ġre ceive
Ġspir its
ĠE x
Ġpoint ed
d el
Ġbes ides
Ġ &
Ġend eav
Ġwalk ing
ĠThe ir
Ġwas n
Ġide as
pe ople
age ment
Ġsit uation
Ġt ired
Ġfor ced
O T
Ġpro ve
Ġqu estions
as ons
Ġf ate
Ġkeep ing
h ost
Ġshould ers
s at
Ġhill s
or ious
Ġsugg ested
o k
the less
w ind
fe rent
_ _
Ġdec k
ĠSc ot
Ġserv ant
ard on
Ġro de
Ġphil osop
Ġsil ver
Ġtro ops
Ġcross ed
I R
ĠX X
b ell
an other
l ife
Ġexist ence
Ġli es
Ġas ide
v is
ain ted
Ġed uc
Ġwe ight
hen s
ign ed
ch ild
em s
Ġfamil iar
c ing
Ġcom b
Ġtw elve
Ġdist ant
Ġro of
Ġcle an
Ġintell ig
a per
ĠChar les
Ġ1 2
t is
con f
Ġsm oke
Ġsha me
Ġtou ched
ac le
Ġed ge
y e
Ġal ive
as ant
ĠO ld
Ġaff air
Ġanim als
Ġcab in
ort ion
Ġd ign
ud den
Ġy ellow
Ġca used
Ġb od
ep end
ĠD an
Ġfing ers
Ġrock s
Ġexam ple
ĠHe aven
Ġwor st
Ġhapp iness
Ġgr at
I V
Ġleg s
Ġtell ing
Ġc op
Ġanim al
v i
Ġc ousin
Ġprom ised
Ġno body
Ġgi ves
ĠP aul
ĠL uc
Ġrep ort
Ġkn ight
sha ll
stand ing
ĠY our
Ġexpl ained
Ġle ap
Ġwill ing
Ġp air
Ġother wise
Ġread er
Ġl over
Ġc ott
ro se
ĠAmeric a
Ġco at
A S
av al
Ġst ern
Ġsw ift
U R
ast le
Ġwood s
Ġre vol
re ck
Ġgl oom
ter day
Ġadd ress
Ġtw ice
ĠD av
st airs
l o
ip e
Ġt akes
le ction
ent h
Ġdest roy
Ġco ast
Ġo per
G ood
Ġar range
ĠF ran
in terest
Ġcr own
Ġd ull
ĠC our
S ir
h ib
Ġspe ed
Ġwit ness
Ġdist ur
Ġtong ue
is c
Ġbu ilt
Ġs ides
Ġag reed
j ud
Ġcar riage
1 0
Ġf ill
Ġconsider able
Ġim per
Ġdist ingu
Ġapparent ly
Ġlist en
m ission
Ġev idently
Ġwatch ing
am b
Ġar ch
Ġste am
Ġha ven
th ings
Ġth reat
b ook
EN T
ĠB o
l in
i as
ug ust
Ġempt y
Ġhur ried
ab ility
Ġf arther
Ġauthor ity
Ġha te
ha bit
Ġart ic
Ġas p
Ġhe at
Ġpap ers
Ġh ide
Ġconf idence
ĠC r
Ġde velop
Ġgr ad
' ,
Ġstre ets
Ġp ubl
ĠO ur
Ġc ool
Ġatt ract
n al
1 7
Ġst ore
Ġsoci al
Ġsa ved
ĠR ichard
Ġru le
ar ies
Ġmight y
un ch
Ġsuffic ient
happ y
Ġinterest ing
Ġrelig ion
Ġc ow
Ġb ull
ĠB en
Ġp arent
Ġp et
Ġsub st
Ġwant s
y al
resp ond
Ġhapp en
Ġwork ing
Ġpoint s
Ġwe alth
Ġposs ession
li ament
our ing
Ġhe sit
Ġmount ains
Ġ1 9
Ġdev il
p any
Ġr ide
Ġsure ly
Ġspec ial
Ġexcell ent
Ġmention ed
Ġput ting
iv al
su ff
ĠTh us
it ement
th ur
again st
ust ed
Ġimag ine
Ġgre y
I nd
Ġno se
ĠP res
Ġworth y
ĠM aster
Ġdoes n
Ġin j
c al
Ġfind ing
č čĊ
Ġl od
u zz
f oll
Ġbl ess
Ġo w
Ġsupp ort
ĠH ad
Ġfail ed
bo ard
ord er
Ġdri ve
ĠP erhaps
Ġtr ade
th ree
ul es
gr ound
ac ity
g ged
Ġy ards
i ber
Ġreg ret
Ġfell ows
overn ment
ure ly
Ġf ully
Ġord ered
Ġfor ty
Ġor gan
Ġinst inct
Ġhands ome
he ld
Ġdo zen
G od
Ġacqu aint
Ġmy st
Ġmoment s
Ġpict ures
Ġgr own
you ng
Ġw in
Ġro b
ĠTh om
Ġth orough
Ġopen ing
ĠM ac
Ġm aterial
ak er
Ġfore ign
b id
Ġst y
Ġst ock
Ġb rief
Ġoccur red
Ġo dd
el ing
int ed
Ġfier ce
Ġr ing
Ġlist ened
Ġw ore
f our
ep ing
Ġnot iced
ĠW al
Ġf ish
i est
t oo
Ġc ook
Ġ rom
ĠB ur
ĠG ood
oo p
m ake
in al
um ph
ĠNor th
Ġwind ows
or ous
Ġw icked
Ġr are
Ġsav age
Ġheart s
Ġb ent
o pp
Ġsha pe
Ġbuild ing
Ġas su
-- '
Ġsuff er
Ġsatisf ied
Ġsim ilar
es ides
ers on
ul f
Ġne arer
Ġsur face
Ġd well
Ġposs ess
Ġsu spect
ĠW ar
go ing
se en
Ġdro ve
ad v
Ġadv anced
Ġthr ow
t ake
A C
und ay
ĠG reat
Ġpro of
t ell
ĠS ee
Ġabsolute ly
Ġdis m
Ġmove ment
Ġh ither
Ġst age
and er
ser v
Ġse x
Ġli bert
W ill
Ġ z
ĠBr own
f a
ĠSt ill
b its
c ond
Ġsh oot
nd ered
b u
Ġno ise
Ġst orm
Ġm ethod
Ġd i
Ġh uge
nec ess
Ġsp ect
a is
ip s
k ins
m as
Ġno dd
Ġcont ent
Ġe p
Ġno vel
Ġrel ief
ĠM or
Ġjud gment
Ġa ud
est ic
w ar
Ġdemand ed
au d
Ġf anc
er ous
Ġcou ple
R O
Ġex ec
ĠW il
ie ved
look ed
Ġte eth
Ġsett le
" --
Ġdisc over
b us
F rom
w oman
al ways
Ġbelie f
Ġexpl ain
Ġsold ier
Ġp ick
Ġb ore
Ġadm itted
Ġus ually
Ġen er
Ġhot el
ustom ed
Ġw est
1 5
bet ween
Ġa id
at ures
Ġgl ory
Ġany body
cri pt
Ġh o
ap e
Ġb id
as ped
Ġcon qu
Ġequ ally
ll ustr
ĠS uch
t le
ur d
Ġmind s
Ġgr owing
Ġdri ven
Ġfav or
Ġact ually
Ġdes per
Ġt it
row s
man y
Ġpolit ical
Ġjo ined
Ġu pper
Ġexp ressed
y l
Ġpr ince
M ar
Ġwor ked
ĠSt reet
exp ected
Ġ x
ĠB ill
ĠR ed
Ġpa used
Ġmo ving
f ive
Ġp os
Ġv ig
c ir
f ar
o ices
es h
Ġt est
Ġfar m
wor ld
D id
ful ness
Ġbus y
Ġin n
reed om
m b
u gg
Ġsm iling
Ġtr uly
. [
Ġnat urally
Ġapp ears
Ġpers u
cons cious
in n
ation al
ĠI N
Ġaff ord
c hen
per haps
Ġdis g
Ġex erc
Ġbu y
Ġshe l
Ġsee k
ĠC ome
Ġgold en
ent al
Ġsqu are
Ġjo in
Ġmy ster
Ġport ion
Ġsoon er
Ġcare fully
e er
Ġevent s
Ġd er
or ing
Ġfool ish
at r
Ġpro gress
Ġlif ted
count ry
to p
Ġl og
p res
Ġadv ance
ĠM on
ran ged
Ġsu it
Ġassu red
Ġce ased
ĠH igh
Ġse ized
Ġa ut
er ry
it iz
Ġdanger ous
Ġke en
Ġplay ed
Ġy ield
Ġadv ice
Ġp age
s ing
Ġbeg un
Ġg le
Ġmar ked
Ġent ertain
eal ous
ĠS te
m oment
less ly
Ġin side
Ġimport ance
Ġhon or
Ġ1 4
ab s
Ġfin ally
Ġadm it
Ġt aught
Ġpre fer
Ġt empt
Ġaw ful
Ġfight ing
c il
f oot
i ance
Ġlaugh ing
com fort
Ġacc ident
Ġsymp athy
tern al
Ġsuff ered
Ġlead ing
Ġp owers
Ġserv ants
ey es
Ġpi eces
c ur
Ġ âĢĺ
Ġs igh
Ġfl at
Ġdirect ly
Ġd ressed
ĠH all
Ġro yal
Ġg athered
p ret
Ġsusp ic
Ġn amed
Ġr ank
Ġdread ful
Ġoccup ied
Ġm ir
m et
Ġt ale
Ġw ounded
ver se
Ġrem ind
ld om
Ġt ail
Ġg ar
p ur
ens ive
Ġme asure
Ġevery body
inci ples
Ġcast le
Ġb le
r ate
Ġg ather
Ġ1 3
Ġremark able
The se
ick s
m od
ink ing
ĠJ ust
V ery
Ġste ad
Ġcomp ar
Ġship s
Ġfl o
ĠSt ates
Ġsucceed ed
ust ri
Ġinqu ir
Ġtr an
i k
Ġo bey
a ver
e f
i osity
ĠS outh
Ġm ile
Ġle ar
Ġ âĢĻ
y er
Ġmist ake
Ġser ve
f am
ĠR ome
ĠRob ert
Ġthink s
udden ly
Ġsing ular
olog y
Ġgun s
w ent
r ant
Ġre sem
p oss
S ome
am s
Ġregard ed
Ġkn ees
c is
Ġt um
Ġapp eal
Ġmid st
ĠN e
Ġp ause
Ġt ur
Ġdes ign
Ġse ason
gy pt
seem ed
w ild
p es
Ġdo ct
Ġhop es
Ġwel come
Ġle vel
Ġpl ants
Ġconcern ed
et ch
Ġshout ed
Ġpull ed
Ġcap ital
p ut
ab el
st ep
ast ic
l ow
Ġsupp er
ĠM ore
Ġorigin al
is her
N ever
ĠN ature
c y
Ġimp at
Ġabs ence
Ġcount enance
ĠAn ne
ha ll
Ġs ize
ĠMar ch
ro l
Ġpart ly
Ġn ine
ĠB ell
v ille
ive red
Ġp ot
Ġkind ly
Ġsuper ior
Ġpal ace
ĠM ajesty
Ġimp ression
ĠI r
Ġpop ular
Ġproceed ed
Ġind ign
Ġhear ing
Ġfall ing
m ond
G E
ĠN ever
Ġbr ain
Ġh ol
Ġrequ ired
Ġb irth
Ġm aint
Ġdesp air
g ive
cont in
Ġfru it
Ġg ri
P erhaps
he ard
Ġke y
Ġstand s
Ġgl anced
Ġfair ly
ar a
Ġqu al
Ġse vere
Ġen cour
1 2
Ġter ror
Ġposs ibly
Ġt im
Ġse ated
on ce
os om
Ġs ought
J o
im s
ie ur
Ġref used
them selves
en ced
pl ic
Ġexc itement
i qu
Ġcond itions
Ġdro p
ĠW as
ĠD id
Ġgr ay
Ġconf ess
Ġt ask
1 6
Ġfort un
Ġhop ed
ĠV en
Ġlove ly
Ġgrou p
n or
Ġcompan ions
Ġre jo
Ġda ily
Ġmerc y
Ġfl esh
Ġund ert
Ġw et
ig hed
Ġpower ful
d oor
Ġlibert y
Ġb al
Ġrem ains
Ġser ved
Ġd ouble
Ġcall ing
Ġem p
Ġsh op
Ġyes terday
Ġv ague
han k
Ġresol ved
Ġstrugg le
un ning
ear ing
am ma
bet ter
Ġc up
Ġintell ect
C H
u pp
Ġparticular ly
Ġsatisf action
Ġnecess ity
Ġpro spect
er ning
m aster
ill a
Ġcar rying
em pl
c ase
ĠMad ame
E x
Ġsty le
ĠS unday
Ġ ice
ha med
ag ger
Ġl oose
A re
Ġwe ary
Ġun known
Ġas leep
Ġch oose
ĠA h
Ġimag ination
ĠUn cle
ĠM ajor
Ġgr im
en ough
Ġwho lly
Ġst ones
ha l
ĠH el
Ġl one
Ġche ck
ad s
Ġpr ice
O r
o is
re r
ĠT O
ĠR oman
p on
ĠAr thur
H ave
m es
Ġroom s
Ġam az
ĠCour t
p he
Ġfl ower
w ick
Ġbo ats
re ason
os en
al ian
ha ving
Ġsc ience
Ġhig hest
ĠLou is
ĠD or
ec ause
ic y
Ġmar ch
ire ct
ons ieur
l ine
ag on
Ġrec oll
Ġinterest ed
at ched
Ġposs essed
Ġres ist
at ory
ac hes
Ġf ac
E T
Ġpri est
ul ate
it ch
ret urn
Ġinst antly
m ist
am ing
ck now
; "
in ced
Ġcent ury
Ġsc he
Ġc aut
Ġr ub
i ation
ack s
Ġun fortun
Ġc ig
f in
al t
ĠB ob
it chen
Ġin formation
Ġru in
ĠS at
Ġext ent
and y
Ġpresent ed
Ġcred it
y r
Ġprincip le
s ame
Ġa cknow
a e
oint ment
h us
Ġex ceed
nat ural
Ġv oices
oll ow
g entle
Ġd ying
Ġdoll ars
e ff
ar se
Ġaccom pl
ro g
Ġg host
vent ion
Ġst ars
ul s
Ġas king
Ġear li
Ġcontr ary
Ġexc ited
it z
Ġclear ly
Ġmurm ured
p resent
r ich
Ġbl ank
Ġc ult
Ġdescri bed
Ġextra ordinary
m atter
Ġnodd ed
ĠA ugust
u el
Ġdo ors
Ġm ood
a res
c alled
e qu
om in
Ġm ult
ĠP h
ĠSc ott
m ir
ĠSt ate
Ġclose ly
ĠG o
Ġun ivers
ce an
Ġe ase
Ġe ast
Ġenem ies
Ġsp rang
ĠInd ians
Ġsa f
1 3
Ġcur t
ĠThom as
Ġprodu ce
I D
ĠC he
ĠHow ever
Ġan ger
Ġstri ke
land s
oy age
Ġret reat
Ġmur der
a wn
Ġtr ad
ĠH am
l ie
Ġprison er
ud ge
U S
pl ess
y et
Ġc rew
U n
Ġkind ness
ac ters
Ġl ake
Ġdign ity
w in
ut ation
L ord
L ook
Ġre asons
Ġquar rel
o very
Ġa head
Ġrel ation
f ind
qu ite
Ġeld er
Ġthr ust
ĠInd eed
Ġproc ess
Ġass ert
oll o
Ġsk in
Ġend ed
Ġsmo oth
Ġe re
ĠA unt
Ġinqu ired
ous ed
Ġet c
Ġacquaint ance
u ce
v ious
Ġconsequ ence
ĠCom m
Ġsplend id
of t
Ġuse ful
ul se
Ġexp ed
Ġwor n
Ġp ill
iz ing
Ġprof ession
Ġst up
g ot
Ġcomfort able
1 4
Ġg ay
Ġwis dom
il st
ĠWh ile
Ġsh r
Ġint ention
oub ted
I llustr
C an
Ġb rill
Ġe lect
Ġwith d
Ġas soci
Ġwat ers
Ġdel ay
Ġarri val
i able
Ġcent re
Ġm ach
ĠF red
Ġrap idly
Ġ2 0
Ġco ff
Ġcap able
Ġfam ous
Ġtreat ed
Ġcloud s
own ed
any thing
ĠC o
Ġexpl an
Ġbr idge
Ġcons cience
Ġbet ray
Ġmess age
Ġris k
com mon
Ġam id
Ġcor respond
Ġcle ver
al most
Ġpl ant
Ġinterrupt ed
Ġ( _
Ġf ought
as ing
ac les
Ġpl enty
Ġdes ired
ĠDo ctor
P r
Ġimm ense
ĠJ ew
Ġdel icate
Ġind if
Ġcare ful
Ġp ardon
Ġlar ger
ĠM ont
Ġdeep ly
ag ing
Ġmil itary
Ġp ressed
Ġescap ed
ĠOn ly
Ġgu ide
Ġw ed
Ġaccept ed
ate ful
Ġf reedom
R S
on n
Ġfem ale
I G
ol ution
us ual
sat isf
s ent
qu estion
Ġcomplete ly
um ents
Ġburn ing
b orn
Ġper form
at ors
Ġdog s
Ġm ud
m is
Ġvis ion
l ove
Q u
ri ved
Ġsoft ly
Ġh oly
Ġf rank
Ġaccom pan
Ġn ur
ĠS ch
ĠP ort
ud ing
Ġb as
Ġhor ror
Ġcor rect
e ous
Ġcha mber
s ch
ut ch
Ġse ldom
ĠPhil ip
Ġrec ord
Ġneed ed
dis c
Ġthe ory
ĠP er
Ġmist ress
Ġr um
Ġp or
w a
ĠJ ul
Ġfl ight
Ġking dom
Ġr ushed
p oint
ur ity
ĠL aw
Ġcom r
Ġb osom
Ġh osp
Ġbod ies
o h
ac on
Ġ[ _
Ġg ained
Ġvirt ue
Ġrap id
f ire
Ġvis ible
Ġrep ro
Ġda wn
ĠJ an
Ġpract ice
O W
Ġwhis per
ĠW or
Ġanx iety
Ġm a
ĠC al
Ġev ident
ĠM ark
Ġm ate
ĠT wo
Ġse vent
other s
ly ing
ent ial
anch oly
z y
s il
be aut
ĠJo e
r ation
Ġyoung er
E C
br idge
f ric
ar med
e b
Ġst rang
p ol
Ġobject s
r ounded
Ġhelp ed
c are
N or
Ġwr it
es tern
Ġsound s
st ead
ĠL ook
u le
Ġun able
t a
Ġst airs
Ġcur iosity
o ked
Ġsome how
c a
ort s
resp ect
Ġc ro
en es
Ġhid den
ĠI I
Ġrelig ious
Ġg ently
Ġam b
Ġas sem
Ġhigh ly
Ġpoet ry
om s
ĠE gypt
ĠJ es
Ġthro at
bre ak
Ġprom pt
Ġas hamed
Illustr ation
Ġinno cent
Ġcol or
l ished
Ġro lled
Ġtell s
Ġst uff
Ġsac red
is hes
Ġutter ly
an im
Ġg rief
Ġme as
Ġam use
Ġh it
Ġgen ius
Ġmis erable
ĠA nt
ĠH ave
Ġcur rent
ĠC or
Ġbab y
Ġhad n
Ġsome where
s per
Ġsaf ety
= =
Ġref er
al ph
ative ly
n es
ut en
Ġmem bers
Ġb ag
ar ry
J ust
um es
Ch rist
Ġch oice
iz ation
s ue
Ġpr inciples
con st
Ġste pped
Ġtra il
Ġvol ume
il ities
Ġsome body
Ġt ight
Ġto t
Ġbe aring
Ġacc ustomed
Ġsp are
cl es
Ġexc use
Ġfright ened
2 0
ĠG race
Ġfe e
ĠC le
h on
Ġfing er
in ent
Ġcont empt
Ġforg ot
Ġinv ol
h ind
G o
Ġlone ly
ĠM al
Ġfig ures
un ted
Ġab and
t ow
Ġad op
Ġplay ing
Ġar ranged
C om
Ġf old
Eng lish
ir gin
ĠL ittle
am ong
Ġp ipe
Ġsc orn
rif ice
Ġdist r
ount ain
r and
v an
ĠL y
Ġrem oved
Ġobt ained
Ġman if
f essor
Ġsp end
Ġneighb our
Ġwe ap
Ġresp ons
Ġtri umph
Ġr ust
sp ec
Ġst iff
s ince
Ġwond ered
ĠM in
Ġget s
Ġsent iment
iz ab
Ġ18 6
ĠIr ish
Ġb ought
Ġinf inite
c or
Ġl it
Ġh ut
wh ite
Ġent rance
Ġsign s
e ge
le x
ĠS omet
Ġprop osed
Ġr ude
Ġent hus
how ever
Ġfe atures
ur ies
h or
1 9
ĠE arl
Ġgrad ually
Ġre cei
m orning
Ġappro ached
Ġcir cle
s a
Ġsupp l
Ġcrit ic
Ġt ent
Ġm ajor
Ġthorough ly
Ġn erv
our n
ĠS T
Ġme al
Ġun to
ĠB esides
er ves
Ġeduc ation
Ġr ow
Ġob st
as ions
qu ar
Ġse ll
p osition
Ġex hib
d one
Ġadd ressed
Ġin habit
Ġextreme ly
oun ce
Ġbring ing
Ġun f
Ġ {
Ġfif teen
g aret
Ġs our
on str
Ġconsider ation
b ow
il ty
Ġbur ied
o qu
re f
t able
Ġgre et
iv ity
Ġh om
Ġsha de
y ears
Ġst ories
Ġwis hes
Ġ ing
Ġfriend ly
ĠB et
ĠBl ack
A Y
str ong
Ġth under
Ġw ound
ĠG reek
Ġb ra
Ġsh owing
Ġinst ruct
p ower
ix t
pers on
C on
ut ions
ĠM er
Ġ ...
ast ed
Ġswe pt
ac qu
ĠSpan ish
am a
id s
ĠWh ite
Ġc itiz
Ġsubject s
Ġfield s
Ġun happy
Ġpubl ished
Ġch osen
Ġsh ock
Ġal arm
n el
T is
Ġsp r
Ġqu ality
Ġpart ies
Ġsc ream
Ġnew sp
Ġwas te
n ame
s k
Ġreck on
Ġhur ry
Ġbecom ing
Ġincl ined
ing er
Ġfly ing
ĠG reen
Ġasp ect
Ġplain ly
ĠR uss
Ġh ole
ple x
Ġmyst ery
Ġshe ep
ĠR ev
Ġche eks
Ġfaith ful
Ġre ndered
turn ed
c ut
Ġprop ortion
Ġen c
Ġappro ach
Ġj ealous
a ult
Ġg ain
b on
app ear
bo at
Ġst out
p o
ĠLuc y
Ġre ward
Ġsle pt
ĠSm ith
g en
ĠJ ane
ch o
ĠF er
it ure
Ġbecom es
ed ing
ĠS ec
Ġref lect
Ġun eas
Ġslight ly
og raph
L e
Ġnot ion
Ġfl ung
it ated
ack ed
Ġp icked
le ft
Ġconn ected
Ġdiv ine
ple asant
ak s
Ġincre ased
Ġre du
g s
Ġsuff ering
et te
Ġgaz ed
a ur
ot he
Ġobser ve
ĠA re
Ġav oid
ĠB er
Ġk itchen
aint s
_ ;
Ġdoct r
Ġfl ed
Ġold er
Wh ile
Ġabs urd
le br
g one
Ġr ush
ol ic
ĠS qu
l ot
p ost
n on
ell s
Ġpre cious
t ook
ĠDav id
Ġl aughter
M ay
IL L
Ġbeh old
Ġlab our
om er
Ġpract ical
Ġp ushed
Ġr age
Ġre ar
Ġnum bers
Ġkiss ed
her self
cons ider
Ġha bits
Ġbl ame
al ing
ud d
Ġche ek
d ep
oc r
Ġman ners
Ġconf usion
ic ted
Ġd ance
Ġimp ress
Ġprev ious
Jo hn
E AR
od e
ink s
wh y
w hether
pr ise
Ġadmir ation
ep hen
Ġst ared
ĠF ort
Ġadvent ure
Ġdut ies
Ġtit le
an ing
Ġbr ow
Ġact ive
sh ine
Ġf er
ac he
necess ary
ĠH im
Ġfe ver
g irl
Ġconcl usion
g ener
Ġb ay
Ġl ately
Ġchar ming
Ġem otion
Ġman kind
Ġex ha
Ġint ense
ĠM ag
ud es
Ġab road
Ġher s
o lf
Ġthrough out
Ġpr im
ĠMart in
Ġa im
us p
is ions
Ġste ep
Ġcr im
Ġchar acters
Ġl est
Ġemploy ed
my self
ens ion
ĠNot hing
AN D
Ġcl ub
Ġbre aking
ell ing
Ġstr ict
an ny
u able
Ġreturn ing
com ing
Ġprob able
Ġw ings
ard ed
ĠEd ward
ri er
p ter
Ġfl ag
Ġforg ive
Ġdelight ed
Ġlist ening
en ger
Ġm atch
Ġqu ant
Ġmyster ious
ĠPar liament
Ġdisapp eared
Ġfriend ship
Ġc attle
Ġcler gy
ac hel
Ġhe ap
Ġcir c
Ġaccompan ied
Ġs ons
re al
Ġstrong ly
Ġcreat ures
inc ess
Ġarg ument
Ġm al
ĠAr ch
h ip
um s
Ġte ach
uten ant
l ay
bel ieve
A b
am ps
Ġcl iff
Ġstri king
izab eth
heart ed
---- "
ĠAn n
Ġa pt
ell a
ĠP al
ĠK e
ĠW ood
Ġste ady
m o
Ġind epend
Ġphys ical
Ġsoul s
Ġv oyage
Ġfe ared
Ġdri ft
Ġdis play
ill s
v y
ll er
ĠR om
Ġpro ject
E d
Ġ vers
ear ly
Ġre ven
Ġkn ock
pl ain
Ġtri al
Ġtrave l
ret ch
br ought
ore s
ĠTh ough
all s
A m
ul gar
Ġ2 5
Ġb ase
r ather
Ġra ise
app eared
Ġsl ave
ren ces
Ġb owed
L ady
ĠA fric
Ġsol id
Ġener gy
Ġr ang
ĠScot land
E very
ĠS an
y es
ĠR ose
ur ance
Ġrest r
Ġcott age
Ġfore head
Ġf o
ons ense
Ġsp ark
ll s
d ri
Ġa ver
Ġbl az
Ġimmedi ate
ul ations
Ġcl o
Ġa rose
Ġdistingu ished
Ġwh ilst
Ġend s
Ġmin ister
Ġliter ature
ag o
, âĢĻ
Ġh int
ĠL ong
Ġsuffic iently
ind eed
hand s
Ġph r
char acter
Ġappre ci
Ġdesper ate
ĠT ur
Ġm ale
Ġadd ition
ĠSo ci
Ġind ul
ar th
Ġdist ress
Ġqu een
g ate
Ġconc erning
ect ure
Ġdream s
Ġp uzz
Ġnot es
in ate
art ed
under stand
b our
Ġg ra
Ġevery where
Ġsp l
ĠN at
ri ot
Ġneed s
aster n
Ġcon ven
Ġfr ame
Ġnat ives
Ġsh ows
Ġint im
Ġmagn ific
Ġw retched
Ġexc han
Ġpl ans
ĠC astle
Ġman aged
Ġc aval
Ġter m
Ġrel ations
d s
Ġaffect ed
Ġpra ise
Ġ Â
Ġprof ound
ĠH on
ĠG overnment
ort hern
Ġgod s
Ġwh ist
v ar
Ġfrequ ently
Ġre nder
O ur
Not hing
Ġmel ancholy
Ġchar m
Ġche st
Ġm as
Ġ3 0
Ġcall s
um ped
h ur
Ġha l
a unt
Ġsing ing
anc hes
app ro
Ġexplan ation
Ġqu eer
Ġchief ly
Ġviol ent
Ġsk ill
b an
ĠM other
Ġgaz e
Ġprincip al
Ġb ree
Ġweak ness
ĠR alph
Ġcons ent
ond s
Ġr iding
p ort
Ġcontin ue
Ġnum erous
Ġconv inced
ĠFran cis
A P
Ġwhen ever
ĠM en
ot es
ĠA g
ĠS il
Ġper ceived
se ct
ĠD un
Ġsugg est
p en
Ġm ing
on ies
Ġha m
ĠI m
ro ck
Ġut tered
who le
i el
C ol
st ru
are well
bur g
ĠM il
ot ted
Ġassist ance
ell e
Ġpre par
Ġlight s
Ġkn ife
Ġsh ining
Ġinter view
Ġlean ed
os al
h ome
Ġs ank
ar ms
Ġpo em
Ġfin al
Ġpat ient
Ġatt itude
Ġbrother s
ĠBe fore
Ġj ob
ĠInd ia
arr ass
Ġsupp ly
u ced
Ġgener ous
ĠP o
3 0
ex per
Ġdisc overy
ĠI re
Ġhel pless
Ġinf er
Ġar rest
Ġwor ship
Ġor n
he nd
ĠĠĠĠĠĠĠĠ ĠĠĠ
ist ory
Ġab rupt
Ġsuspic ion
e ach
Ġse es
ge on
Ġconst ant
Ġpray er
Ġunfortun ate
bl ack
Ġmis ery
Ġeffect s
Ġen orm
Ġg est
y ard
Ġprot ect
Ġinterest s
b ably
l ive
o ch
ĠGr and
Ġin formed
se y
Ġro pe
ĠL ove
Ġview s
s aw
t ran
ut ter
l iness
p osed
Ġbl essed
Ġref use
by e
Ġbe nd
su cc
Ġland l
Ġturn s
Ġm ild
-- -
sm all
Ġsec ure
Ġty pe
ĠTh ose
worth y
Ġob sc
Ġe mer
e le
Ġmem ber
ec han
per or
m aking
Ġhast ily
at a
am m
Ġact ual
id ering
ĠF irst
Ġh ollow
Ġart ist
Ġpre ced
Ġcon vey
p rom
ir s
Ġliter ary
ĠE ast
Ġeffort s
Ġmount ed
Ġp il
Ġans w
ic er
Ġdoubt less
ĠM c
Ġparent s
Ġcol umn
es e
Ġe gg
Ġser ies
ĠOn ce
C ha
Ġacqu ainted
Ġcr ime
ex c
ir it
r ors
Ġset ting
Ġres umed
i que
Ġuse less
f r
ed y
Ġann ounced
m aid
Ġmut tered
D e
Ġunderstand ing
ag ree
V I
u gh
Ġar med
Ġprec ise
Ġp red
day s
Ġdom estic
Ġhor rible
Ġhand ed
eng ers
Ġl ux
ĠH ard
v als
Ġdisp osed
r ated
Ġto w
Ġeager ly
Ġl amp
Ġthr one
os ure
Ġfle et
Ġm ental
Ġst retched
Ġtrem bling
Th us
and s
Ġsh ru
Ġoccasion ally
to ld
S ee
t aken
id dle
Ġag es
ertain ly
Ġignor ant
at in
b ird
Ġfle w
e ffect
Ġhe nce
i ving
d ark
p ast
Ġtrou bles
Ġhe ll
Ġthan ks
ĠD el
ĠC am
c ross
Ġhang ing
Ġwa ist
Ġdelight ful
t ill
Ġut most
ĠB el
per fect
Ġlight ed
art s
Ġsha ke
Ġwhen ce
comp an
d r
l im
Ġg ift
Ġas h
av y
Ġas cend
ap ers
s im
in ity
for th
ing ton
Ġcl oth
Ġwr iter
Ġrequ est
Ġshel ter
Ġhesit ated
e ither
Ġm ission
Ġexcept ion
Ġwar ning
Ġlean ing
Ġprison ers
Ġo cean
Ġopin ions
Ġex ert
co at
m osp
Ġsur rounded
Ġwid ow
ĠT em
Ġce rem
ig s
Ġfat al
Ġd ared
Ġbr anches
in ction
Ġcomp osed
ant ry
t em
wh om
ic ian
Ġdescri ption
P ro
ĠD ave
Ġc ord
Ġbrill iant
Ġun expected
Ġhun ting
le ase
Ġprov ided
B l
Ġcal c
for ce
fort une
f ell
ĠJes us
r ous
out hern
ĠH ol
ĠE n
Ġim age
ĠIt alian
Ġret ired
Ġc hat
Ġhist or
X X
ĠWh ich
Ġrequ ire
Ġn arr
Ġhither to
Ġexerc ise
Ġpain ted
ri fic
Ġintellig ence
Ġ2 4
Ġid le
Ġsl ipped
Ġbe ha
Ġper pet
Ġpol ice
Ġsche me
Ġgu ilty
k ward
Ġint ent
Ġlaw yer
Ġv ac
Ġvent ure
ĠWal ter
Ġc ries
ĠS im
1 1
ĠS y
C aptain
cl ose
ĠT w
ĠW ould
Ġgu ests
Ġapp ointed
ashing ton
Ġ iv
ĠĠĠĠĠĠĠĠĠĠĠĠĠĠĠĠ ĠĠĠĠĠĠĠĠĠĠĠĠĠĠĠĠĠĠĠĠĠĠĠĠ
Ġre comm
Ġill ustr
Ġcoll ect
ĠIt aly
ĠH al
Ġme at
Ġr ag
Ġw ave
Ġgl orious
ac count
Ġestab lish
u ated
e em
T hank
Ġden y
child ren
Ġh orn
Ġbott le
Ġobt ain
ob ody
l a
Ġne arest
Ġsort s
tw enty
st ri
Ġs ighed
Ġd ig
Ġshould n
Ġdel iber
M ad
Ġact ed
Ġu g
Ġal ike
if orm
Ġwa ves
Ġlike wise
a ffect
Ġany where
s ix
ha st
Ġf ired
Ġour s
Ġfoll ows
en ch
Ġwar ri
amp ed
Ġrec overed
Ġran ge
Ġshad ows
Ġass ure
ĠPro fessor
b oth
M RS
Ġn ations
Ġrid ic
Ġinhabit ants
st re
u ary
Ġsub s
Ġb ones
Ġw reck
Ġgr asp
ab led
ĠM any
Ġamong st
Ġwhe el
dif fic
er ness
Ġdisc our
Ġhum ble
Ġlea f
I M
Ġkind s
G e
Ġchan ges
ker chief
Ġcra ft
reg ular
end ous
g ments
ĠP ark
S E
k new
Ġhouse hold
Ġtran sp
ul a
Ġest ate
Ġinst r
ĠL ife
g ent
v a
ain e
Ġright s
Ġtrou bled
B r
Ġj ew
Ġsuccess ful
Ġvar iety
Y et
ĠS er
C har
f ellow
Ġpain ful
ĠM e
Ġmist aken
ĠL ike
gl ass
Ġlab or
Ġland s
d oubt
ĠĠĠĠĠĠĠĠ ĠĠ
Ġsha king
h igh
aw s
p ent
Ġco ach
-------- --------
Ġsc attered
ĠR ep
Ġpat ience
ĠV er
part icular
ĠMar garet
Ġdescend ed
Ġres c
p oses
Ġt al
Ġdiv ided
Ġconcl uded
Ġt ax
Ġnerv ous
ac ob
Ġtr ack
Ġd ate
Ġa x
ol ation
Ġcop y
bus iness
Ġbo ots
Ġspirit ual
2 5
ĠS us
Ġpap a
Ġisland s
Ġestab lished
t ree
Ġcons ist
ĠE r
ĠS l
S h
R e
Ġdev oted
at ives
Ġnation al
ĠAr ab
Ġdef ence
ĠF air
Ġp isto
Ġvan ished
) ;
end s
he t
ĠR og
imp ort
h our
A y
Ġt ide
s ight
b urn
Ġwond ering
Ġcoff ee
d ra
Ġcheer ful
Ġce lebr
ble m
Ġinv est
iven ess
Ġsac rifice
ĠTh ou
Ġdeg rees
ex cept
Ġre ference
Ġpart ed
unt il
l or
m oney
Ġsh one
Ġpro sper
Ġincre ase
mosp here
aught ers
Ġconn ection
Ġsepar ate
a pped
ard ens
Ġwood en
l au
ĠAl ice
ĠI II
step s
Ġbeg ged
Ġgood s
Ġca uses
Ġfanc ied
ver t
ĠF ar
Ġfl ood
ail ing
at re
Ġv en
Ind eed
Ġfor bid
Ġatt ended
Ġtrans l
if ying
Ġatt ached
um m
ow der
quis ite
al so
in et
N E
ob ser
Ġproper ly
ar ling
Ġan ch
Ġins isted
Ġsun shine
the l
Ġhy p
p oor
i pper
Ġbe held
Ġdet ails
ĠHel en
Ġc ared
con om
oo f
ĠB ert
' .
b est
ĠCon st
Ġp an
ĠP ope
Ġdr unk
c ast
Ġmer ry
Ġfl ame
] .
Ġfree ly
Ġha ted
Ġper mitted
Ġcond em
Ġt race
Ġdepart ure
Ġp in
Ġcomple x
Ġdifficult ies
Ġt ied
Ġocc asions
Ġearli er
ot hing
ost on
n s
Ġm at
p iece
ĠM ount
Ġsens ible
ul ted
ien ced
ĠAn y
Ġst aring
p at
Ġhop eless
Ġre new
ĠP at
Ġdirect ed
Ġimpro ve
Ġcult iv
Ġ ident
Ġfor ces
Ġstup id
int ell
m ark
op en
ĠUn ited
ract ed
Ġconscious ness
Ġintrodu ced
Ġb ul
Ġgu est
Ġimag ined
Ġcommand ed
Ġbe ach
Ġg ates
Ġpr on
Ġvict ory
m outh
ĠSt ephen
ĠT e
hum an
Ġs isters
d em
Ġsc r
Ġgrave ly
Ġenjoy ed
is ation
l ad
lar ge
Ġs an
Ġc rying
Ġremark s
se a
sub ject
ĠR u
Ġcircumst ance
keep er
Ġnur se
os er
ĠB ro
pass ed
Ġs es
Ġpo ison
Ġm amma
Ġug ly
* *
Ġshar ply
Ġlo ves
Ġstead ily
Ġany one
Ġpriv ile
l ers
ĠB ab
Ġkn ocked
Ġqual ities
Ġstrong er
ĠG ra
Ġp ages
S c
i pping
per t
pro du
he m
oth y
Ġdef end
ct ure
Ġcler k
do es
Ġl ion
Ġthousand s
c ence
Ġsc ient
su ed
ĠV an
Ġfol ks
Ġpl ate
there fore
Ġn aked
ĠCom pany
h orse
Ġviol ence
Ġsail or
Ġin vent
for ward
gr at
pri l
t alk
Ġb orne
ur a
Ġgr ateful
Ġw ra
Ġhast e
Ġappro aching
so on
Ġman age
ĠJ une
f ur
f ashion
Ġtr ick
Ġsleep ing
EL L
w ords
Ġso il
Ġd iam
Ġcont ained
Ġto ler
Ġ18 2
d a
Ġlo ving
Ġal oud
hen omen
Ġri fle
f ull
Ġh unt
Ġcont empl
Ġreg iment
f ig
Ġun usual
Ġde fe
z a
Ġacknow led
l eness
N ay
spe ak
Ġrec over
Ġdif f
Ġadm ire
h undred
Ġcre pt
c est
Ġlear ning
ĠSp irit
Ġdestroy ed
Ġfe ather
Ġresult s
cir cumst
Ġvis ited
Ġstat ement
le ts
plic ity
u it
Ġt ear
ou ch
Ġl ock
ill ing
ĠB ishop
Ġf ears
Ġser iously
ore nce
every thing
d ig
wh ose
Ġcan oe
bo x
ĠP et
Ġcoun sel
m ag
Ġhung ry
Ġrest ed
Ġneg ro
Ġe ternal
Ġmove ments
Ġmark et
Ġide al
E M
Ġp ier
Ġl ap
Ġmort al
Ġb ade
ship s
Ġg ent
ĠS al
__ __
Ġlead er
an ed
her s
ias m
Ġro ar
bl er
Ġsl aves
ev il
Ġslight est
Ġeng ine
Ġpursu ed
ha el
g est
Ġagree able
can not
Ġ --
head ed
Ġgaz ing
im ag
Ġtre asure
l ist
ĠD uc
ge ant
ĠĠĠĠĠĠĠĠĠĠĠĠĠĠĠĠ ĠĠĠĠĠ
Ġl at
ĠD es
Ġsw all
Ġc ard
Ġb rig
ant e
Ġcomp re
ĠEl izabeth
Ġprot ection
Ġo ath
n ature
Ġattempt ed
Ġth ine
s usp
Ġne at
Ġs ore
Ġsmall er
ĠBar on
p it
Ġheav ily
Ġs ne
Ġfirm ly
ot est
Ġim pl
ĠEnglish man
olog ical
Ġrecogn ized
oo s
Ġbelong ed
ud ent
Ġconv iction
Ġinc ident
Ġreal ity
Ġbree ze
Ġsince re
com pl
Ġdis s
Ġmod e
Ġin her
Ġpl un
ĠJ ones
Ġd ish
Ġp ace
Ġ2 6
B ecause
ĠR os
Ġsw im
Ġignor ance
c to
ribut ed
Ġli ber
Ġv ulgar
Ġbr ide
Ġst ates
de f
Ġenorm ous
Ġe rect
ic le
Ġri g
Ġo h
Ġt ext
Ġsent ence
Ġ2 9
fe el
Ġob vious
s we
Ġcrowd ed
or able
Ġch ose
ĠIre land
s ign
Ġcoun ter
Ġout er
Ġf ix
Ġto ss
Ġartic le
Ġele ment
em an
br other
ĠM at
ad a
ĠM ill
Ġr ul
if ted
ex am
ĠR ollo
m at
me re
all ing
ĠP en
Ġw ing
Ġy ard
with standing
z ed
Ġ2 3
ress ing
Ġfoll y
w ant
, [
Ġr ad
Ġy onder
Ġthr owing
Ġcare er
cha ir
Ġquant ity
app ing
Ġimp ulse
Ġvisit or
id ents
is k
ĠA gain
por ary
R A
ask et
Ġfamil ies
Ġval uable
S uch
Ġcount ries
erc y
Ġs ins
om b
Ġaw ake
O O
Ġcomp ass
Ġ2 7
cl osed
ell y
Ġdel ivered
Ġleap ed
g eneral
op ing
Ġrepresent ed
ll ers
w alk
Ġsur round
Ġm ixed
Ġele ven
d est
Ġban ks
Ġinquir y
th r
Ġstay ed
Ã ¨
s qu
Ġab und
ex pl
st ra
Ġob ed
ot hed
ĠR oyal
. âĢĻ
ĠChrist mas
Ġe cho
with in
Ġchap ter
Ġconst antly
er al
Ġcons ult
Ġland ed
Ġstart led
Ġl ack
Ġlad s
Ġaw kward
Ġaston ishment
Ġli br
hes s
dif ferent
Ġl an
Ġ2 8
i ot
ol en
Â ł
p ossible
or ation
su per
ind er
um bled
Ġdri ving
T r
Ġdoctr ine
cl ass
Ġf ulf
Ġdel iver
Ġoffic ial
Eng land
us k
Ġmanif est
ol s
ĠSpan i
Ġpur ple
succ ess
ĠH oly
ĠM ic
Ġobser vation
ĠPr incess
ĠC oll
Ġfavour ite
Ġmil k
Ġsw ear
Ġcont rol
iet ies
Ġlo cal
Ġe ating
Ġse am
Ġsil k
Ġre nt
Ġresol ution
e ight
ĠC ity
Ġan tic
Ġgr in
Ġfind s
ast s
Ġaston ished
or ter
kes pe
c reat
ĠP ol
ĠJ er
ĠBy ron
Ġdra gged
ir k
Ġapart ment
Ġp oured
tow ards
Ġse as
Ġtown s
or al
w ord
ĠM onsieur
Ġd ancing
Ġdef inite
Ġdisp osition
t ri
U L
us ions
ĠSe pt
it ute
Ġself ish
Ġquar ters
ĠS n
ĠD utch
Ġpoint ing
p her
Ġdesert ed
St ill
Ġso vere
ĠIt s
Ġconce al
B ER
ĠJ ose
cri bed
er ity
ri bly
Ġunivers al
v oice
suff ic
Ġper plex
Ġgl o
Ġdisc har
Ġur ged
Ġfl our
Ġstrang ers
Ġc as
Ġearnest ly
ĠR iver
Ġdes ir
C l
Ġappl ied
I E
Ġun certain
friend s
in ated
Ġhum our
Ġsafe ly
Ġscient ific
he red
kespe are
Ġgrat itude
cour t
Ġ2 2
T ON
f elt
og rap
ple asure
un s
Ġemb arrass
Ġv ivid
Ġaccord ingly
somet imes
om ed
Ġash ore
Ġacc ur
Ġdistur bed
Ġl ing
d ro
pl aced
ul ating
less ness
Ġste el
ĠT re
P oor
ec hes
re nder
qu iet
Ġm echan
Ġsign al
I X
ĠĠĠĠĠĠĠĠ ĠĠĠĠĠ
ing ham
un ting
Ġkn ee
Ġint r
t own
de v
Ġsens es
b ear
Ġper ceive
Ġbus h
Ġlim bs
overn or
Ġobject ion
Ġto wer
w ife
Ġo d
pl ed
Ġsix ty
Ġn est
Ġj ump
Ġtor n
Ġe conom
i ences
ap s
Ġch im
pr act
Ġnever theless
Ġsugg estion
Ġno on
Ġbr anch
ĠS ax
Ġsum mon
ur day
Ġbene fit
A meric
sm ith
Ġright eous
chan ge
Ġann oy
Ġ18 3
Ġnight s
Ġass umed
de ep
ĠSp ain
g iven
o v
Ġdecl are
Ġk ings
Ġbe ard
S e
occ asion
Ġdeep er
5 0
Ġmagnific ent
f av
ur red
Ġmar ble
Ġclass es
Ġle is
it ors
ci pl
Ġdec ision
Ġdis e
Ġsa iled
Ġantic ip
am ation
ĠH ill
Ġground s
ĠĠĠĠĠĠĠĠĠĠĠĠĠĠĠĠ ĠĠĠ
ER S
an a
Ġst air
us ive
Ġf ame
Ġhor iz
Ġcomm itted
cto ber
Ġc art
Ġp ir
Ġst ated
ick en
Ġaw a
OR D
f aced
Ġso b
ĠF anny
ried rich
ĠT ell
Ġdra g
Ġm ock
ĠV irgin
Ġexam ined
Ġburn ed
Ġbeast s
d ed
h ouses
pt on
Ġrem aining
al ready
occ up
man ner
Ġow ing
U T
Ġbus hes
Ġfrequ ent
Ġl oyal
as ked
Ġsol itary
Ġsh oes
op er
gentle man
Ġre ign
Ġbad ly
iver se
Ġd oth
Ġext ended
Ġl ocked
Ġas certain
T wo
Ġcr ack
ak ened
Ġbur den
Ġwand ering
ĠA lex
Ġswift ly
ick et
Ġpl at
Ġbu ck
Ġmid night
Be fore
a i
Ġpr int
sc ar
be hind
Ġobser v
ac co
Ġmar ched
Ġfl ash
T om
ĠF el
Ġun iform
Ġdistr ict
Ġcontin ually
bro ken
ĠL u
T ell
Ġgest ure
ha w
Ġprop ri
c oll
ĠJ uly
at hed
Ġsc ru
sh ire
Ġr out
ar i
Ġir rit
z an
Ġsmo king
ra g
ĠB illy
Ġd rank
Ġfour th
E ven
Ġexc ess
ou ched
Ġc ave
ĠB oston
ĠW ashington
ĠJ acob
Ġexped ition
ress es
? âĢĿ
th ousand
Ġrel ieved
Ġlight ly
ĠM el
Ġat mosphere
m ount
ĠR o
Ġmag ic
Ġwant ing
Ġport ra
Ġper il
Ġcomp ared
Ġref lection
and al
ab or
Ġtor t
Ġdeb t
al ong
comfort able
ot ions
re ally
Ġin fl
Ġcomp elled
Ġin ner
Ġro ll
Ġg e
ay ed
Ġsp ort
Ġtou ching
Ġr ic
Ġfur y
Ġsad dle
s al
Ġstr ain
be gan
atch ing
ĠC orn
Ġconf ident
Ġpre jud
ĠĠĠĠĠĠĠĠĠĠĠĠĠĠĠĠ Ġ
Ġs illy
will ing
Ġat e
Ġcle ared
Ġarrange ment
Ġwr ath
u ine
Ġo we
beaut iful
Ġbe ings
ĠJ ean
le ast
ĠT H
ĠC ath
Ġj oke
Ġent ering
enc ies
w art
Ġcomp et
act ory
cri ption
Ġc ell
Ġan cest
Ġfol k
in qu
ĠP oor
Ġ1 1
Ġtem ple
com ple
Ġex quisite
Ġsc enes
E n
u v
ĠSe a
i ge
Ġserv ices
P res
Ġinc hes
Ġd ining
Ġan gel
Ġrem ote
de ath
Ġread ily
fe eling
t rees
w it
um mer
Ġche ap
Ġde arest
-- _
bl ood
m ons
Ġmis chief
Ġartic les
ud ence
if ts
P ar
ĠGerman y
Ġabs or
Ġinv ited
t ar
Ġpur poses
arr ison
Ġcand le
Ġstra w
ĠC ons
Ġvessel s
G eneral
hens ion
Ġsl ip
Ġpursu it
Ġact s
m ine
Ġthen ce
Ġabs ent
Ġsend ing
ĠAd am
Ġte acher
Ġsav ages
Ġdepart ed
spir it
ĠY e
w onder
s ure
Ġd u
if ully
Ġcha in
Ġf il
Ġsw ung
Ġdest ruction
Ġa ch
Ġdistinct ly
Ġsuspect ed
Ġp aint
op ed
ES S
v est
ri ly
R I
Ġhar sh
Ġphilosop hy
agree able
ĠSt an
Ġre ject
fe w
Ġver se
Ġing en
bur gh
Ġs ang
h ope
as per
Ġspeak s
Ġaud ience
Ġd il
gg ing
Ġfail ure
Ġsc ore
of ty
Ġpolit ics
Ġrespect able
A B
it self
Ġl ift
Ġrel ated
Ġrun s
Ġel oqu
Ġte le
Ġintellect ual
S p
ĠI V
Ġmiss ed
U N
im ony
Ġindif ferent
Ġw ake
ĠU nder
ĠE ach
Ġde ed
ĠJim my
it a
Ġd aughters
Ġsepar ated
Ġconf used
IT H
ord ing
Ġsubst ance
b ott
ĠB oth
sp ring
ĠM ed
Ġown er
d aughter
Ġun like
chan ce
sch ool
Ġro lling
Ġbe wild
ha b
res ist
Ġal ter
Ġdrink ing
Ġfall s
Ġshe d
Ġve x
al og
um ption
ant ages
ey ed
Ġelse where
isto cr
Ġdism iss
l est
Ġc raw
ol ate
Ġdel ic
Ġpun ishment
ĠD ar
Ġess ential
Ġd irty
Ġ18 4
in ion
i ated
Ġt ones
Ġdistur b
Ġdisapp ointed
ĠS on
Ġchar ged
c has
n ut
On ly
Ġw i
Ġprec ip
Ġp ed
ĠPro v
Ġarch it
em y
Ġcom mer
con ven
as y
C E
Ġf ires
Ġmaid en
W as
Ġab str
Ġfar mer
Ġpop ulation
Ġv ic
Ġpol icy
Ġp henomen
gr im
Ġless on
Ġs en
Ġphr ase
C ertainly
r un
ĠC han
Ġj est
ĠO ther
ĠT ake
ĠN ed
Ġbeg ins
ĠM o
IS T
Ġsl ope
os itions
Ġtri be
Ġheart ily
Ġtrust ed
Ġb ark
um ps
ĠHar old
Ġcow ard
ĠAnd rew
Ġhuman ity
Ġcl am
w omen
Ġy er
Ġwind s
d raw
Ġf ain
Ġsign ific
ob ject
just ice
Ġg a
Ġcol ours
Ġabrupt ly
Ġg rav
b or
Ġexp osed
Ġnot ed
Ġsound ed
Ġconst itution
ĠM ur
ĠG ree
Ġsal t
ict or
Ġspec im
Ġw ha
ri ve
Ġdisg race
, )
Ġde em
ĠK ate
Ġcom ment
Ġrec ent
ĠRog er
Ġdevelop ment
Ġref lected
Ġprof it
im m
Ġdis gu
Ġshort ly
Ġa ven
ĠO x
ĠFl orence
ct ions
b acco
Ġno is
Ġcoll ected
Ġgl ow
Ġrom antic
sh ort
Ġexceed ingly
ĠA pp
l ock
ver ted
ĠC HA
sc ape
Ġmark s
in er
ul pt
Ġcons idering
AD Y
Ġgood ness
Ġins ist
r at
ĠG old
Ġj ack
ne ed
Ġto il
Ġlibr ary
ĠU pon
Ġpret end
Ġdiscuss ion
Ġcaval ry
ĠF ore
Ġ18 7
al one
Ġgloom y
d irect
Ġr ules
ĠM ir
Ġ18 0
ic a
ĠJ on
Ġve get
Ġin ch
Ġend ure
Ġexper iment
op es
Ġvent ured
Ġfurn ished
Ġbut ter
Ġgovern or
m us
Ġl un
Ġn onsense
Ġso ber
bl ance
Ġexp ense
rem ember
in ations
ol t
Ġun conscious
Ġsch ol
ĠSomet imes
ce ly
phe w
u ously
Ġsu st
ĠĠĠĠĠĠĠĠ ĠĠĠĠĠĠ
Ġed ition
Ġgener ation
pro per
Ġstru cture
Ġgr anted
Ġw ives
Ġent reat
Ġlive ly
Ġsm ell
io let
Ġrep utation
pro v
Ġb att
w ing
u fact
Ġmod est
Ġin ev
Ġli qu
Ġenthus iasm
Ġsail ors
in cl
Ġredu ced
f ight
ic o
Ġpo ems
Ġsm art
Ġpol ite
Ġpr inted
Ġp up
D ear
set t
T ake
Ġsh y
Ġreason able
Ġprot est
Ġfl ow
Ġaccom pany
Ġne phew
Ġming led
ĠC ap
Ġrecoll ect
Ġc am
m ad
Ġpro cl
Ġsteam er
rif ied
Ġcomm ission
ĠT ar
Ġse ed
Ġcomr ades
ĠE ve
Ġb orrow
Ġre v
Ġli kes
Ġam used
Ġf etch
st range
r ison
l ady
Ġin sp
Ġg ang
ĠR em
g ave
Ġacqu ired
li ver
Ġposs ibility
U M
and a
ĠTh ree
Ġj umped
Ġmad am
atter ing
Ġlay ing
ant ing
ĠH ast
Ġpray ers
Ġdec ide
ars on
Ġarri ve
Ġc her
ĠEurope an
Ġpuzz led
Ġmeant ime
Ġbeat en
Ġhe d
Ġch in
ult ies
Ġag ony
ĠM a
Ġsun k
Ġc ities
Ġexha usted
" ;
Ġsovere ign
it ate
oun cil
Ġbr id
Wh ich
Ġreg ion
um ing
Ġfe ast
oun ter
ove mber
ĠDe ath
Ġth read
fe re
S omet
w all
Ġconsequ ences
Ġstart ing
ĠC amp
ge ls
en a
Ġdes k
Ġact ing
Ġindign ation
Ġref uge
f ol
Ġwand ered
ĠĠĠĠĠĠĠĠĠĠĠĠĠĠĠĠ ĠĠĠĠĠĠ
Ġtrave lling
Ġprevent ed
V ER
Ġgo ver
K ing
ĠB ay
Ġfin ish
Ġgall ant
ig ation
sec ond
Ġn on
ĠB ible
of ten
b able
N ew
ĠAn gel
it an
Ġkeep s
A gain
Ġst uck
Ġprop ose
ĠA N
Ġamuse ment
Ġgrow th
Ġri val
c ham
ic able
Ġneighb or
ĠH aw
ĠPe ople
ess es
Ġcl ock
s un
er ate
Ġname ly
ight ed
ĠP ri
Ġtri ump
AT ION
Ġth ither
Ġdirect ions
Ġcomm enced
pro f
Ġbr ings
Ġaut umn
Ġafter ward
Ġru ined
ion ed
w he
Ġsil ently
id ay
es pecially
Ġr ud
ĠĠĠĠĠĠĠĠĠĠĠĠĠĠĠĠ ĠĠĠĠĠĠĠ
b b
medi ately
is l
Ġf asc
f les
ĠThere fore
Ġde er
Ġnewsp aper
P hil
Ġbar bar
Ġrespect s
u a
ol a
Ġ18 5
Ġins ult
Ġin form
ĠIs land
ĠV al
ĠJ ud
Ġris en
Ġl ou
gr and
Ġc unning
t imes
ab ove
ĠS ar
V II
Ġhe els
Ġfurn iture
ge nd
onn et
Ġcl oser
Ġcontr ast
ged y
Ġdoubt ful
Ġer ror
Ġopp osition
Ġeng agement
ol es
Ġfore ver
Ġremind ed
ha ir
Ġdescri be
Ġal tered
Ġun w
ĠK en
Ġtrem endous
contin ued
Ġcur se
ĠAn other
ĠĠĠĠĠĠĠĠĠĠĠĠĠĠĠĠ ĠĠĠĠ
W ould
itt ee
th y
Ġshe et
ll a
Ġl ofty
Ġu lt
Ġgi ant
Ġsuper st
Ġrail way
A d
Ġconf l
Ġn iece
Ġsc ale
er ies
ĠV ol
Ġwar n
ĠAfric a
Ġcan v
Ġaccompl ished
Ġint imate
Ġf itted
Ġread ers
il ight
Ġfeel s
a ign
let ter
Ġfee ble
appear ance
b al
az z
Ġmoon light
Ġ17 9
Ġb ust
Ġte aching
Ġwed ding
Ġhapp ens
Ġfear ful
w est
iz z
Ġra ising
ĠH ugh
part y
Ġdim in
Ġpo ets
as hes
Ġal tern
Ġstud ied
Ġt id
Ġhe ed
ĠA pril
and ed
ic les
Ġg ig
Ġpl ot
con vers
Ġstrange ly
Ġadop ted
Ġp ains
Ġrepe at
circumst ances
certain ly
Ġf ert
ra ge
s had
Ġpat ron
us hes
Ġper mit
me et
Ġclo ak
Ġdep th
ĠO ff
Ġexec ution
i ved
pro p
Ġrom ance
O P
sh ot
id el
Ġconce aled
mind ed
anc he
Ġact ions
Ġt iny
ir med
Ġble w
Ġout ward
Ġtri p
Ġobey ed
ick ing
Ġdr am
Ġper man
ĠTem ple
ĠL and
Ġpass es
fam ily
A IN
Ġpen et
ert ed
Ġpar ish
in ch
Ġdist inction
a very
ean while
ĠY OU
ĠJose ph
am ents
ec k
Ġper formed
Ġmer it
D ER
it ively
es ter
Ġsour ce
bu ild
Ġup stairs
Ġ :
d og
Ġpri ze
ear th
Ġswe ep
Ġhold s
Ġpos itive
Ġattack ed
fe et
ier re
Ġs way
Ġd ang
ĠL atin
Ġgo in
pr ot
Ġreal ized
a uthor
Ġinc red
y ear
Ġsh ield
ian a
gu ard
ĠC ro
Ġsun set
itt y
Ġmach ine
Ġd ashed
Ġmill ion
g row
L ondon
reat h
Ġint end
ĠO ut
Ġd re
ar ly
con ce
Ġstir red
Ġcut ting
Ġatt ent
2 4
s ense
ĠS ol
boy s
Ġmajor ity
Ġbelong ing
Ġtri fle
Ġfortun ate
Ġ" _
F rench
Ġm art
ri an
se ll
ir ts
ay ing
ĠB oy
Ġdisapp ointment
ou p
Ġroad s
Ġbl oom
Ġgr acious
ĠPres ident
b orough
Ġf ed
ĠE thel
Ġmas ters
ert on
Ge orge
e enth
Ġmerc hant
Ġneighbour hood
Ġcon ceive
ĠD ay
Ġf und
em ents
Ġdevelop ed
Ġa st
b ound
Ġis sue
it ality
Ġin sect
Ġday light
.' "
Ġmon arch
d iv
Ġp ine
ĠR over
Ġp ool
Ġex isted
Ġp ile
t es
Ġcross ing
d ered
h ot
Ġorn ament
Ġp ink
be gin
Ġcoun cil
ie ge
ĠL ight
Th ou
w hel
el f
se veral
oon er
Ġf arewell
all el
ol ved
r im
Ġfl ashed
Ġcalm ly
qu et
ach ment
v iously
Ġf et
Ġwhere ver
con tr
Ġmot ive
ĠM ost
Ġamb ition
Ġgather ing
Ġchim ney
Ġprov isions
ĠS en
Ġgen uine
ĠCl ara
Ġcharacter istic
Ġinter vals
Ġvict im
is p
Ġbe ating
le ave
imp se
ĠC ont
Ġcreat ed
even ing
v o
Ġaccount s
in ous
ist ence
p ict
h in
ĠĠĠĠĠĠĠĠĠĠĠĠĠĠĠĠ ĠĠ
ad ise
Ġaband oned
ĠM ort
um ble
ĠSha ll
gr am
Ġland ing
ĠT urn
ug ged
o ard
Ġrest ing
or g
Ġadm in
S id
ft s
olute ly
Ġprecise ly
Ġr ab
it udes
Ġmass es
y s
rav ag
d in
Ġst or
V III
Ġl ust
Ġen abled
Cha pter
ess ie
A ny
Ġsad ly
Ġf an
Ġhand kerchief
Ġanch or
ĠA my
foll owed
ust ace
Ġele g
ĠT im
Ġb und
u ity
ĠC ur
Ġeat en
Ġsee king
de ad
iver ing
Ġbed room
ĠNor man
ĠS av
Ġclergy man
ĠS u
Ġag ent
ro ll
w en
el se
cha se
Ġmess enger
ge red
Ġadmir able
ens es
al though
Â §
Ġres ent
Ġus ing
Ġimm ort
Ġinfer ior
ĠGl ad
Ġg rie
Ġf aded
Ġse lection
Ġtend ency
Ġgrace ful
Ġelect ric
M Y
Ġe h
rep resent
c all
Ġsl ain
Ġdoor way
th us
Ġfe ed
Ġlord ship
i ency
id ity
ĠS ince
ĠC a
Ġcon ception
um bling
Ġrejo ined
ĠTom my
Ġfort night
Ġr av
ĠS k
T O
ĠC ong
g iving
Ġh iding
ĠĠĠĠĠĠĠĠ ĠĠĠĠ
Ġhundred s
st y
ĠSat urday
Ġpres erved
Ġaver age
ne ighb
col oured
T S
g reen
Ġgrand father
Ġav o
Ġsim plicity
Ġconf essed
Ġ vel
ĠScot ch
ge ance
gg y
supp ose
Ġ18 8
b ene
Ġexam ine
Ġr aces
Ġsens ation
Ġgrou ps
Ġbless ing
Ġx x
Ġar d
end er
Ġf oul
Ġwr ought
tr ue
Ġegg s
l uck
ins on
Ġfair y
Ġthreat ened
ond ay
Ġwild erness
Ġcent uries
tr uth
g reg
Ġd arling
Ġdev otion
Ġmore over
Ġcerem ony
ĠLa ura
ĠB ook
ans wered
Ġsto le
ĠEm peror
ĠA lf
c overed
ĠA cc
ĠO ctober
t aking
Ġcig ar
Ġpl uck
ci al
ĠSha kespeare
Ġadvent ures
ĠL ow
Ġsp ell
Ġext rem
Ġinqu ire
ĠM AR
Ġve il
Ġfl ushed
Ġn orthern
ĠF riedrich
Ġdet ail
nat ured
wr iting
Ġexper ienced
Ġarrange ments
is er
Ġdead ly
ber g
ĠG il
Ġridic ulous
Ġbe ars
Ġcur iously
ĠD ou
ens ity
Ġdo cum
s uddenly
Ġclim b
ĠT ime
ĠBrit ain
reg ard
F irst
j ac
Ġo il
ce mber
Ġsupp orted
ine as
Ġto bacco
con sequ
f air
it led
Ġth rill
Ġcoll ege
sp o
Ġpart ing
Ġaffection ate
in o
Ġchan ces
Ġtender ness
Ġbitter ly
h usband
Ġclim bed
Ġrepro ach
Ġr oused
sp ic
Ġce ase
Ġdiv ision
ĠR achel
Ġnecess arily
Ġwr ites
ĠAm ong
Ġwh irl
Ġrel uct
Ġind uced
en ny
ber y
think ing
2 3
h ill
Ġconf ined
Ġcol onel
ne xt
ĠPres ently
at o
Ġpo ver
de al
Ġdet ect
Ġpisto l
Ġexam ination
Ġmurm ur
Ġco al
t rave
em b
le ton
Ġcompl iment
Ġmult itude
Ġpover ty
Ġlandl ord
act ed
Ġst ag
qu ick
L Y
in th
Ġo x
Ġcor rupt
ring ton
Ġrevol ution
Ġs ed
Ġcap acity
Ġpay ing
H ad
osp el
ow l
s old
w elt
Ġbed s
Ġcommun ication
ve ll
Ġpass ions
ic ing
Ġcount y
Ġgl it
Ġmean while
ĠCar ol
ĠOx ford
Ġeight een
ĠSoci ety
Ġ" '
Ġr hy
Ġaff l
Ġn erves
Ġun ited
ĠP olly
Ġpass ages
Ġgr ant
Ġele ments
Ġsh irt
How ever
Ġs its
as ures
Ġl az
ĠA ng
Ġbel oved
Ġav ail
Ġdisg ust
s ac
ut y
Ġplay s
know ledge
ĠW y
Ġsucc ession
Ġleg al
v ill
Ġen able
rel s
ĠSept ember
Ġpro blem
Ġret ire
Ġl unch
ĠT hy
own ing
upp ose
IG H
Ġinstr ument
a ith
Ġb atter
Ġch o
Ġun pleasant
Ġindepend ent
ES T
ĠD em
Ġp ark
ĠC ould
Ġbur nt
ois elle
Ġweap ons
, _
Ġle nd
Ġoff ence
Ġs ink
Ġb ishop
ac ross
C ar
ĠW ild
intell ig
Ġme ad
g old
or ig
Ġsec urity
Ġmus k
us cript
Ġpri ests
Ġhe ir
Ġpart ner
Ġhoriz on
in f
Ġth irst
ĠEm ily
ather ine
Ġbetray ed
2 7
O ld
Ġn ay
ve t
Ġcha mp
I F
Ġrep ent
Ġeas ier
ĠS her
Ġdepend s
cipl ine
Ġcomple ted
Ġto mb
Ġcont ents
Ġlet ting
An other
athe tic
p op
Ġd ed
mir al
ia h
ale m
F l
Ġrefer red
Ġb asket
Ġover come
pro bably
Ġcont ro
Ġuneas y
in burgh
ill ings
Ġcare less
return ed
ĠJ udge
c orn
Ġwhere as
ĠAl so
it ious
Ġheaven s
n old
ol as
Ġpre y
Ġcontr ad
Ġre aching
oo ped
m iss
Ġwa ved
Ġc rest
Ġdep os
Ġl osing
b ad
act ly
Ġsc ulpt
Ġcomm unity
Ġfat ig
Ġhe s
Ġso fa
ind ing
ĠR uth
d et
Ġdec ent
f rey
ĠP ut
Ġal armed
Ġres idence
Ġtreat ment
Ġd ine
Ġme nd
Ġbal ance
an x
Ġinv itation
Ġlear nt
Ġreven ge
m el
ĠA ct
Ġstro ke
p ublic
Ġwas h
for ms
Ġed itor
Ġsec ured
Ġclaim s
ĠV ery
Ġre n
ĠL ie
f old
Ġf og
Ġest eem
S ay
Ġmed ic
Ġtr ump
Ġanx iously
Ġknight s
c ad
Ġbl ows
Ġinter fere
Ġart s
ap h
Ġbe half
ĠĠĠĠĠĠĠĠĠĠĠĠĠĠĠĠĠĠĠĠĠĠĠĠ Ġ
Ġrep orted
Ġinter ior
ON D
con v
Ġneg lect
re ne
b ot
ĠS aint
_ --
Ġcapt ured
Ġvan ity
Ġtrad ition
so le
E l
el ia
Ġcitiz ens
u an
ur ches
Ġwe aring
ĠVen ice
ict ions
i ary
ĠA ustri
Ġdoubt s
Ġput s
Ġm ourn
Ġfather s
Ġrest ored
u k
Ġquestion ed
ast on
Ġcl ay
ra el
n ear
Ġg own
ĠO t
su gg
Ġsu pre
Ġes c
Ġcont ented
your self
M ore
c astle
Ã ±
Ġbuild ings
r as
Ġcont ract
Ġsub tle
Ġsupre me
Ġprop he
un less
ĠN ay
Ġfast ened
i ate
comm un
m und
c hard
r idge
Ġde w
Ġde eds
ĠXX X
ic ations
ĠP ur
Ġstrugg ling
Ġa we
ribut ion
Ġthe atre
ild a
Ġpol ic
' --
b right
Ġsub sequ
Ġin spect
Ġcan non
Ġprop osition
g ings
Ġc ock
me an
Ab out
Ġpress ure
ĠW all
b ra
c iously
Ġwar ned
Ġpersu aded
j our
Ġimper fect
Ġconqu er
Ġpass engers
con n
cei ving
Ġwas hed
ĠF le
Ġweap on
The ir
Ġrecei ving
ĠIs abel
gl as
R Y
Ġoccasion al
Ġp ond
ĠC y
Ġinter val
Ġwalk s
bec ome
ĠAr t
Ġj olly
re rs
Ġshoot ing
us ually
ĠG ri
ĠMar ia
ink le
Ġdwell ing
Ġbr ush
M ary
Ġse m
Ġgl impse
Ġdress ing
Ġcount ed
Ġplat form
Ġdem onstr
Ġg arrison
et ty
Ġchar ity
Ġsign ed
Ġsol ic
st ate
Ġ4 0
ĠHast ings
c as
Ġo ak
G er
ĠE mp
ib ilities
ĠTh rough
Ġf re
ĠH aving
Ġre vel
Ġoper ation
it ations
int s
Ġstr ing
Ġcon ceived
Ġg orge
Ġr am
Ġmill ions
Ġcompar ison
he ar
Ġadm ired
h o
Ġm ant
Ġgu essed
what ever
Ġmis fortune
ĠW at
ĠMar quis
D r
ĠD om
me ans
ĠB a
Ġ Ã
es y
Ġmeas ures
p ain
Ġsail s
b all
ord ers
Ġvirt ues
g rave
Ġup right
Ġcl imate
em oiselle
Ġle ather
2 6
or us
P l
Y e
ĠM ax
Ġbl ock
r ick
Ġg ifts
ĠSpani ards
Ġrec all
== ==
Ġa fore
Ġw ages
im mer
hel p
Ġlan tern
Ġformer ly
ĠP an
d anger
Ġin ward
Ġchair s
ans wer
Ġtw ilight
Ġtre acher
Ġbe er
ĠR O
Ġvisit ors
M an
Ġpl ed
rem ark
Ġden ied
Ġt ales
Ġii i
Ġdream ed
Ġp p
Ġca res
Ġhes itation
om ach
ĠO N
Ġcelebr ated
f ear
Ġd iver
D ick
Ġpre m
ĠYou ng
Ġinc ome
ĠLe on
d eterm
Ġar istocr
Ġimp ressed
Ġhal ted
Ġsol itude
Ġlo ad
Ġt in
ink led
Ġleis ure
Ġf ishing
R AN
off ice
v ous
Ġresist ance
ĠB urn
Ġconst it
Ġregard ing
Ġpock ets
pre p
H ER
un ce
Ġsur vey
Ġheart y
Ġre conc
Ġqu it
Ġst aff
pr ison
Ġenter prise
ar ian
Ġm ob
ud der
P eter
Ġad apt
import ant
Ġtrem bled
p han
Ġluck y
Ġw estern
Ġre b
Ġhor rid
ly n
pl aces
Ġlo c
Ġbar gain
un ction
Ġres our
C T
Ġassem bled
Ġsy mb
ĠSus an
Ġret orted
en ote
ĠJo an
I A
Ġapp et
Ġsu bl
Ġper mission
sm ond
ĠF our
Sid enote
ĠP art
Ġshout ing
comple te
Ġd uck
fam il
Ġdise ase
ĠR ow
Ġgu ilt
Ġco arse
Ġinquir ies
Ġp atter
Ġopp osed
Ġc oo
ri ages
4 0
m em
P e
Ġdec or
Ġbr ute
dec l
Ġr ushing
ĠO liver
wind ow
Ġintellig ent
Ġprefer red
Ġl ur
ort un
Ġcent ral
R ob
fa ith
z ing
Ġd umb
t ry
č č
Ġpit ch
Ġreve aled
ret ary
Ġwrit ers
Ġhide ous
fr ont
Ġm ould
Ġcont aining
Ġman ufact
Ġp owder
adv antage
Ġfoot steps
off rey
Ġadv ancing
Ġwarm th
ig er
ĠG overnor
quar ters
Ġrep ose
Ġpassion ate
Ġd ivers
ill ery
ĠĠĠĠĠĠĠĠĠĠĠĠĠĠĠĠĠĠĠĠĠĠĠĠ ĠĠ
at on
Ġfaint ly
c ause
read ing
ane ous
ĠH ence
ĠFel ix
Ġro ot
._ ]
Ġsettle ment
ĠD uring
l our
Ġsto pping
Ġnarr ative
e ur
Ġw ont
Ġir regular
comp any
Ġestablish ment
Ġf ox
str ous
Ġmaint ain
gr ad
Ġtro op
Ġd welt
ĠD en
Ġun ion
Ġconven ient
iqu ity
st ers
Ġinst ances
oubted ly
Ġmost ly
2 8
Ġg ross
Ġb er
car ried
ce l
Ġst olen
so ever
Ġimpat ient
ust ry
Ġrecogn ised
th ren
Ġhum or
t ra
Ġg ardens
ough s
v in
f ish
Ġha z
ĠG rey
Ġph ot
f if
ent ered
Ġtri bes
ir on
ĠA p
ener y
Ġsk ipper
ĠWor ld
Ġcitiz en
Ġlead s
ang led
Ġneighb ours
Ġsac rific
ĠK night
ĠD E
ĠR ay
ĠMore over
ĠC ham
ĠN ovember
Ġsha ken
Ġre ef
Ġran ks
Ġd amp
Ġse ats
Ġla wn
Ġwra pped
Ġal as
Ġrel ative
ĠDor othy
eb ru
ĠT own
Ġsp ear
ĠCath olic
V E
m ot
Ġg asped
Ġpro dig
ĠT ra
Ġland scape
Ġlim ited
Ġho arse
" _
Ġbreat hing
Ġeld est
Ġobed ience
s ays
Ġtr unk
ĠCl are
re ceived
or ial
Ġre bell
On ce
Ġsatisf y
ebru ary
ĠM ars
Ġflo ating
Ġl ament
Ġacknowled ged
ific ations
Ġplun ged
ĠD ry
Ġch uck
Ġwand er
Ġinstruct ions
i ations
Ġf aced
ist r
do ing
Ġd in
rel ig
Ġbold ly
mar ried
Ġemploy ment
Ġsuppl ied
Ġbro od
Ġart ific
.... ....
ps on
ere r
Ġbr ut
F ather
K E
ke pt
inc ip
ĠĠĠĠĠĠĠĠĠĠĠĠĠĠĠĠĠĠĠĠĠĠĠĠ ĠĠĠ
br ance
ĠĠĠĠĠĠĠĠĠĠĠĠĠĠĠĠĠĠĠĠĠĠĠĠ ĠĠĠĠ
ĠĠĠĠĠĠĠĠĠĠĠĠĠĠĠĠĠĠĠĠĠĠĠĠ ĠĠĠĠĠ
2 9
Ġgle am
d uring
ĠC raw
Ġsy m
ret ion
Ġf isher
es c
Ġsevent y
Ġlight ning
Ġexist ing
Ġd aring
Ġar ise
og ue
s leep
Ġass ume
IN E
ribut e
Ġattract ed
att empt
Ġcurt ain
ap a
ĠW ater
ĠJ os
Ġsl avery
pri v
Ġsecond s
Ġper sec
Ġcomr ade
Ġin spir
Ġfoll owers
n ation
Ġt u
Ġele v
Ġfun ny
Ġadv antages
Ġtra gedy
le arn
ber ry
inc es
Ġkn e
D uring
in v
Ġdis may
Ġjust ified
Ġwithd raw
r ise
Ġthought ful
Ġcha se
ii i
Ġle gend
Ġfound ed
Ġbu ff
Ġpret ended
IC K
ĠV I
Ġproceed ings
see ing
here nt
Ġenjoy ment
Ġbelong s
g all
Ã ¡
room s
Ġde ce
Ġdep ths
B ar
Ġgr ows
Ġth ir
Ġaw akened
ĠB ern
est ab
ĠC ec
ĠV ictor
Ġd oubted
ri l
fall en
G u
ound ing
Ġhand le
for mer
on ial
Ġp ig
Ġcompar atively
f ree
Ġha ul
Ġr asc
s ar
bec ame
Ġmot ives
o a
t re
ie u
Ġcoll ection
or gan
ur ious
ĠC ouncil
Ġrest less
Ġperfect ion
Ġresp ond
az ed
a ved
Ġprinc ess
conc ern
Ġc ards
in ally
Ġresc ue
Ġind icated
Ġneg lected
Ġr uff
Ġ18 9
Ġprep are
rec ogn
Ġyield ed
,-- "
get ting
Ġexchan ge
th ou
ĠJ erry
Ġpur chas
a us
ĠM ah
ĠB on
Ġincl uding
Ġfold ed
m al
Ġg oss
ĠM ex
Ġind uce
Ġwas ted
Ġcommon ly
L ike
ĠH y
Ġoff ering
Ġaband on
ĠS op
Ġz eal
Ġer rand
Ġsqu ire
ost er
pro ceed
Ġown ed
Ġ $
Ġcon grat
H aving
dist ance
Ġconduct ed
Ġfur ious
Ġhat red
Ġn et
ĠC at
ĠNever theless
Ġb ench
ĠS ab
Ġem br
in flu
Ġp uff
Ġpress ing
Ġcritic ism
Ġdes erve
Ġn ut
Ġsub mit
S hall
ĠL ake
Ġsum mit
l ines
s n
Ġex agger
Ġprop osal
d ale
g le
ist en
is ible
Ġdiscour se
ĠW hether
er ick
Ġindif ference
b ank
c re
d ear
Ġh ook
ĠGu y
pher d
ap an
Ġh ind
Ġg ale
Ġbr ass
Th ough
id d
un ken
Ġf ant
Ġgr ain
s ens
Ġm orn
Ġent itled
AR D
Ġindividual s
Ġan gels
ĠWe re
Ġdr owned
Ġru ins
rid ay
Ġm ast
ist ent
Ġsle nder
st ud
Ġa u
Ġun just
s kin
an ge
Ġass urance
ĠCount ess
Ġvers es
Ġse eds
ĠJew s
Ġreve rence
Ġportra it
Ġp ear
uth ors
Ġshe ll
Ġfin est
Ġ ----
Ġcheck ed
ĠWith out
Ġhas n
bl ue
Ġincre asing
Ġt ie
Ġdes ires
Ġcanv as
f ert
Ġparticular s
g ers
ian o
w ed
ave ment
Ġaw oke
ens ions
ĠM AN
Ġsc andal
az ine
c ott
Ġrecomm end
Ġstand ard
Ġill ness
exp ression
Ġsong s
b od
Ġf oe
ĠG ive
Ġmin or
op ened
Ġem otions
Ġsp ared
ĠN ich
Ġcont act
gr own
Ġr att
Ġcor p
Ġmotion less
Ġstore s
in ence
ord ered
cher s
imp ossible
Ġup ward
Ġproceed ing
H ar
Ġthr ong
ĠPr uss
ul us
in ating
Ġwor ry
Ġwh ither
se x
lau gh
Ġsail ing
Ġmethod s
Ġmaint ained
ĠĠĠĠĠĠĠĠ ĠĠĠĠĠĠĠ
Ġres erve
Ġext ravag
Ġmur dered
Ġtor ment
m ill
r ain
Ġsa ving
ĠB ecause
Ġperform ance
re ve
Ġtrave lled
Ġover whel
pret ty
ken ess
Ġbo ast
Ġp ush
ag le
Ġl in
Ġis sued
Ġprof ess
under stood
ar ound
Ġg as
O S
Ġs om
Ġattempt s
convers ation
L ADY
ran ny
p ock
Ġcaut ion
chan ged
Ġsu llen
Ġgl ancing
Ġpersu ade
d ream
Ġb arn
Ġf ence
book s
ĠM onday
Ġrare ly
ĠM ess
AR T
Ġinj ury
Ġstay ing
ut tered
ĠC ross
Ġinc ap
fer red
U pon
l ost
un ter
ĠJ eff
ĠT ill
Ġmon key
Ġschool s
es cap
Ġsw ords
au x
te enth
Ġhun ter
m ove
Ġdri ver
wr itten
Ġblood y
p est
Ġj er
Ġsummon ed
t reat
Ġpat riot
Ġviol ently
stru ck
Ġli p
Ġdis like
s ort
ĠPr otest
Ġany way
Ġpract ically
Ġwarri ors
ĠAmeric ans
ĠI S
! _
ĠB as
Ġbr isk
add ed
ĠMic hael
Ġdiffe rences
st ock
O H
Ġres ign
Ġcol oured
Ġsur v
Ġprep aring
Ġr idge
Ġgener ations
Ġof t
Ġdif fer
ĠChrist ians
Ġste al
vi ved
Ġtriump hant
Ġtot al
ĠRuss ian
Ġsu gar
exp ress
HA T
Ġcrit ical
st ory
ol ph
after wards
ĠGer ald
ĠH art
Ġven geance
ĠE v
Ġwar s
Ġpal m
Ġv ener
ĠF ox
urs ed
um erable
w his
att ention
che on
al ia
k a
ĠR E
Ġappro pri
pol it
Ġoccup ation
Ġcig aret
our able
Ġj oint
se par
Ġse lected
Ġprepar ations
p al
p i
Ġvill ages
Ġhun ger
ie ves
Ġyour selves
om p
Ġs aints
Ġpres ume
pur pose
spic uous
ĠP ers
Th ose
ixt ure
Ġal tar
Ġcommand er
fashion ed
Ġapp ly
Ġs outhern
Ġfound ation
ĠJohn son
Ġinvol ved
Ġvar ied
Ġsch ooner
al together
ĠF OR
ustri ous
l k
Ġinf ant
ou bled
Ġgar ments
J ack
Ġtrave ller
Ġtempt ed
ĠA L
Ġfra gments
st art
Ġpron ounced
Ġt ables
Ġs inking
ĠE ll
Ġshore s
Ġansw ers
Ġmut ual
Ġvis its
p ath
ha ble
ple ased
Ġcertain ty
Ġri vers
Ġmad ness
Ġprompt ly
e ve
Ġder ived
Ġt ip
ap sed
Ġthere by
Ġvar ieties
Ġpain ter
qu er
Ġarrest ed
ĠDuc hess
Ġcrim son
Pres ently
ign or
Ġlong ing
app re
Ġnot withstanding
Ġcl ung
Ġ3 5
off ic
Ġa ught
Ġpres ents
Ġm oss
ch urch
Ġconsequ ently
cond ition
Ġeng age
Ġthank ful
Ġend less
ĠA ustr
Ġab oard
Ġlim its
Ġman uscript
ever al
e z
Ġas hes
ĠS to
Ġact ivity
ĠGlad stone
ĠT er
ĠL ion
ord ingly
Ġexpect ing
Ġdis agreeable
Ġform al
ĠRep ublic
be yond
ĠW ind
Ġpictures que
se nd
Ġsolemn ly
Ġcamp aign
Ġpr ime
com es
Ġlarge ly
Ġst ately
el ic
Ġbro ok
Ġw ip
ĠH oll
un te
Ġinj ured
Ġpos itively
c ity
Ġgri ev
ung le
Ġhom es
ad dle
Ġcl ust
Ġtum ult
Ġen chan
Ġhast ened
OU R
Ġconf ession
Ġform ing
o bl
Ġun common
Ġro ses
Ġret ain
k ers
il ised
Ġm ajesty
Ġm our
sl ow
c ivil
ĠW ords
Ġreal ize
fur ther
t ies
Ġpeace ful
Ġcry st
Ġsecret ary
Ġrec ently
Ġmur de
Ġgall ery
Ġin ex
ĠP ick
ett a
Ġbl owing
con cl
ĠB arn
is ms
Ġv est
Ġbl own
Ġsc ra
Ġsha lt
agg age
Ġde ceived
ro b
ĠH as
ĠG en
' "
ass es
Ġchild hood
Ġoper ations
Ġr ises
Ġpain ting
on et
Ġfro st
st ro
du ed
Ġbelie ving
all ow
Ġ2 1
Ġn igh
ect or
Ġw agon
ĠE le
le by
ic ism
l aid
Ġv ice
Ġro ots
Ġhosp ital
suffic ient
ĠC H
Ġins ol
G ive
Ġrespons ibility
ograp hy
Ġwhe els
Ġtheir s
Ġt ar
Ġl ane
im ately
Ġopen ly
Ġb one
Ġdro ps
Ġspect acle
ĠN i
an ks
Ġstud ent
Ġass ault
stra ight
Ġb ath
Ġwa ving
Ġset s
serv ice
Ġst ret
ĠO s
exp ect
g un
Ġd ict
Ġbr ick
Ġpleas ures
Ġth ief
Ġw ard
st o
did n
ruct ed
ĠRom ans
Ġw ot
ĠM S
ĠIs a
y m
Ġc ure
Ġqu aint
Ġrecoll ection
Ġchan ging
Ġlover s
Ġamaz ement
Ġfl ames
Ġneed n
Ġhealth y
Ġpen ny
ous ers
Ġdisplay ed
ĠSax on
us alem
id able
Ġt un
on a
ri a
Ġansw ering
Ġst retch
ind a
Ġn aught
ĠS un
Ġwar rant
Ġtra p
Ġd uke
Ġh oney
in ine
Ġam using
Ġless ons
Ġdish on
p ence
Ġcons isted
Ġw ilt
od d
Ġman s
ĠE ustace
om ing
Ġthought fully
Ġgrav ity
Ġtran qu
m ur
Ġst omach
com be
se ven
ĠR ock
Ġun iverse
Ġrem ove
Ġreg ions
Ġdes cent
ĠHer bert
Ġwa x
2 2
ld er
Ġmay be
Ġst amp
Ġbl oss
cl oth
Ġlast ed
Ġsix teen
ĠB al
Ġel bow
Ġstrugg led
Ġproc ession
ĠProv idence
h ole
Ġw olf
Ġrail road
w on
Ġcon vent
ist ing
Ġcre ep
Ġcompre hend
c old
Ġbel t
Ġrighteous ness
ck s
p aper
ĠTar zan
ĠS ally
ĠE arth
Ġtr aining
Ġmust n
Ġlead ers
r ad
ĠA T
Ġchan ced
Ġto re
Ġfortun es
A G
ra h
ap ole
ĠRe g
ĠJan uary
Ġdre ary
E W
ent ire
ĠP ercy
un ks
Ġam iable
c ra
Ġinev itable
comm and
! âĢĿ
Ġrec alled
ĠG re
Ġreg ards
no x
Ġill um
Ġstream s
N OT
Ġwe ep
Ġtrave llers
Ġrespons ible
ĠAr my
Ġfault s
ĠDou glas
n umber
at ha
Ġsw ore
Ġprodu ct
Ġprivile ge
Ġscar let
Ġincl uded
Ġin k
ur able
arent ly
B rit
Ġr ash
Ġyouth ful
Ġinter course
s light
des p
it utions
ne ither
Ġpe ep
Ġcompl ain
Ġarg uments
M e
Ġpar allel
OH N
Ġdro pping
Ġpro long
ell o
ĠF itz
Ġjud ged
u ing
Ġadv ise
Ġo ars
Ġre ception
Ġsh rie
Ġsur render
Ġafford ed
Ġright ly
Ġinsp ired
Ġwill ingly
Ġsent iments
d am
Ġmod el
d ie
Ġbut t
ĠÂ £
Ġobsc ure
S ON
ĠE nd
Ġacc ess
Ġfierce ly
h orses
Ġa while
ĠH or
Ġinv isible
ett le
ĠDe cember
Ġsatisf actory
s oul
ĠS ay
Ġglass es
m il
Ġp ul
Ġglad ly
f resh
ad o
Ġ3 3
sy mp
it o
art ment
Ġpur chase
ĠJohn ny
; '
rew d
Do es
Ġwe eping
Ġback ward
Ġdisc ern
am y
Ġhero ic
ĠComm ons
ĠB uck
Ġentertain ed
for ced
p ool
Ġchap el
Ġbr ains
ĠN ext
in ery
B et
ĠH ans
Ġs aint
Ġsu itable
ĠBe ing
Christ ian
Ġdefe at
Ġs han
Ġlow ered
ing e
Ġsa ith
ĠD is
Ġcruel ty
ĠScott ish
ĠChar lie
ĠHen ri
im mediately
i ast
Ġg am
Ġwe pt
Ġacknow ledge
re ement
is le
Ġdis cipline
n um
g otten
ex cl
Ġpur sue
th row
ir ie
ines e
satisf ied
S ha
at us
Ġoff ices
Ġ5 0
Ġlo aded
Ġconqu ered
s ister
em p
le ad
tr ouble
Ġpull ing
Ġbell s
Ġdang ers
Ġst able
Ġapp ar
Ġen vy
Ġphenomen a
p ical
Ġs ar
it ating
c ry
s is
er a
Ġsh illings
Ġdes erved
s ail
ĠSqu are
b a
Ġv ary
Ġch ill
Ġ1 00
Ġmiss ing
b ran
Ġmon strous
Ġwh ip
Ġcl osing
Ġcorn ers
Ġw ounds
Ġl ecture
ĠG oth
ĠAb out
resh old
obser ved
al o
Ġse ize
ass ad
Ġcoll ar
Ġpe asant
Ġhast y
v ial
Ġsu ited
Ġeff ic
Ġv ote
ne g
iz es
inc re
ad dy
Ġsa le
Ġjealous y
Ġhapp ily
cond uct
Ġlad der
Ġpl ains
ĠS pe
Ġacc um
Ġ `
Ġinc ons
ĠD EAR
Ġvol umes
Ġha w
Ġde af
Ġbull et
Ġcont ain
li est
ag ues
Ġcliff s
agg ie
z es
n ant
Ġstud ies
Ġdisp ute
Ġstrict ly
Ġeye b
Ġabsor bed
ĠA ss
i ents
Ġp enc
Ġnot ions
Ġprev iously
Ġm ail
ĠH a
Ġtr ades
Ġfl ies
g ence
Ġfier y
us al
Ġam ple
l antic
li ving
Ġdisapp ear
Ġsymp ath
Ġfour teen
Ġw oe
ic ating
Ġwho les
sh ow
Ġpres erve
Ġfem ales
Ġimpat ience
os a
Ġe cc
cle ar
Ġfrank ly
ĠH ot
seem s
4 5
ĠN ick
Ġcapt ure
c at
l oc
Ġp ip
Ġdiscuss ed
Ġb ows
Ġr apt
cons ciously
ĠT ri
Ġpl ac
interest ed
Ġtempt ation
Ġperpet ual
Ġre in
ĠEd inburgh
Ġvig orous
Ġvill ain
Ġhonour able
spe aking
Ġresem blance
s ound
Ġst are
ĠC as
ol n
Ġgu ards
apole on
ot ing
ĠR od
Ġdra ught
Ġsurpr ising
Ġliber al
H as
ĠD u
exper ience
IS S
Ġpray ed
Ġdeterm ination
g us
ant ial
' ;
Ġup wards
Ġdecl ined
Col onel
Ġme ek
Ġsc ant
foll owing
Ġconfl ict
Ġappl ication
Ġnewsp apers
Ġte am
re ction
Ġrespect ing
Ġspo il
Ġthan ked
Ġstre ng
rem em
g race
Ġt our
ill es
Ġdistingu ish
Ġag ed
Ġloud ly
Ġro ared
ic ians
bar a
Ġearth ly
B esides
ĠS uddenly
ĠN ight
f aces
Ġre le
vent ure
Ġwithd rew
ol ves
Ġsw ell
Ġfeather s
ĠHe ad
Ġcon j
Ġhear th
Ġmaterial s
ic an
Ġcorrespond ence
Ġen v
Ġcheer fully
d ire
sel s
ha ired
ĠK ent
Ġrenew ed
il ton
r ust
Ġt a
ass o
Ġwit ch
Ġsk ull
m oved
Ġbo ot
Ġmedic ine
Ġfool s
Ġendeav oured
n early
ang le
ey e
Ġauthor ities
ou st
as ants
AL L
J im
ĠD own
Ġse lect
Ġpar lour
Ġsmall est
Th ree
Ġimpro ved
Ġmet al
Ġorigin ally
Ġse ver
Ġsh rill
m id
Ġd un
Ġear n
li ked
Ġpur se
Ġwild ly
Ġse al
w anted
Ġt on
Ġ3 6
ĠGe offrey
iol og
Ġcand id
in i
Ġtr ained
Ġfl ock
Ġd anced
ĠD i
Ġun willing
ĠCar l
w ixt
Ġp all
cl oud
2 1
ĠW alk
Ġsm iles
ĠPort ug
Ġb ri
ĠVirgin ia
K e
li ved
Ġinv al
Ġwis hing
Ġeduc ated
Ġinher it
ĠE ver
Ġemp ire
ĠSomet hing
Ġhistor ical
ur st
em ploy
U ST
Ġde fect
Ġtr amp
Ġphilosop h
Ġcomb at
ĠWil son
et ry
ĠChar ley
Ġd ense
ĠC art
ĠW he
az e
ĠCol umb
Ġl ic
th ird
Ġcourt esy
st reet
ri ver
Ġkill ing
Ġcont rived
re ached
Ġfun eral
ab y
Ġadv ised
Ġlow est
Ġhop ing
Ġstat ue
il ess
Ġcar pet
Ġind ustry
Ġte leg
ĠUn ion
ĠVen et
ĠJul ia
Ġcondem ned
ĠNe ither
ne x
ĠS pr
ĠB Y
Ġcou ch
Ġtid ings
w ish
Ġcl asped
_ ."
Ġoff ended
Ġacc used
ac cept
ĠTh ink
Ġw oke
ĠB ow
br ing
ĠGra ham
ĠB ull
un cle
Ġjew els
Ġbre thren
ĠD iv
asp ing
ĠB E
Ġman ly
Ġup set
ru ly
H en
Ġsk etch
ĠG al
ed uc
ĠB art
Ġbr ows
lot te
ie nd
Ġdeem ed
ĠL ane
L ou
U D
Ġlong ed
Americ an
ĠG all
pr on
Ġest im
say ing
ĠF riend
Ġper f
ĠO ver
es ar
the w
ĠE s
Ġprodu ction
Ġno bles
inc erity
Ġd ried
ĠR es
vi our
ar ched
Ġseem ing
t rem
ut or
Ġcor ps
Ġconn ect
a ire
Ġf est
el ed
Ġdown stairs
Ġfavour able
M S
he ster
ĠGr ant
ater nal
IGH T
ur g
ĠAl b
Ġcont em
swe et
G reat
l iter
ar ation
com b
Ġconsider ably
Ġsurround ing
Ġprosper ity
th rop
Ġex ult
Ġbitter ness
Ġpo le
Ġpure ly
cont ent
Ġcatch ing
Ġcr ushed
Ġendeav our
l it
Ġwis er
ĠP ass
ph il
L D
Ġp ious
Ġf iring
medi ate
Ġap olog
Ġm ap
Ġrem orse
Ġbewild ered
Ġf ug
ĠMar ian
Ġprev ailed
ĠSec ond
a ired
Ġch urches
ĠSil ver
ri el
poss ession
ĠIs rael
ĠJan et
Ġb ond
Ġel abor
Ġperson ally
Ġtr am
Ġter rit
Ġspeed ily
ĠMor ris
Ġsevere ly
Ġearli est
n one
Ġp our
might y
Ġh ired
st ream
Ġlim it
Ġrag ged
Ġt une
Ġhol iday
Ġsecret s
fin ished
Ġcl ut
Ġsc ent
Ġchild ish
Ġmar vel
happ ened
Ġobser ving
Ġinfinite ly
Ġtem porary
Ġread iness
tran s
Ġwh it
ĠT or
Ġsc ri
Ġdesir able
Ġgl owing
c er
ĠB all
ist ration
ig ate
Ġfro zen
Ġw ag
ent ially
Ġst oop
ĠW estern
Ġback s
s itting
Ġw its
Ġsh o
Qu ite
Ġwhist le
spo ken
Ġappet ite
Ġre nd
ol o
ste in
Ġimmort al
Ġr at
Ġpl anted
Ġbreat hed
Ġperman ent
oo re
Ġrem o
Ġencour aged
Ġinsect s
c amp
ll ey
Ġprofession al
Ġd at
Ġspec ially
Ġdisgu ise
ut ing
Ġbre ed
Ġbund le
N ext
ON T
E m
Ġsun light
Ġmed ical
b orne
ci ation
Ġlux ury
Ġad orn
Ġann ounce
Ġd ined
ĠJ apan
har p
Ġgreet ed
Ġavo ided
ĠB u
inc oln
Ġtra g
Ġax e
ĠC ape
ĠCh ief
Ġmeas ured
er ving
Ġhar bour
Ġhapp ier
Ġarm ies
Ġmem ories
W al
li er
ĠD er
Ġcomp osition
Ġprot ested
Ġt ast
Ġjust ly
ĠS urely
sh ore
Ġpret t
Ġli keness
s ol
Ġar row
aw are
Ġhar der
Ġleg isl
Ġm ales
ch ie
Ġcha llen
Ġrel ax
ĠAlf red
p hant
Ġw ire
Ġcons ented
Ġmer its
Ġb ars
hand ed
ĠChristian ity
Ġbill s
ĠF e
Ġrep ublic
Ġaffect ions
Ġinno cence
ac ific
out s
ĠCh ild
Ġt read
en et
ac re
Ġtri f
S m
g overnment
Ġwhe at
Ġrecogn ize
Ġsex es
aver ing
Ġp ound
ĠBr other
resp ons
Ġbend ing
Ġj ar
it ably
Ġeight y
Ġcott on
Ġtal ent
Ġs iege
im er
Ġter ribly
war f
Ġw retch
us ky
Ġele ction
Ġcon vention
occup ied
Ġgoss ip
min ster
ĠL ib
ri pp
long er
il iation
Ġar rows
Ġsim pl
ĠLie utenant
Ġa uthors
ach t
cept ible
sec ret
Ġout line
com par
ĠCh ina
Ġconcl ude
l angu
ane ously
Ġtest imony
] ,
rem ained
ĠLord s
h ire
ĠSw ift
ĠS id
Ġwhere in
ĠNich olas
Ġs ke
Ġemb race
g od
Ġha y
ĠWhat ever
Ġfru its
Ġcultiv ated
Ġsh ine
ĠD ec
Ġpropri et
b ag
Ġin conven
Ġe astern
ĠG ray
Ġjust ify
Ġbreat he
Ġemp has
Ġwarri or
ĠR h
Ġve ins
Ġha unted
Ġcon ject
Ġlady ship
min utes
Ġaddress ing
Ġconvey ed
ĠV II
EN D
Ġenc ounter
Ġst er
ul ously
ĠB ax
del ight
ĠTur k
Ġconc ent
Ġrock y
gu ish
AR Y
ut t
keep ing
Ġglit tering
Ġdr ama
Ġstern ly
d inner
r ude
Ġb aggage
Ġjour nal
Ġto ps
Ġas ks
atr ice
stre ngth
S am
ĠM E
Ġmon ot
ĠSqu ire
ĠF riday
Ġpleas ing
ĠH istory
ĠAlex ander
ĠG ar
vell ous
Ġinto ler
oc ation
pass ion
Ġguard ed
3 5
Ġcr is
Ġcivil ization
ĠM ass
Ġcon spir
act ions
Ġfl atter
ĠL ee
Ġreturn s
Ġb order
ur bed
pre c
he alth
Ġh oof
ĠN obody
Ġfe ature
Ġwind ing
Ġhol es
L uc
Ġesc ort
Ġshout s
dire ction
Ġr aw
Ġphot ograph
Ġpro se
Ġcont ains
ĠF ebruary
ĠM iddle
Ġblaz e
AN T
G l
S ec
f illed
l ab
ĠS and
Ġsh udder
ide a
Ġdel icious
Ã ¢
Ġg ap
Ġcre ation
ĠC ent
Ġcomm ence
thought s
satisf action
Ġha unt
g arden
h ours
bl est
begin ning
it he
ĠP R
Ġdes olate
Ġintent ions
Ġf ri
ĠL arry
Ġcha m
pres ence
ĠĠĠĠĠĠĠĠĠĠĠĠĠĠĠĠĠĠĠĠĠĠĠĠ ĠĠĠĠĠĠ
Ġimpat iently
ĠLeon ard
Ġtr ousers
Ġtw isted
ĠBet ty
r ont
int on
Ġatt ain
n et
Ġver d
Ġforest s
reason able
Ġsan ct
ĠĠ čĊ
Ġchief s
Ġex ists
Ġam bit
Ġspeak er
ĠRob in
Ġguard ian
p ot
Ġamaz ed
Ġs ect
Ġv i
Ġag itation
p un
Ġt ap
Ġwe igh
pl om
ord on
f ool
Ġste ward
gener ally
_ .--
Ġthe t
cl othes
ĠV III
Ġpolic eman
F N
Ġt ick
Ġsh rewd
ci a
Ġexpect ation
Ġp arson
Ġdem ocr
inst ead
Ġpack ed
last ing
Ġb onnet
ĠAl though
perfect ly
ĠO wen
Ġprob ability
stru gg
B Y
Ġf ountain
Ġlie utenant
Ġpor ch
op inion
Ġsub dued
Ġlin en
l ength
3 6
ĠO z
ran s
Ġass ented
v iol
Ġ3 7
Ġst im
Ġd azz
Ġlod gings
Ġany how
Ġmin isters
interest ing
Ġthere of
Ġcold ly
Ġstir ring
om y
fol k
Ġc ens
Ġundert ake
O Y
ĠA y
Ġadd ing
Ġoccup y
por al
Ġadop t
pr incip
Ġpreced ing
Ġstick s
b ig
Ġwide ly
Ġab ility
f al
hing s
ĠM as
Ġhero es
Ġn inet
Ġbr andy
s av
ous ins
ink ed
hard ly
ĠLou ise
Ġprom ises
Ġaccom mod
hast ly
Ġy ell
Ġapp le
Ġprinc es
Ġecho ed
ĠS ur
Ġdemand s
ĠT ed
Ġun worthy
Ġbod ily
ĠHal f
G et
Ġha ught
famil iar
ger y
ĠCong ress
in ia
Ġprec aut
u ps
over ing
Ġmon ster
ĠEnglish men
IC E
i os
Ġf iction
Ġman ager
ĠL ily
Ġid ol
Ġdelic acy
Ġsh ocked
Ġtim ber
ra ised
Ġtr im
me aning
Ġfavor ite
ĠEmp ire
ĠG ro
Ġnew ly
Ġbrief ly
Ġcompass ion
Ġar ray
ĠN a
ove l
if orn
Ġv ital
Ġrequ ires
Ġsearch ing
Ġsens itive
Ġdismiss ed
Ġre view
Ġan aly
happ iness
Ġremain der
in ement
L ittle
l ings
Ġv ap
Ġprov ide
ĠFl ora
sil ence
Ġ =
ĠAl an
Ġmus ical
Ġpers p
Ġmir acle
G reek
Ġpre acher
Ġimp rison
Ġsupp osing
Ġelder ly
b ishop
d ress
Ġsp y
Ġch ival
Ġwa iter
Ġform idable
Ġrecogn ition
Ġb ud
cons idered
Pr ince
i age
Ġu m
Ġda res
Ġvac ant
Ġaddition al
Ġd irt
bur st
Ġneighbor hood
wr ong
ag ers
Ġgr asped
head s
Ġmir ror
Ġimprove ment
ĠL ast
ĠPr ay
ĠMil ton
d al
ul ent
Ġart illery
ĠAd miral
din and
Ġwonder fully
P R
Ġapp ointment
se arch
ting u
Ġaw fully
U RE
Ġ3 8
f ine
h ol
f ly
t ro
ĠG reg
Ġcor rid
Ġl av
on se
Ġc ove
Ġob viously
Ġflo ated
Ġf aster
ut tering
ĠDo es
Ġfif th
ĠL am
Ġinn umerable
o ir
fe rences
Ġth orn
some what
d ened
ĠCh inese
Ġter min
ĠE p
._ )
i ating
qu al
Ġrob bed
Ġdism al
Ġbeha ved
ĠSo on
Ġhelp ing
Ġimag in
Ġcost ume
iv able
Ġass isted
Ġex ternal
ist le
Ġfl u
Ġdeal t
en ched
vers ion
el come
ub b
ĠW olf
ink ling
Ġper ish
Ġshall ow
Ġarm our
Ġlif ting
Ġcover ing
Ġf ist
Ġp avement
Ġsc enery
Ġret ained
Ġreport s
m ate
Ġt act
ĠM ack
sa fe
hab ited
ist ered
imp ly
Ġsuppl ies
affect ion
he tic
ri v
bird s
Ġconf irmed
Ġcomb ined
Ġre form
ĠR ich
Ġn erve
ern al
Ġcrim inal
f at
Ġcons ists
r ary
Ġth reshold
ĠP ierre
ĠSh ould
Ġintrodu ction
Ġchar ms
Ġrel ieve
Ġprov ision
Ġha lt
id dy
ĠL ew
Ġcommand s
ĠH IS
wor ks
ĠDe an
Ġeleg ant
ast y
Ġstill ness
R em
ĠH um
Ġvel vet
us ively
Ġang rily
ĠR am
Ġbl ush
Ġp ony
Ġsha red
ĠU p
Ġremem brance
dis app
Ġeffect ed
ĠB ad
ĠP re
compan ion
get ic
bo ats
Ġtoss ed
ĠSat an
a un
Ġshe er
Ġun comfortable
bel ong
Ġtim id
M AN
l ate
w l
Ġcomplex ion
Ġmain ly
id a
othes is
P er
pe ace
equ al
L ES
ne ath
Ġs ack
ĠO l
Ġ3 4
Ġp ines
ĠPl ace
Ġhere after
Ġfill ing
wa iting
Ġincap able
ĠD ev
Ġun necessary
Ġb its
ist ry
g a
ri gg
Ġalong side
Ġintrodu ce
ĠT han
Ġdam ned
Ġ3 9
Ġreck less
Ġdeliber ately
Ġund oubtedly
! )
Ġcolumn s
Ġk id
ĠSec retary
Ġj un
sh op
Ġang le
s oft
arer s
Ġb on
ĠH ope
Ġbr on
Ġsl umber
ak ers
fig ure
ĠCr own
Ġpill ow
Ġfo am
ivers ity
Ġres erved
Ġfr own
Ġcat hed
Ġappre hension
pock et
Ġrespond ed
ou ching
ĠIn st
Ġmoment ary
Ġancest ors
ĠR us
b ull
do zen
Ġdil ig
A ST
Ġsc ram
ĠMar ie
m ain
Ġl ent
w ear
Ġd oub
Ġ19 0
I ES
Ġm orrow
ĠH ur
Ġman agement
Ġp atch
id ences
Ġsun ny
Ġro aring
Ġsecret ly
Ġindign ant
Ġcalc ulated
Ġar oused
Ġnow here
ial ity
Ġamid st
ĠV iolet
Ġser geant
dist ingu
Ġcris is
p age
ĠT y
Ġbox es
Ġattract ive
Ġjud ges
o at
Ġeyeb rows
w ich
ul k
ĠE astern
au de
Ġgreat ness
Ġeager ness
Ġl ots
Ġimpress ions
Ġstrong est
Ġdom in
Ġb red
Ġwarm ly
f are
iz ard
ĠSoci al
il ful
Ġshe lls
prep ared
U C
Ġbeg gar
m ort
Ġj ury
S ince
ĠC hat
Ġple aded
Ġmod erate
b ath
Ġcap s
ĠB ig
Ġphilosop her
a fraid
el ine
m un
Ġcle aring
Ġprov ince
Ġfac ulties
ĠHol mes
Ġsubl ime
Ġvague ly
Ġprepar ation
Ġach ieve
Ġlar gest
ĠAll an
Ġin justice
vere nd
TH ER
Ġs ection
H a
O D
w atch
ver tis
ĠC atherine
s le
Ġdr unken
Ġfright ful
Ġd usk
Ġcr ash
Ġsusp icious
Ġcur sed
h ung
il ian
Ġlod ging
i astic
t t
Ġw ist
Ġworld ly
Ġins ens
Ġa y
Ġab ode
ĠD ora
Ġp ang
sp oke
Ġcra zy
Ġhorn s
diffic ulty
ĠJer usalem
ic ip
Ġdo om
unt ary
Ġstri kes
Ġobserv ations
aj ah
draw ing
Ġfl ush
Ġbest owed
Ġdischar ge
Ġcl othing
ĠHigh ness
Ġmother s
Ġschol ar
Ġc reed
use um
ru ce
ĠEgypt ian
Ġir resist
v oc
ĠA ust
S uddenly
th irty
Ġbar ren
Ġsick ness
en z
ĠH omer
ĠJ uan
oot s
dec k
or ney
Ġser mon
Ġgro aned
ĠM oses
Ġv ile
Ġwor sh
ĠEd gar
Ġf ret
Ġevery one
Ġhurried ly
ĠWords worth
ĠP ost
com pre
Ġcar go
H al
er ation
Ġf acing
erv ation
Ġcustom s
h ist
Ġto morrow
Ġun seen
ĠPh oe
land ers
ĠRu pert
Ġrep air
l orn
Ġinf antry
m ers
ĠG ib
Ġpay ment
Ġstair case
Ġhed ge
ad el
ĠRuss ia
Ġr ays
ĠD ur
en joy
st ones
Ġun natural
ĠK ings
ĠLet ter
Ġfac ulty
ĠA R
Ġdram atic
ĠM id
ĠC re
ĠN one
ĠV ic
AC E
Ġa str
ĠCl ub
Ġdest ined
Ġshru gged
Ġpenc il
A cc
Ġmar gin
Ġfront ier
Ġcurt ains
ĠSch ool
Ġabstr act
3 7
H arry
M art
Ġch oo
Ġregular ly
O ut
Ġd ash
Ġcons olation
ĠSt r
ey ond
ĠC ast
ĠD evil
Ġreason ing
o ks
Ġf itting
Ġarchit ecture
H el
R OM
ĠM ans
Ġmar rying
ĠCh ris
pec uliar
f right
Ġor g
ĠE smond
at ers
ers ed
b red
ar ming
j oice
Ġpl acing
Ġcont est
Ġse rene
idel ity
ĠS cript
ant ine
ĠDick ens
Ġgl are
ĠB ra
Ġcon spicuous
cl aim
ĠF aith
Ġsc ared
Ġtra itor
Ġbid ding
Ġcaut iously
urs day
Ġlim b
Ġfanc ies
Ġtot ally
Ġmans ion
Ġf oes
Ġbeaut ifully
Ġenjoy ing
od ge
Ġmo ist
ĠC Ã¦
ĠI ng
Ġr inging
AN N
Ġvol unte
Ġsw orn
pro ve
Ġim ages
Ġtor rent
acc ording
y ers
se ver
Ġpr udent
Ġexpress ions
Ġtr aces
Ġpract ised
Ġling ered
Ġexcl amation
Ġlord s
Ġwitness es
n ine
w orn
the ned
eth inks
Ġquar re
st retched
Ġcl othed
Ġdiv ide
Ġharm ony
ĠCam bridge
Ġliter ally
eng aged
Ġcl ad
ign ant
Ġlaz y
Ġmouth s
Ġfurn ish
Ġpor ter
s ick
Ġspe eches
Ġ17 8
influ ence
Ġca vern
Ġbul k
Q U
or ce
Ġy awn
cept ions
gl ad
ĠA dd
Ġext ensive
ĠRev olution
l ord
Ġb ind
after noon
Ġcigaret te
Ġw oo
Ġv ag
Ġgri p
Ġsymb ol
ĠD ear
Ġexhib ited
Ġl amps
Ġgrow led
ĠMin ister
Ġow ed
Ġmach inery
Ġrecord ed
Ġprim itive
ĠThe od
Ġ 0
Ġsome one
Ġco pper
Ġheaven ly
ĠJack son
Ġspr ung
dra wn
Ġmar ching
ĠFrench man
Ġover head
Ġdream ing
b by
sy ch
Ġpun ish
Ġrest ore
vers ed
c rit
Ġha ts
ĠW ard
____ ____
ĠCec il
ĠTh or
Ġrespect ed
dist inct
Ġheat hen
ĠA then
Ġli able
AT E
Ġwha le
ĠProtest ant
ĠR ight
ĠĠĠĠĠĠĠĠĠĠĠĠĠĠĠĠĠĠĠĠĠĠĠĠ ĠĠĠĠĠĠĠ
Ġsal vation
Ġhonest ly
serv ant
ĠS i
ĠEvery thing
it imate
Ġcomp are
Ġst ake
ĠL incoln
Ġco in
Ġhang ed
f ed
Ġp iano
ĠN apoleon
ick er
Ġvig or
Ġfl owing
Ġtow ers
Ġm irth
ĠM aggie
Ġsubsequ ent
Ġsur geon
Ġseam an
ortun ities
Ġst ub
Ġdo ings
Ġdust y
uls ion
6 0
pl ing
Ġhun ted
t end
Ġatt ained
Ġmus cles
P o
h istory
Ġpleas antly
t ried
Ġl ugg
Ġe c
ext ra
J ames
ĠAn na
Will iam
at en
great er
Ġartific ial
pl an
Ġus es
Ġmy th
ĠAr m
Ġsha pes
Ġpers isted
Ġhosp itality
we alth
With out
Ġsl ipp
Ġb oughs
ir a
Ġan guish
Ġimp art
Ġcl aimed
Ġbare ly
oun cing
Ġcapt ive
e ast
Ġc ad
Ġc ash
te xt
Ġcountry men
tr ust
bu ilt
Ġr ows
ount ed
Ġback ground
Ġb i
Ġp add
Ġter race
Ġcour te
re ndered
Ġinter pret
Ġtrif ling
Ġpol ished
Ġtender ly
Ġgro an
? âĢĻ
f urn
ay ne
Ġass ent
br own
sub st
Ġascend ed
phil osop
Ġtort ure
p ress
Ġw agg
ĠC OM
ĠB ol
Ġbig ger
Ġcommer cial
disc overed
," --
oy s
ĠM os
Ġbut ton
ĠE llen
in ety
Ġgro ve
ot ting
if ies
res ult
ĠW ed
determ ined
e vent
Ġhe ars
ent er
Ġsu l
ĠD ep
Ġappreci ate
Ġspecim en
gu es
Ġst ove
Ġbre ach
Ġswall owed
S urely
ĠAb bey
om on
Ġsh ops
ĠCarol ine
M eanwhile
w inter
ind ividual
ri ft
int rodu
let ters
Ġsweet ness
Ġsymp athetic
Ġpil grim
ĠB ed
Ġjack et
Ġe tern
ĠP all
m oon
Ġrub bed
Ġbas is
M ac
m ates
ru it
Ġdeal ing
Ġprodu cing
Ġsp in
Ġexam ples
Ġfem inine
Ġple ad
fic ial
ĠFrancis co
Ġliqu or
Ġvener able
for gotten
Ġm ixture
Ġin vention
Ġart istic
ĠG ran
Ġj ungle
Ġrout e
Ġdocum ent
Ġghost s
u er
Ġm ix
Ġpeculiar ly
conf idence
ĠAr nold
ĠEd mund
i ac
Ġro be
b read
Ġv ine
h ig
r um
bro ke
Ġsuspic ions
Ġassert ed
acqu aint
Ġear l
Ġexchan ged
Ġsp ots
Ġr ings
ĠN ell
Ġlat est
M other
d ers
Ã ª
ĠM oore
unt arily
Ġemer ged
p ing
ĠBr idge
Ġcompl aint
Ġg hastly
Ġv ale
b rew
Ġm ute
Ġd ies
Ġan alog
Ġk ins
M any
Ġsn ake
R ichard
ĠH ann
Ġch ron
wood s
Ġcorp se
Ġd uly
Ġr ational
ark s
de velop
ĠArch ie
ĠIsa ac
entire ly
Ġa pe
Ġm uff
ĠS E
Ġdecided ly
icer o
Ġglo ves
S te
ĠBr and
ament al
Ġbeha viour
ĠB un
Ġcar ved
Ġsit uated
inter rupt
ues day
Ġgall ey
Ġqu oted
jo ined
Ġfun ction
y ne
ĠK it
Ġtreat y
il a
b ie
ĠH orn
ter ior
Ġdo st
under standing
Ġl ace
Ġcommand ing
Ġfatig ue
Ġrebell ion
ĠDar win
Ġcour ts
Ġnovel s
Ġeloqu ence
Ġchan nel
Ġdest iny
cham ber
Ġfant astic
Ġf are
qu es
app y
id ers
Ġsu ng
Ġen qu
I P
Ġp ushing
Ġoff ers
Ġscream ed
remem bered
in j
Ġpath s
ĠGree ks
ĠMir iam
Ġno d
Ġgu ided
gr ateful
Ġaccompl ish
spec ies
p in
Ġaff irm
Ġhesit ate
fortun es
Ġst ooped
ĠH ell
Ġacc ent
Ġform ation
ĠWh it
ĠLaw rence
ĠM aud
Ġbl ast
ĠGoth ic
Ġsol ution
count ered
Ġneighb ouring
Ġr ugged
cri be
E urope
Ġb other
ra ham
sur pr
Ġdign ified
tem per
Ġk in
Ġsl ack
ĠAt lantic
Ġdep ended
Ġphys ician
S w
z el
ĠL es
ec hn
Ġinter posed
Ġshadow y
Ġtong ues
turn ing
ĠH E
itt ered
Ġrig id
Somet hing
c ab
app l
Ġsqu ee
Ġneighb ors
Ġm ax
Ġf erv
int end
... ."
ĠCan ada
F ran
p ay
Ġwitness ed
c aptain
U nder
c apt
ist ics
ff ic
ĠSt ar
Ġcha ins
Ġdim ly
Ġg n
Ġpl ates
ĠM ist
Ġshe ets
Ġen countered
su cceed
Ġext ract
Ġaw aken
ron ted
ĠMort on
ĠB ath
Ġno b
Ġcare lessly
Ġabund ance
Ġgr an
Ġyoung est
Ġgreet ing
Ġtri but
Ġir re
c ular
ag an
Ġimper t
Ġassoci ated
. ;
T w
Ġprof essor
ĠH ome
C le
ie ving
me ant
mar riage
F rank
V EN
if ting
Ġun kind
jo ining
uls ive
er idge
ĠF ield
about s
ut ure
Ġpatter n
Ġinv ari
ĠSim on
LE Y
Ġsingular ly
ad mir
ist rate
Ġprot ected
Ġhost ile
f requ
Ġacc us
Ġspr ings
ĠBern ard
c rowd
Ġbreath less
Ġinvent ed
Ġextrem ity
Ġinspir ation
es cend
Ġdis d
ĠSc ar
Ġremember ing
Ġb en
ĠGil bert
ck ed
ER AL
consider able
Ġto day
re pe
Ġappear ing
ĠSc ots
ĠIn stead
Ġdeep est
Ġmed ium
Ġfra gr
Ġc ows
Ġe jac
ĠBo ers
Ġbl iss
cl er
Ġown ers
Ġhun ters
Ġinvari ably
is ons
Ġare n
Ġdis order
OR Y
Ġ4 5
Ġcham bers
st at
ĠC ad
Ġfer oc
g il
r ating
ĠL ance
Ġgig antic
Ġconf irm
Ġsp ray
Ġreject ed
o king
Ġdec ay
not iced
es p
Ġhon esty
Ġdr um
de g
fl owers
atr ick
Ġb ol
Ġre ass
ort ing
Ġb ounds
ĠM us
opp ortunity
! âĢĻ
Ġsha ft
Ġbet wixt
Ġcomm it
m iles
Ġab use
Ġstud ents
ĠI nt
ĠS had
ĠH ay
gentle men
p hys
Ġqu oth
ĠV alley
would n
H all
O C
ag raph
Ġfe ud
we ed
ĠK at
Ġbelie ves
hold ing
3 4
M on
Ġqu e
und ered
w alked
ill er
Ġbe ck
ĠM ul
Ġcon greg
Ġg ames
Ġexpl os
Ġdrift ed
Ġp aces
ubl ished
Ġfin er
Ġbene vol
ĠM em
ĠH an
OO K
Ġk ick
ex istence
L ife
ĠBax ter
Ġw har
otes que
ĠI X
ĠS el
Ġexec uted
Ġrele ased
Ġtr aced
Ġsuperior ity
Ġdiam onds
' -
im a
Ġdistr ust
sto pped
Ġb at
Ġen light
st ar
r ot
Ġcr imes
Ġve h
Ġpra irie
Ġn av
He aven
ĠAl as
Ġp hant
if ice
Ġkn elt
Ġy acht
ark er
ĠĠĠĠĠĠĠĠĠĠĠĠĠĠĠĠĠĠĠĠĠĠĠĠĠĠĠĠĠĠĠĠ Ġ
ĠS ing
our selves
ĠO ri
ues e
Ġcre eping
Ġmor ality
Ġheight s
B L
l ater
ĠT it
ĠO b
Ġc ousins
Ġsha m
Ġsp here
Ġbatt les
Ġincl ination
Ġbread th
Ġag itated
ish ly
Ġhur rying
Ġtem pest
nes day
Ġpat hetic
Ġbreak s
T han
Ġtalk s
Ġmar vellous
Ġdecl ine
supp osed
ĠSw ed
ic he
Ġsp orts
Ġvig il
Ġlou der
g ro
Ġtruth s
Ġexpress ing
. _,
ĠCa esar
Ġre pl
ant a
Ġli king
ĠCount ry
Ġst amped
Ġwholes ome
Ġt ack
Ġc ents
Ġsp ur
Ġc ush
Ġencour agement
Ġstart ling
Ġo mn
Ġal ert
ĠBl ue
Ġexam ining
dif ference
t was
Ġexp enses
Ġspecim ens
r ical
Ġm ask
Ġincred ible
ke e
Ġj ail
Ġri b
jour ney
Ġn ig
C OL
ĠR ab
Ġperplex ed
Ġinc ess
p ole
fert ilised
Ġint ensity
ial s
P lease
d ressed
f ixed
ĠM et
Ġbl ade
er o
Ġfor s
Ġle e
vel ope
could n
ĠMart ha
a um
d ess
ĠBur g
Ġref resh
Never theless
Ġsym pt
A GE
ĠChar lotte
han ts
Ġran ch
he aven
Ġarg ued
sur prise
Ġgrim ly
out side
char ge
acc ustomed
thr own
ĠL uke
Ġinst itutions
enc er
Ġprejud ice
S il
u y
ĠG ordon
che ster
sett led
Ġto ken
ĠG et
Ġexc iting
ĠGerman s
Ġar ter
de em
ĠĠĠĠĠĠĠĠĠĠĠĠĠĠĠĠĠĠĠĠĠĠĠĠĠĠĠĠĠĠĠĠ ĠĠ
Ġsw ing
Ġinc idents
T was
Ġsw inging
Ġsoft ened
Ġfol iage
W est
Ġswe eping
Ġpl um
ass ed
Ġthy self
Ġintim acy
N one
Ġfulf il
concern ed
b ation
m ont
Ġs inner
ĠG ab
athe mat
Ġspect acles
st able
Ġopp on
Ġsn uff
bel ief
bel ieved
Ġcontin ual
Al though
Ġresour ces
Ġdisc retion
ĠAfric an
ut able
ĠN OT
Ġsusp ended
Ġap ost
Mad ame
ord in
ject ed
Ġwond ers
creat ure
Ġpe op
Ġvalley s
pro c
Ġdef iance
Ġcabin et
Ġham mer
Ġc iv
Ġsc old
Ġac ute
Ġrough ly
t ail
w ond
ug s
Ġce iling
sm ile
ĠH ER
Ġold est
_ )
w are
OU N
C ould
Ġcons ulted
Ġpar liament
Ġbrut al
Ġin it
Ġtrem ble
Ġharm less
slow ly
he avy
Ġp ert
Ġdef in
Ġb ite
BER T
ĠM ull
Ġal oft
Ġfl owed
Ġpun ished
Ġcaut ious
Ġsentiment al
talk ing
ar range
Ġp ouring
app arently
diffic ult
ĠAll en
r ants
w reck
Ġexper iments
Ġremark ably
b bing
Ġcomfort ably
mag n
m or
le aves
Ġsh ower
scar cely
Ġclim bing
ard ener
Ġattend ant
Ġexha ust
d read
Ġhand ful
ĠLy d
Ġseam en
Ġvis iting
Tr ue
Ġtele gram
luck y
Ġtr acks
Ġfa ire
Ġattempt ing
Ġgrand mother
Ġsmo ked
Ġtast es
Ġt ents
ĠT en
Ġse arched
ĠTr ue
O G
Ġs incerity
Ġh ounds
.-- _
Ġforget ting
Ġcommer ce
ĠRem ember
Ġdread ed
Ġdoll ar
ĠGree ce
Ġresent ment
Ġcathed ral
Ġstri p
ĠConst itution
act s
Ġrem edy
ĠHoll and
A nt
Ġball s
." --
ens ation
ĠCal iforn
build ing
Ġpr udence
Ġper ception
mere ly
ĠJon as
ĠJ ove
Ġopp ress
N e
ra wn
Ġde ceive
we ather
re plied
Ġdev ils
Ġdesp ise
m ess
Ġess entially
i antly
ra il
Ġdress es
ĠBar bara
OL D
ĠPal ace
ĠCÃ¦ sar
ro d
ro lled
ment ioned
Ġgl ances
Ġpost s
3 3
Ġw olves
Ġsh rank
Ġqu er
Ġsum mons
Ġproof s
Ġforbid den
Ġcas ual
Ġeconom y
Ġpup il
Ġorg ans
M arch
Ġde gr
Ġfaith fully
Ġs cept
at han
com ed
Ġrepresent ative
ĠColl ege
Ġsa ll
ib us
Ġref ined
Ġcor al
beaut y
_ :
Ġv on
fortun ately
I AN
f ing
Ġro pes
sp read
Ġest ates
ĠR el
l og
Ġsc rap
Ġinter pre
cell ent
Ġcommun icated
Char les
ĠW el
Ġcl inging
pr ay
Ġcast ing
Ġsend s
all owed
ĠS uppose
ict ory
ĠIs lands
Ġappl ause
ĠFore st
le aving
OR E
Ġport ions
Ġb aff
Ġg ospel
am ph
Ġtr icks
ĠAnd y
corn er
Ġdis aster
Ġoff spring
Ġsk ies
ĠBl ake
ĠMur ray
rom ise
eless ly
Ġcult ure
Ġro sy
Ġcons ol
Ġter rified
Ġneed ful
P aul
Ġmel ted
Ġfalse hood
Ġindepend ence
---------------- ----------------
vill age
Ġinter f
ĠFer dinand
Am ong
Ġingen ious
ĠCamp bell
ir ation
az a
Ġcol ony
Ġloyal ty
is en
ĠAnt on
ĠS P
Ġhel m
Ġblaz ing
Ġcan oes
ple ase
Ġwealth y
Ġch orus
nat urally
Ġant agon
r ade
op y
s ir
Ġb apt
Ġcar ries
it ous
Ġcomb ination
Ġwrit ings
Ġobject ed
ĠEd ith
B el
Ġp ant
ear nest
Ġsc ound
._ --
Ġvig our
g ue
Ġye a
Ġcal am
success ful
Ġd ug
id ious
ge ons
Ġad vers
Ġsevent een
_ ).
Ġbe es
ult ure
Ġ6 0
Ġfashion able
Ġborrow ed
Ġall usion
w ide
fl oor
Ġep och
Ġerect ed
R om
c ried
ec d
Ġrem onstr
Ġdesp ite
Ġcustom ary
foll ow
ed ed
ac ies
ĠD ale
Ġexper iences
pass ing
Ġpurchas ed
Ġp omp
Ġdesp ised
ĠHard ing
Ġd ru
Ġcol ors
Ġexc urs
[ _
nd ry
Ġthreat ening
Ġchar ges
d oll
ain ty
Ġdeb ts
Ġmo or
ext reme
Ġdeterm ine
Ġmet ap
Ġpat iently
Ġs hat
ut ton
Ġst an
if fe
ĠM aur
ĠW AS
Ġpun ct
conscious ness
P ER
w arm
Ġv ow
Ġtemper ament
Ġcand les
fav our
Ġun usually
pre vent
Ġallow ance
affect ed
Ġident ity
Ġpir ates
feel ings
Ġh inted
Ġag reement
Ġsk et
Ġwise ly
Ġarg ue
r unning
per ial
ran ean
ĠS ix
Ġde fic
for get
Ġarchit ect
b one
Ġtrag ic
c aught
Ġall eg
m its
st ation
Ġpl ague
Ġtur f
Ġreck oned
ĠBur ke
ĠM ason
at ches
am in
Ġstr ained
wor king
I RE
Ġw aking
Ġsl opes
Ġm oust
ur ation
Ġsust ained
m aker
ĠL ang
des cend
Ġstag gered
pers ons
Ġdesign s
En ter
Ġpre ach
pro ved
Ġgrave l
H old
c ases
f inger
Ġinst ruction
Ġprolong ed
ĠO ak
assad or
Ġtrump et
Ġeffect ive
Ġperiod s
wonder ful
Ġec st
Ġsepar ation
r iment
ĠP il
Ġrep rodu
Ġf iend
Ġre joice
Ġsuccess ive
Ġconv ince
Ġapart ments
g ins
Ġsh illing
ru p
Ġres olute
ĠBe aut
Ġg it
ĠH etty
ĠCraw ley
ro ar
ĠA sh
Ġend ured
mon ths
Ġstud ying
Ġspl it
Ġg al
Ġem inent
M aster
S ure
ĠS everal
Ġprop het
Ġpar lor
Ġsuffer ings
Ġinstr uments
Ġdesir ous
r ising
it als
Ġco inc
Ġinstinct s
M ost
g rav
in ently
ĠC ir
s ave
Ġn urs
Ġfail ing
Ġstro ve
Ġappeal ed
Ġh ue
Ġwh ir
ob t
. ),
Ġhyp othesis
Ġum bre
Ġsp ears
Ġmass ive
c ru
ĠShe lley
Ġburst ing
um sy
ĠD ante
Ġkn ot
Ġqu est
Ġsub mitted
s in
Ġband s
Ġabund ant
c us
ess ions
Ġall uded
el a
ĠGod frey
Ġtre asures
learn ed
ct ic
sh owed
Ġl ass
Ġap ology
ĠN ational
soci ety
Ġbe ef
ĠB right
Ġleap ing
Ġpick ing
EC T
i ard
ĠBr ad
Ġappro val
Ġprospect s
F F
S at
m itting
Ġad just
Ġknock ing
Ġbr u
l atter
Ġher d
ĠL amb
car riage
b uck
bit ter
Ġfarm ers
Ġcrown ed
Ġb onds
ur rection
Ġsh ri
Ġpl under
ĠGreg ory
Ġso othing
ĠC icero
Ġv ind
ĠP acific
Ġmod ified
Ġpet ty
an ity
Ġart ists
Ġinher ited
nt il
Ġqu itted
Ġmurde rer
Ġshe w
Ġpe asants
Ġreg iments
Ġrecogn ise
we ak
like ly
Ġun c
IC H
ĠKe ep
Ġglo be
Ġpropri ety
T E
Ġon ward
Ġsc rew
Ġsorrow s
Ġman hood
Ġemb ro
Ġadmir al
Ġappre hend
Un cle
t in
Ġcontin ent
sing le
_ ,"
Ġha e
Ġshe pherd
Ġdark ened
Ġteleg raph
Ġre lease
Ġri pp
reg arded
Ġprev ail
Ġhe el
st orm
Ġpur ity
ĠHot el
Ġm aj
Ġreflect ions
proper ty
Ġwor ried
Ġconf ounded
Ġresol ve
Ġencour age
Lou is
Ġf ab
ign ific
Ġdoct ors
Ġun consciously
ĠR ead
Ġpr ow
Ġsincere ly
Ġadapt ed
Ġconst ruction
break fast
IS H
am ount
Ġanticip ated
Ġintoler able
Ġa le
Ġdes igned
Ġhar vest
Ġdam age
Ġattend ants
ĠR oc
Ġlight er
Ġp iled
our nal
other wise
ert y
li a
pop ular
Ġelabor ate
Ġsupp ressed
che er
Ġresp onse
Ġexert ion
lad ies
ha ra
th ia
Ġser ving
ou g
ĠBe atrice
b ows
Ġf rig
Ġl ocks
Ġanim ated
Ġdefe ated
I m
Ġw ig
ur dy
ĠS ub
ĠS erv
Ġout rage
ord inate
Ġbright ness
Ġaut om
Ġc y
Ġmon k
Ġeloqu ent
7 0
i ors
p ine
Ġcon verted
um inous
uth bert
Ġdepend ent
yl v
tow ard
Ġn u
ĠC ON
Ġwin ning
Ġdi plom
ĠGri ff
b reed
Ġf res
Ġp oo
am an
ter rible
ass ist
Ġbl unt
ph one
Ġblank ets
particular ly
Ġs her
ĠS outhern
Ġvex ed
Ġre verse
you th
Ġvis ions
Ġvol can
prop ortion
d ust
Ġapp e
Ġest imate
Ġm ent
Ġwe lf
( _
Ġd warf
int ended
car ry
Ġgorge ous
Ġc ant
ing le
Ġatt ending
Ġspread ing
Ġtum bled
en emy
et e
Ġwelf are
O OT
A pp
Ġste aling
ruct ive
field s
Ġsand s
b attle
ĠF ig
ĠMad am
bes ides
Ġg er
Ġk en
Ġvirt uous
Ġj e
ĠPick wick
Ġinherit ance
ac it
Ġare a
li ves
ar rived
Ġim itation
Ġele vation
v ice
Ġc ul
el son
Ġsn atched
Ġpro sec
ens ed
Ġconf er
Ġwicked ness
Ġgover ness
Ġsom bre
R ed
rop he
Ġtem ples
Ġid iot
Ġassured ly
othe red
Ġpir ate
P ut
Ġb unch
Ġwe ighed
B oth
Ġt ame
Ġy elled
ĠT hank
un ned
ser y
Ġadv oc
P H
Ġext end
Ġfra gment
Ġhy mn
ĠA ld
we ek
Ġmon ument
AC K
Somet imes
Hen ry
C L
Ġc row
um pt
Ġhur led
Ġvic inity
x ter
Ġst ool
ĠB eth
ort ions
ff ord
iet h
Ġlab ours
ĠWar ren
su it
Ġlod ge
Brit ish
Ġblank et
b reath
e h
l oved
ĠP ower
Ġp sych
ir y
ur ous
Ġal ien
Ġgener osity
Ġaccur ate
ĠDry den
Ġcorrid or
Ġto ols
Ġl ions
Ġback wards
Ġpe er
Ġshad es
Ġrevol ver
Ġst em
OO D
b ish
Ġw ider
an or
ĠP om
ag ne
cra ft
p ull
ĠW H
ble ms
Ġdist ressed
ĠRo ad
ĠSpr ing
Ġhoof s
Ġb ald
har ine
inst ant
quar ter
ret ty
Ġassoci ation
should er
Ġrid den
per iod
Ġsqu ad
pres ently
ve lled
ĠM ike
han ging
l an
d im
ur t
Ġqu ivering
Ġcomm od
Ġcoo lly
f inite
rem ain
IN S
Ġbrave ly
al ted
the e
Ġmyster ies
ĠE st
Ġj aw
ap art
Ġess ence
ĠGl en
ĠS ong
Ġassert ion
Ġtreacher y
t ong
Ġf ath
Ġse qu
Ġref res
Ġfra ud
Ġkey s
Ġannoy ed
ol is
Ġh ob
Ġsl im
Ġlun cheon
pi eces
u ction
Ġha il
ĠJ asper
Ġbe have
ac r
Ġj u
ĠPe ace
Ġcir cum
Ġdown ward
Ġprom ising
wr ite
end eav
des ire
cha l
b earing
Ġch oked
father s
s ummer
Ġimp ass
Ġmo ves
Ġentertain ment
he ro
Ġever lasting
P ray
ĠP op
L ong
Ġfl ashing
ĠT oo
Ġswall ow
ad ays
ĠM un
Ġneed le
Ġgrat ified
ous se
gr ass
D or
y ards
we ight
Ġpo llen
ren ched
Ġwest ward
Ġawa ited
langu age
3 8
ĠPar adise
Ġearnest ness
Ġint ently
Ġpret ence
ĠPhoe be
re ign
Ġbar r
F rance
Ġfor lorn
Ġrec ords
Ġty rant
ul ch
Ġsec l
Ġhorse back
ĠSer geant
Ġcon str
Ġri fles
Ġforg iven
IV E
ĠPet ers
Ġawa iting
L AND
y an
et ition
Ġind icate
Ġsusp ense
Ġtight ly
J ul
W ait
Ġsh ift
Ġthere in
Ġpublic ation
know ing
Ġrecomm ended
Ġh oll
og an
Al as
Ġkeen ly
abs olutely
Ġbow l
h orn
Ġres igned
ENT S
no ble
Ġappro ve
ect ive
Ġarri ving
ĠX I
Ġacqu ies
Ġmerc hants
Ġappropri ate
ent ertain
ĠT W
Ġor chard
Ġwaist coat
Ġmechan ical
t ical
Ġt ed
Ġhead ed
Ġaccount ed
Ġstret ching
H ouse
c ock
Ġr ay
Ġtr unks
Ġwit hered
Ġcommun icate
Ġk icked
ĠAl bert
Ġult imate
om es
ud son
Ġconsider ations
Ġdet ected
Ġlog s
Ġnois y
V ar
o ven
Ġse izing
Ġatt achment
ĠE ff
dark ness
t or
kn ows
izz ie
pict ures
sha ped
Ġcompl iments
ĠSar ah
Ġnob ility
m ical
Ġth ieves
ĠB re
Ġop ens
Ġswim ming
and ing
ĠM Y
ĠW ord
Ġrul ed
Ġt iger
Ġimp et
Ġrel atives
Ġl imp
Ġv ault
Ġover board
person al
conn ected
Ġin fect
ĠC are
Ġround ed
Ġdraw s
A V
ft on
ac iously
fl ies
Th rough
Ġplan ned
Ġtal ents
Ġl oo
m ountain
ic ide
ĠP oint
Ġconcern s
Ġmot or
vis it
ung s
ĠCl iff
Ġl ain
ack et
Ġfle e
Ġembarrass ment
Ġbatter y
ĠW inter
fore st
Ġsl ay
Ġgen ial
Ġunfortun ately
isp ens
Q ueen
Ã ´
Ġhe red
Ġprof essed
Ġtou ches
T LE
r ained
st ained
w ine
ell er
ĠMad emoiselle
Ġdischar ged
am eless
ol ated
Ġcomm ittee
Ġinter nal
Ġorn aments
Ġling ering
Ġf uss
Ġc reek
Ġinter ven
Ġdesper ately
priv ate
ĠT ower
Ġchallen ge
al ty
Ġbl ushed
Ġcount ing
Ġexc ite
ile y
Ġnegro es
mun ition
Ġg ulf
HE N
Ġfur iously
Ġhorse men
Ġsh ots
Ġstri fe
G r
M A
c ul
m akes
Ġro d
ĠF ate
fortun ate
Ġcrit ics
ĠDan iel
ĠB ird
ousse au
m ast
Ġr ider
bel ow
Ġattend ance
produ ced
Ġan k
ĠD am
ex actly
hur st
ĠOff ice
B E
Ġs ly
ver b
od es
Ġcar riages
erv a
Ġperson age
dis p
Ġstro lled
Ġdeliber ate
Ġsuperst ition
Ġwhat soever
3 9
Ġprom inent
eas y
ĠS C
Ġpart ially
kn ife
Ġst if
Ġex tingu
ak in
Ġey el
Ġascertain ed
Ġmead ow
on ing
IR ST
Ġlandl ady
Ġrasc al
ar on
." --_
Ġhouse keeper
Ġlaw yers
Ġacqu ire
yn thia
Ġdescend ing
Ġpup ils
d uty
s hed
st arted
Ġback ed
Ġear ned
Ġpar agraph
ipp s
Ġcook ing
Ġemphas is
Ġadd s
Ġhon oured
S top
Ġre ver
Ġsens ations
Ġuneas iness
Ġtre ason
Ġobst inate
ab bed
Ġar bit
ĠK now
ĠQ ue
Ġhost ess
ĠSt ory
Ġev olution
Ġpled ge
Ġelev ated
Ġopp ortunities
L a
Ġr otten
Ġpart ners
Ġevil s
re vol
OM E
. /
Ġdem ean
L L
is ive
Ġfore most
matter s
Ġc age
ut ive
th ony
Ġr ot
ty ard
Ġrequ ested
bene ath
Ġinst itution
U E
l ips
l ifted
Ġm ule
pent er
Ġprosper ous
Ġthir teen
Ġwip ed
or ic
et her
Ġass igned
sit uation
b i
ar g
Ġste alth
ĠCHA PTER
Ġirresist ible
D av
Ġt ough
Ġfe eding
Ġneg ative
AP T
wit ness
J an
Ġc ake
Ġ17 5
var ious
ing ed
ĠE ric
Ġgr ate
ĠCl ay
Ġsignific ance
G H
M ER
Ġobject ions
he nt
Ġn a
Ġpro str
ĠSt one
ob ed
ĠAs ia
Ġfulf illed
Ġterrit ory
m ach
Ġse aled
omer set
i our
ĠP end
ag ged
Ġappro ved
Ġaston ishing
Ġall ied
Ġhum bly
Ġgrie ved
Ġbl uff
n els
Ġcontro vers
s udden
Ġp anting
Ġwhisper ing
Ġwas hing
ĠL o
Ġab omin
Ġrecei pt
Ġcraw led
Ġhe n
Ġbe ams
Ġag ents
Ġpack et
ĠPh ineas
Ġaven ue
Ġhaz ard
e rest
Ġr attle
Ġhar mon
Ġgrand eur
offic ers
Ġg ust
Ġbar rel
cont ented
j e
Ġdepart ment
Ġm are
C ons
ĠE ls
ĠR and
Ġen velope
ĠK n
Ġpoet ic
disc uss
sim ple
c ro
Ġl ect
sil ent
girl s
Ġtransl ation
Ġmour ning
Ġher mit
Ġsleep y
Ġcivil ized
ĠJul ian
Ġocc urs
Ġstro de
Ġw an
onel iness
Ġur ge
Ġpan ic
Ġinter ference
C ount
Ġg ild
ĠC ard
Ġspec ulation
enn is
b bles
Ġb ully
Ġwr ist
Ġcompan ies
Ġty ranny
l ies
man n
Ġer rors
s or
cl osure
Ġassem bly
Ġdiam ond
Ġkne eling
Ġfl ank
ĠTh ursday
Ġeffect ually
Ġexerc ised
Ġsignific ant
sold iers
Ġa ft
ec ks
th ick
ĠC ra
ĠP y
ĠCl ar
Ġdecl aring
pict ure
ĠUn iversity
Ġhut s
se at
ĠA le
ĠPortug uese
ĠM oor
th ro
Ġsole ly
Ġdam n
cross ed
Ġambit ious
O E
f uture
Ġeven ings
ither to
Ġpain fully
ract ion
Ġam munition
Ġneg ot
Ġsplend our
isher s
escap e
ert rude
Ġtransp ort
o il
st ick
ĠT HAT
ĠV ane
cr im
Ġmal ice
Ġme als
Ġbut ler
qu estions
ĠR ec
Ġass ail
Ġcre ate
ĠBer lin
" ,
Ġc os
Ġre placed
ack now
enc ing
ĠX II
ĠW ILL
Ġsha wl
Ġhum ility
we et
Ġrel ate
Ġappear ances
ĠX L
col m
Ġf ir
Ġc ats
Ġpleas es
Ġimag inary
Ġinflu ences
ĠP ed
ĠG irl
Ġoccur rence
ĠH ug
Ġdo omed
Ġqu art
ĠJ ob
Ġperson ality
Ġsn apped
Ġspring ing
poss essed
ĠNi gel
c art
Ġsad ness
ĠFl or
Ġco ats
key s
Ġsche mes
F our
c up
Ġf ran
Ġth umb
Ġor ange
ile t
Ġste pping
Ġhesit ating
ĠB ank
Ġmin es
Ġcoll e
Ġbott les
cor respond
Ġf its
ĠM R
ĠM uch
ĠW ITH
hon est
Ġb achel
Ġard ent
S ch
Ġro bes
xt on
Ġcir cles
ribut es
S C
Ġroof s
B en
Ġsk ins
Ġwithd rawn
Ġpil ot
et he
ĠWor ks
Ġrestr aint
Ġl ump
ĠP erc
Ġsp ending
Ġrepe ating
Ġdecl aration
extra ordinary
C r
Ġday break
Ġric hes
obl ig
D an
Ġsa ge
Ġgr otesque
nor th
ĠRev iew
Ġcl umsy
Ġbr and
Ġri ot
ĠAnn ie
Ġach ieved
Ġcon verse
Ġpl ough
ĠCol eridge
Ġconqu est
We re
Ġcol ored
Ġexpl aining
iver pool
Ġplun ge
ĠN orthern
ĠEm ma
ĠSte ven
Ġcol onies
LE T
b road
ĠM eanwhile
OU S
on ia
at oes
ow ard
Ġe agle
ĠW ales
Ġdis hes
Ġmor als
Phil ip
T urn
Ġo st
ĠP itt
ta ire
Ġsever ity
) --
ri ving
ĠW in
ob y
author ity
ĠSol omon
Ġdef ended
Ġfoot ing
ĠBen j
un ched
IT Y
ĠJust ice
ĠWat son
Ġb race
Ġl y
pro of
Ġrevel ation
he ment
ĠAg atha
C he
Ġbe am
ĠM all
ĠX IV
Ġresem ble
creat ures
mount ed
Ġd arted
ad ers
Ġlad en
Ġcent er
acquaint ance
ĠT uesday
Ġdra gging
do ctor
Ġprodig ious
c row
or ia
un a
Ġobt aining
r one
ow ered
Ġall owing
Ġembarrass ed
H ard
u ate
ic ago
Ġper ished
Ġconcl usions
Ġsin ners
Ġsex ual
it ative
Ġw rest
Ġext ending
Ġjoy s
Ġpra ised
ĠHard y
in no
S pe
is hable
Ġat h
M ont
e ves
f its
ran ging
ign ity
decl ared
Ġsw am
Ġintense ly
ust er
Ġbest ow
Ġpip es
ad le
ĠBert ram
C our
Ġsa g
Ġmag istrate
udd ered
Ġa ided
Ġele phant
Ġsh oe
Ġac id
intell ect
ĠAustr alia
A ugust
t rying
Ġpart ial
Ġimpress ive
le m
Ġg oose
ess ing
ab ob
Ġste er
Ġscr ut
S pan
g own
ĠP L
p aid
Ġsy ll
3 1
am med
ĠH orse
Ġspark ling
import ance
meet ing
h osp
Ġc able
Ġ3 1
Ġswe at
Ġattack s
Ġutter ance
ha p
ib al
Hal f
Ġall e
to ps
Ġp igs
ĠB R
Ġsim ult
bott om
ĠC ousin
ĠL ind
Ġac res
Ġjoy ous
hon our
th orough
Ġmon ks
an o
Ġpit ched
ac compl
Ġad vertis
min ute
Ġspect ators
Ġto m
Ġregret ted
A g
rs ula
ĠM iles
d ism
Ġ +
ĠB our
Ġv oc
ĠP atrick
Ġc ough
Ġd agger
ion e
ra ise
Ġgu id
Ġconfident ial
Ġb lend
sc ene
Ġconc ert
Ġdes erves
Ġlou ng
AM ES
Ġrejo iced
enz ie
7 5
ĠT ha
Ġab ol
Ġsl id
Ġcompl icated
Ġcorrespond ing
relig ion
ĠRich mond
ĠJ ar
Ġpriv ately
Ġopp ressed
vis ible
Ġresem bled
Ġp ha
ĠB i
Ġcan e
ans om
Ġunder neath
ĠV iv
Ġter med
law s
Ġamaz ing
Ġbrid le
Ġrab bit
d ied
int ention
Ġvict ims
u f
Ġre deem
Ġhope ful
N G
ĠR on
Ġlaw ful
opp osite
Ġpill ars
Ġd usky
ĠK itty
d iss
Ġall ies
C ont
le ment
Ġo min
ĠG ill
Ġinval id
p end
on ous
Ġin habited
ĠH old
Ġspo iled
m aterial
Ġl eng
ĠI llustr
Ġend ing
Ġcapt ains
R ev
it ter
res ents
bes ide
Ġeng ra
Ã± or
Ġri pe
ĠLe o
Ġty pes
k iss
an throp
Ġl ined
iz a
ev idently
pec ial
ĠSam uel
Ġw ool
Ġle v
ĠR ound
bl ind
Ġwork man
Ġmission ary
Ġsha bby
su ing
ev idence
arch y
Ġpost ed
v irt
ve red
sp lend
Ġsc reen
ĠLe g
Ġdread fully
Ġiv ory
C or
b ble
Ġex ile
Ġcur ve
ĠAr abs
So on
C al
as se
em on
Ġvain ly
Ġnot hin
ĠM ow
inst inct
air d
Ġatt ributed
than k
serv ants
Ġtransl ated
r ide
ĠH ind
Ġspec ific
Ġpisto ls
Ġcryst al
8 0
m arked
le ans
" .
ra ged
ĠHer r
cell or
m ens
p ha
Ġh ire
ĠV inc
ev ille
Ġinterrupt ion
Ġent ers
Ġed ges
Ġwear iness
Ġembr aced
e ager
n am
Ġc yn
em en
Ar thur
Ġacquaint ances
Ġl oos
ve ying
Ġexpress ive
Ġh ood
Ġthem e
ĠN EW
ubl in
EN E
Ġsal oon
ĠL E
Ġkind red
ĠRob inson
ic ting
al a
ĠB eyond
ul u
count enance
Ġc ub
Ġse asons
Ġno stri
Ġj aws
Ġopp ose
Ġphr ases
3 2
Ġd ainty
ut her
ĠF if
IN D
mon th
Ġexcl aim
ĠMat thew
l ace
Ġb ounded
Ġqu ad
Ġbar rier
Ġadmir ing
Ġaccord ance
Ġemp hat
Ġrag s
Ġc ream
ĠF inally
od ox
mount ains
Ġscant y
le v
Ġapp oint
bott le
Ġc el
oll ey
ĠH unt
te gr
av il
ĠV ill
ĠRed dy
Ġpro ves
ces ter
Ġbright ly
ĠM A
are n
Ġexp ensive
ats y
Ġess ay
im per
should ers
Ġproc ured
imag ination
at ra
Ġwho ever
Ġsubst antial
Ġaud ible
ĠHigh land
Ġb olt
ĠT a
Ġtop ic
Ġwel comed
quick ly
Ġdepos ited
anx ious
ĠClare nce
Ġd ing
orig inal
ĠHor ace
Ke ep
d ue
ĠN elson
Ġhar p
Ġtri vial
sem bly
Ġshr ink
c ong
self ish
Ġinv ite
Ġbright er
Ġcro oked
Ġt earing
ĠF ive
ĠHe brew
con y
ĠBrown ing
Ġlog ic
Ġdares ay
d epend
Ġhigh way
ah ib
Ġenthus iastic
Ġpossess ions
ograph ical
Ġhaught y
Ġdear ly
Rob ert
ĠW es
ĠE ss
g ency
Ġb ased
Ġto es
Ġwe ars
ĠA D
Ġdep rived
col our
Ġpoet ical
." [
ser ious
Ġmod esty
Ġm ol
Ġd uc
ern ation
Ġcommon place
Ġun s
rec y
Ġl es
ĠC ale
ap se
Ġdetect ive
ĠWall ace
w ait
ĠEvery body
ĠAg nes
k illed
Ġbe e
ke red
Ġperil ous
y on
Ġp ump
ĠB ag
Ġhar ness
Ġgall op
Ġadmin istration
S S
s imply
Ġg au
Ġex alted
Ġgl immer
ĠK nox
Ġl oft
Ġsu its
Ġv iv
ned y
Ġtribut e
ter y
Ġsle eve
Ġcop ies
Ġd ial
Ġv iz
Ġca using
sha w
Ġgle aming
Ġshri ek
c ustom
s now
ar ant
ĠP a
Ġwork men
Ġsub mission
Ġrequ is
Ġse z
ĠC ab
Ġult imately
Ġb ir
Ġl amb
Ġmanufact ure
W il
Ġag in
Ġmeet ings
Ġsu p
ig ne
ĠD olly
Ġbre eding
enc our
Ġdifferent ly
pass age
ĠComm ittee
W hether
Ġser pent
ĠHam ilton
Ġexhib ition
prom ise
ĠEr nest
Ġfert ile
ispens able
er on
Ġl umber
con qu
tell ing
Ġn inety
ĠM aid
There fore
cour age
Ġinstruct ed
Ġreal ised
expl ained
M en
Ġdet ached
sty led
M onsieur
e au
it ia
bour ne
NOT ES
l ic
th reat
out ing
Ġrec overy
F OOT
b en
Ġatt orney
Ġappre hens
nec k
ĠBet ween
Ġdoctr ines
d rew
Ġoccasion ed
eas ily
Ġrub bing
." ]
Ġcomp osure
An ne
ĠCaliforn ia
p owder
v id
Ġn our
Ġdisp osal
Ġprivile ges
n ings
Ġc ert
ĠM ake
ĠM att
ack ing
You ng
Ġappreci ation
s um
ot ic
Ġcond escend
wind ows
Ġcord ial
Ġcontempl ation
Ġengine er
Ġdelay ed
Ġinvest igation
Ġpier ced
or th
ĠD iana
ĠV ar
Ġinf irm
Ġthick ly
c and
Ġc ed
ĠH o
entle men
rel ation
c red
n ational
st ranger
ĠS om
Ġcivil ised
surpr ised
Ġst urdy
Ġbes ie
Ġfal tered
Ġdiscuss ing
Ã ł
im ble
Ġsh orter
Ġhead long
Ġfav oured
Ġl ame
exp ressed
Ġnoble man
Ġy on
ĠR et
Ġim plied
Ġord in
Ġstra gg
Ġpursu ing
Ġstat ues
Ġexceed ing
ĠBro ok
Ġag ric
Ġbo red
Ġh inder
ĠP orter
ĠF ord
sh ut
Ġassist ant
Ġadm ission
Ġnur sery
Ġrespect ful
Th ink
ĠTr ot
Ġextravag ant
b ore
k ne
t one
Ġg aunt
th in
oll en
har t
Ġcur led
Ġthick et
Ġcoff in
ĠLew is
L ove
Ġmod es
Ġpropriet or
ab ella
it uted
ĠC L
me as
An n
Ġvers ion
Ġs oup
et ime
ĠB ul
ĠF ur
ĠGod s
Ġaw ait
Ġsha res
Ġver ge
Ġod ious
Ġpre lim
Ġref usal
Ġreal ise
ĠHar ris
ĠCom mission
ĠMill er
u ber
ad venture
og s
eth ro
Ġobser ver
cent ury
Ġresc ued
Ġsem i
ir ies
ine a
Ġretreat ed
sim ilar
Ġsen ior
h ills
ru b
Ġexpl o
do ors
Ġwhere fore
att end
Ġd itch
id ays
supp ort
A U
n iff
Ġre bel
Ġaltern ative
Ġshat tered
L isten
ĠC ond
Ġche ese
Ġa far
Ġseem ingly
wor se
Ġpar cel
Ġfra il
: --"
p os
ĠA ven
Ġto oth
Ġn aval
inst ance
Ġstar ve
l ocked
Ġgl ided
Ġfro ck
Ġorgan ic
polit ical
R ep
n igh
t im
ast rophe
Ġtrave ls
ĠBurn s
N obody
Ġthr ice
d ish
ur se
Ġshel tered
i hil
ĠC uthbert
Ġsand y
Ġundert aking
Ġconven ience
Ġt icket
un ciation
cont rol
aur ant
pen ny
Ġprocl aimed
ow ls
ri val
Ġsha ped
ĠWith in
ab ol
ĠJ ake
S ax
Ġt asted
Ġf ib
Ġd yn
Ġst umbled
Ġhum orous
ĠVen us
consequ ence
ĠWed nesday
Ġd y
Par is
Ġmoust ache
4 8
4 9
ist inct
Ġoff ensive
Ġdark er
ylv ia
s outh
Ġfor bear
ĠO R
ish ops
Ġext inct
ham es
Ġp y
Ġg ird
ĠH udson
ens er
Ġel apsed
Ġcontin uous
Ġindul ge
Ger man
Ġumbre lla
n arrow
Ġp est
Ġl am
ur b
Ġor phan
ĠF re
Ġen lar
Ġpar aly
ĠMist ress
4 6
great est
Ġlangu ages
o bey
Ġr owed
ĠF oster
Ġhabit ual
Ġobst in
l ower
Ġpos itions
H on
Ġall iance
Ġdeb ate
N either
y ellow
Ġf idelity
Ġun ity
ft ed
Ġread s
sy stem
Ġdisd ain
B UR
k i
r able
Ġd ub
ĠE D
Ġfl av
Ġflo at
Ġse lling
What ever
Ġmag azine
ere rs
Ġjew el
shad ow
as ury
ro s
ri ers
Ġsk irts
Ġmis er
ĠNew man
Bl ack
in formation
Ġst alk
Ġwond rous
ar ia
ĠB ear
Ġbl ushing
Th om
ĠBl anche
ĠWest minster
Sc ot
Ġaccur acy
Ġga ily
prof ession
M AR
Ġcour tyard
uc er
Ġdev ote
Ġodd s
Ġton ight
ĠColumb us
m atic
on er
Ġapp les
my ster
Ġur gent
Ġpet ition
Ġprejud ices
d ney
Ġa h
ĠM oon
tr ain
Ġstri ving
Ġunexpected ly
u ations
Ġem peror
b are
Ġf ren
ĠP ot
Ġpray ing
Ġpassion ately
rec oll
ĠSh ort
ĠG iant
ĠD irect
ac compan
ĠP enn
Ġcar s
every body
n amed
p ill
omet er
w rit
ĠM eg
ĠD aw
Ġper v
av oid
S IR
n ay
ĠIn n
Ġvar iation
Ġproc ure
st ay
ĠL ot
Ġfin anc
Ġreven ue
Ġmart yr
Ġresign ation
Ġn avy
Ġan ecd
ĠH il
Ġsu ms
Ġv ib
Ġ( "
Ġchar med
Ġpre aching
Ġbu ying
R IST
w and
Ġab ide
ang s
c ou
ip ation
off icer
f irm
w ished
Ġcr acked
EN ERAL
Ġexert ions
it ives
Ġsp urs
Ġsc al
enc hes
ĠSp encer
isto l
Ġgen us
Ġent ry
Ġmem orable
Is n
spe ech
walk ing
Ġha iled
not ice
Ġact or
Ġdisc reet
sc r
Ġmerc iful
ĠCha p
ud ding
hand some
Ġlod ged
Ġcourte ous
hens ible
ate ur
oe uv
Ġcivil isation
Ġm un
ĠM ountain
ind if
Ġkiss es
Ġg aining
Ġab hor
ia lect
hand kerchief
Ġfright en
ĠTurn er
ĠP ublic
ict s
Ġair s
Ġlog ical
Ġcons cient
==== ====
Ġve in
Ġs ire
Ġas cent
ric ate
ĠStan ley
o ons
ĠL ab
go es
Ġsour ces
is n
ĠE g
cur ious
consider ation
ĠÂ §
Ġrecover ing
ĠA uthor
ĠL ud
Ġcha lk
col ored
s af
ĠW ing
ĠF inn
Ġtor ch
umber land
Ġin land
sh oot
gr ims
Ġcompl ained
Ġrapid ity
is dom
ro ying
Ġnodd ing
ĠFer gus
ĠD ame
ĠF ROM
ĠTr uth
Ġhaul ed
Ġthe ories
Ġm onsieur
Ġar isen
Ġhor ribly
ad m
Ġgl or
az ing
ub a
ices ter
aff airs
Ġrich ly
Ġoblig ation
Ġeast ward
Ġpre ached
Ġdef ined
ĠEd ition
Ġfold s
ol k
Ġbr ushed
Ġtail or
ĠL anc
Ġpre ference
fort y
on na
Ġbefore hand
IS E
compan ions
enny son
Ġchival ry
K S
ch us
ĠR aven
Ġad equ
Ġnor mal
Ġgra ves
XX X
Ġsurround ings
Ġattent ive
Ġmourn ful
Ġsympath ies
ĠTed dy
Ġwhar f
Ġhered itary
Ġcan st
Ġref using
Ġtoler ably
m ock
p a
Ġp onder
Ġcon form
Ġfl attered
Ġt ub
ol and
Ġcomp act
ĠIm perial
čč č
d led
n obody
ĠL izzie
ĠB rig
Ġsw amp
Ġfr owned
Ġhusband s
Ind ian
exc itement
unce lot
ĠC ertainly
vent h
Ġfort ress
Ġwear ied
Ġpreced ed
S uppose
ook s
ĠX V
ĠBl ood
Ġsweet est
ĠGab riel
w s
re sem
Ġl ull
Ġbust le
Ġsacrific ed
Ġejac ulated
s ong
Ġre vived
ight s
Ġsett ling
chie vous
Ġl ob
ons on
Ġacc idents
Ġint ending
Ġpal aces
sw ord
Ġhe m
im ps
Ġsh uddered
ex cellent
part s
Ġpat ches
ĠFrank lin
Ġoper a
ĠBo ard
Ġener getic
Ġc rop
look s
light s
itz er
Ġf ern
Ġe lected
anim ity
Ġde xter
ĠV ir
Ġfear ing
Ġmead ows
W ar
Ġl il
Ġrav ine
fif ty
r ons
Ġsp ake
Ġins ignific
Ġrepresent ation
Ġfortun ately
ĠFort un
Y N
p ointed
Ġreve al
Ġdrift ing
Ġen sued
e lect
f ancy
l oo
Ġo mitted
Ġtra ffic
Ġhy ster
Ġgrin ned
Ġveh icle
M or
Ġw reath
is land
Ġbag s
w alls
Ġpen it
ĠFred erick
Ġsp ed
har m
Ġliqu id
ĠWel sh
Ġted ious
m otion
m iddle
ĠT ro
Ġex asper
Ġass ass
fl ower
Ch urch
Ġproud ly
leg s
out ed
Ġgl ist
Ġsent in
Ġsent ences
Ġsix th
Ġb isc
pp ers
Ġad joining
Ġquer ied
it ory
Ġhapp ening
Ġgar ment
s ky
rom well
ĠF al
ĠAn thony
str icken
Ġbas in
Ġheap s
Ġfet ched
Ġta vern
cl ed
name ly
U p
s en
Ġa ug
Ġundert aken
Ġetern ity
Ġbo ards
she l
Ġtrad itions
ĠTe rence
Ġdimin ished
A W
ar ter
Ġten ants
off ered
Ġmaid s
Ġexhib it
g re
ent ric
Ġfor ci
ven ant
Ġsl aughter
Ġconst ructed
ĠAb bot
ĠI ll
ĠT al
Ġtri es
Ġprop ortions
Ġforg iveness
Ġpr ices
Ġbeaut ies
ĠSte wart
ĠDiv ine
Ġstub born
! ...
ĠG ene
ub en
Ġindul ged
Ġcl ient
Ġexcept ing
Ġkiss ing
fight ing
br id
Ġpol es
Ġpa using
ĠBur ton
ĠOther s
estab lished
ĠD al
Ġind is
Ġshr oud
r usted
am ations
Ġr aven
Ġbeg ging
fell ows
Ġrepent ance
Ġst ain
Ġv irgin
Ġcl enched
Ġdid st
Ġinf ernal
Ġann ual
sac rifice
le ading
ĠW r
ĠF am
Ġbur y
Ġt ended
Ġmind ed
Ġsubject ed
Ġsuccess fully
ĠAb ove
Ġgod dess
Ġmult i
Ġto ast
Ġre cl
spir its
cond itions
ĠEle anor
in ah
ĠP apa
ĠSt u
Ġsur f
imp ression
f em
r ud
Ġsight s
Ġneat ly
) :
6 5
ĠI d
J OHN
ab and
Ġpres ident
Ġposs ibilities
Ġhor rors
Ġequ ip
ul ed
ck er
ex ec
Ġco co
Ġhon ours
Ġl oneliness
Ġwrong s
Ġkn ives
ĠF ire
Ġnow adays
Ġbl under
Americ a
Ġconf ronted
Ġobl ige
care fully
Ġrad iant
ĠPruss ian
Ġshe lf
est ing
Ġhel met
ĠGrand father
Ġl uc
ĠC all
Ġwar fare
Ġ4 8
Ġhint s
ĠGold en
ĠAustri an
Sec ond
Ġsympt oms
ul ness
Ġimp osed
ĠHar vey
Ġnovel ty
le igh
ĠX III
Ġcompar ative
P h
Ġha gg
ĠK enn
Ġdist ribution
cell ency
Ġmot ions
Ġc ripp
Ġde pl
Ġoff end
iv ities
Ġhome ward
Ġpolit eness
Ġcell ar
Ġexagger ated
ĠT hings
Ġsun rise
dec ided
Ġl ungs
ĠH ilda
Ġbr im
Ġval ued
mist ak
ĠH ob
Ġcon sec
Ġgl ac
ĠCh il
Ġsuff ice
Ġpret ending
Ġequ ality
ĠFran ces
Ġbron ze
k spe
ex erc
Ġres ume
Ġpat ent
Ġm es
ul ses
ĠL iverpool
Ġdist racted
pre ced
Ġrestr ain
Ġd ame
ais er
Ġle agues
ĠR ad
Ġv icious
t empt
inci al
9 0
Ġn om
Ġun reasonable
Ġar ches
Ġsucceed ing
D own
Ġg y
ĠF ra
ĠO live
cl im
Ġwit hal
Ġdisapp ro
estab lish
H am
H ush
Ġv ices
Ġres ort
athed ral
Ġme ets
Ġhar bor
ĠInd ies
Ġproper ties
Ġve hement
Ġboy ish
Ġfire place
ĠFar mer
Ġbl ocks
ĠCle ment
s ides
Ġm atr
Ġre ctor
um a
EN CE
acc ident
ig o
Ġprofound ly
Ġconsist ing
w atching
ir rel
ĠT est
ia zz
Ġcr um
Ġdocum ents
4 7
p arent
Ġn asty
Ġant iquity
acqu ainted
F ar
Ġb owing
al i
Ġen closed
Ġcontin ues
Ġattract ion
ival ent
ĠRos am
ĠB road
leg ged
Ġsouth ward
Ġcirc ular
Ġpear ls
ed ge
Ġcan al
Ġhill side
dest roy
ĠR oy
Ġcons umed
Ġled ge
Ġstead fast
Every thing
Ġveget ation
Ġv oy
Ġover fl
Ġwhere of
ĠY an
Ġsk irt
set tle
anim als
Ġperplex ity
ig an
Ġfew er
Ġmist akes
pers u
ĠWalk er
F er
H igh
ĠP ap
Ġpit iful
Ġexcell ence
an ter
Ġe th
Ġst ages
Ġr aging
ĠC ass
Ġrest s
b as
Ġaffect ing
Ġsn ug
Ġsne er
Ġun p
cl ad
erv ative
Ġrust y
Ġconvention al
.. ."
Ġmir ac
Ġgover ned
ĠTurk ish
Ġl akes
ĠM ead
Ġun broken
Ġmagn et
Ġhyp oc
ot ent
Ġg ait
se vere
Ġwere n
ph ia
Ġfr antic
in isc
Ġd ated
ab ilities
p ound
Ġphilosop hers
Ġtrad er
Ġtroubles ome
Ġv oid
Ġwhis ky
hara oh
s urely
play ed
Ġgrie ve
Â ·
Ġst ained
Ġtemper ature
an se
Ġre ly
ĠG w
anc ient
Ġstri pped
ĠSpani ard
Ġb oss
Ġinde finite
Ġe z
Ġne ut
Ġhang s
Ġrust ic
ĠSop h
ou ter
se ason
ĠM RS
ĠJ oy
Ġsal ary
Ġendeav ouring
ĠRab bit
r ice
Ġl ag
Ġcom edy
ĠE X
sp ot
Ġprof its
Ġber th
D E
Ġp iety
Ġn ic
iter ated
Ġ17 7
h unting
Ġad vert
was hed
ĠLet ters
u en
Ġun b
Ġdes olation
Ġscream ing
Ġcongreg ation
ind epend
Ġhence forth
Ġconsist ent
Ġconspir acy
ove reign
my th
Ġsn iff
Ġm athemat
id get
the st
Ġro gue
Ġhonor able
z o
ut s
Ġno blest
Ġjo ining
ĠMaur ice
T e
et ies
ro of
ĠD omin
Ġpot atoes
re pro
Ġc ob
ĠB essie
ĠC ynthia
Ġsp ont
ip ated
Ġadv is
Se pt
f un
f ier
Ġn ails
Ġr amp
Ġsur m
Ġvar iations
Ġprodu ces
Ġstream ing
Ġstock ings
j a
l oss
inc ing
min a
Ġgrad ual
RO W
Ġr ushes
Ġcompl ac
Ġsob bing
ĠCl avering
Ġadmir ably
Ġb ould
Ġhow ling
und ert
Ġprecaut ion
Ġst ops
che st
Is a
L ORD
c ost
Ġhome ly
Ġbu zz
Ġindul gence
Ġnostri ls
ou the
Ġbarbar ous
Ġverd ict
is ance
ĠM oh
ĠR ousseau
ex ped
Ġdev out
ĠMount ains
distingu ished
_ {
ĠNew come
Nor th
ĠMal colm
Ġmant le
Ġgener a
Ġri bs
ham pton
ony m
co very
ĠCl aude
Ġey ed
Ġill ustrious
Ġdescri pt
ill on
og ene
Ġindign antly
Ġno ises
Ġun lucky
Ġcur ls
susp ic
Rem ember
an i
ĠC ott
Ġlight ing
des per
Ġrepresent ing
grow ing
Ġre ct
Ġle apt
act ually
Ġfl ing
Ġmel od
ĠÃ Ĩ
A unt
r d
t ically
friend ly
Ġimmense ly
T hy
ĠJ em
ĠCl ive
ĠW et
ĠF an
ON E
Ġreward ed
Ġillustr ation
Ġtele phone
T oo
im o
Ġsh ivered
Ġun fit
Ġcrowd s
Ġstrugg les
ĠMon te
Ġp amph
Ġins in
Ġbig gest
Ġnorth ward
Ġpot ent
amm ered
lim ited
Ġchamp ion
Ġg room
ĠM ust
ĠS ad
Ġsob bed
Ġteacher s
Ġstor my
o irs
Ġh ush
Ġan on
air n
Ġvary ing
Ġbl asp
Ġkeep er
Ġunt r
Ġair y
dist ant
Ġsan ction
g n
Ġa pron
Ġp ic
Ġfor fe
ult iv
Ã© e
ĠSn ap
Ġlugg age
v or
ĠT ony
ĠD ublin
ag n
irl ing
Ġind irect
Ġass umption
expl an
b ones
av a
Ġinqu iring
Ġbatter ies
N ature
ĠP O
ĠK irk
ĠIn to
Ġdescend ants
Ġt acit
Ġdra wer
Ġ17 0
Ġla unch
atr ical
Ġble eding
po et
Ġphenomen on
C oll
Ġdo d
Ġno bler
ĠG iles
ser ve
Ġjud ging
sugg ested
N at
Ġo ar
ar my
Ġwe eds
Ġstar ving
Mar garet
deg ree
M ark
b ade
Ġc ells
Ġp ulse
Ġexcl usively
Ġassoci ations
ĠCy ril
Ġannounce ment
!" --
suff ering
iast ical
ĠCh icago
Ġstat ements
pend icular
Ġes pecial
ĠĠĠĠĠĠĠĠĠĠĠĠĠĠĠĠĠĠĠĠĠĠĠĠĠĠĠĠĠĠĠĠ ĠĠĠ
enth us
Ġrestr ained
Ġwhist ling
Ġcam els
Ġdefin ition
p ipe
Ġm ouse
Ġl ance
ant on
ick ens
Ġaccept ance
Ġfavor able
Ġprecip ice
g rey
ĠW omen
Ġbur g
OR GE
Ġinstinct ively
ĠBro oke
Ġcompet ition
ĠBas il
Ġtranqu il
u ir
Ġtrans ferred
Ġreve rent
Ġsore ly
d i
Ġm used
st ir
Ġst ing
ĠP lease
ud ic
Ġtri als
ĠKen nedy
Ġconject ure
M ajor
u its
Ġban quet
Ġdrag on
Bet ter
ĠHenri etta
J une
ĠM abel
Ġcl an
Ġcomm end
Ġinc or
Ġvan ish
ĠVic ar
d les
ĠM erton
ig ated
Ġsweet ly
ĠSav iour
Ġbachel or
cl ing
Ġsm ote
and ah
Ġinflu enced
ĠCr us
Ġsculpt ure
ign ation
wor ked
Ġlab ou
Ġresem bling
ret t
Ġem ig
Ġperpet ually
Ġtr ains
Ġres isted
Ġdet est
Ã ¼
as much
ĠCom p
Ġaccept ing
Ġep it
E P
cl iff
Ġstor ms
Ġimagin ative
Ġcalam ity
g room
Ġpl ent
pro gress
Ġbab ies
dro pped
IF E
Ġf elic
ic it
Ġre ins
ĠS a
ĠB acon
est one
Ġpass enger
danger ous
ĠG host
ĠA cad
el ope
Ġmis fortunes
cript ions
ĠB aker
Ġworld s
Ġpar as
Ġproceed s
ĠPhil ipp
Ġske leton
Ġguid ance
Ġbed side
Ġlif etime
Ġric her
Ġbrisk ly
Ġb omb
Ġheav ier
CHA R
Ġrevol t
Ġmud dy
May be
ĠSop hy
L aw
r ings
Ġf ile
ĠC reat
Ġche ered
Ġhero ine
Ġbull ets
ĠAugust us
g ars
ĠE ug
Ġrec ur
ĠWh ose
Ġsolemn ity
Ġwhir led
in ers
Ġher ald
Ġdazz ling
Ġdem on
ĠCan ad
Ġyield ing
B er
l od
st aff
ĠR ajah
ĠBe hind
Ġsuper natural
Ġang les
Ġcler ks
Ġthreat s
ĠScript ure
ĠM ind
Ġcont ribut
E gypt
m arch
Ġe ch
Ġthr ows
br ay
Ġview ed
Ġplan et
Ġban ner
low ly
remark able
ĠTh ird
mod ern
in habit
Ġp ie
ent in
ĠS omerset
off er
Ġpublic ly
Ġillustr ated
Ġadorn ed
E ach
p hy
or ical
Ġp upp
ĠI da
Ġtrust ing
Ġwat ches
Ġ7 0
ĠPe re
suffic iently
as m
Ġbl amed
Ġhom age
Ġgrasp ing
Ġm ules
Ġm amm
ro st
ĠC ru
ĠP atsy
Ġle ague
Ġrespect ive
Ġpay s
uzz le
A ye
R ight
be e
Ġboy hood
ĠY ear
OR N
Ġra ft
fing ers
v alley
ĠA li
Ġup roar
Ġend urance
mist ress
Ġunf old
Ġveget able
Ġd eter
ON G
ĠMans oul
Ġre action
Ġsh uff
Ġcl ue
ĠAlex and
Ġf reed
ĠD O
ĠN abob
Ġen velop
Ġrep resents
up reme
Ġreal m
Ġnerv ously
Ġecc entric
u ctor
Ġwe ird
ĠL ock
ĠE li
ĠJ un
Ġpe aks
satisf actory
--- |
G rand
Ġlay s
ĠLa uncelot
Ġthreat en
ĠMon k
4 4
M al
l van
Ġn ap
am ie
ect ing
ĠMag dal
Ġdece it
ĠS anta
Ġdis pleasure
cont empt
Ġpeculiar ities
_ .]
Ġt echn
to e
ĠL em
Ġdis liked
og g
Ġdelight s
Dav id
R U
b ted
Ġb ob
al ians
ĠM od
Ġbut cher
ass ing
Ġexp osure
Ġcle arer
Ġste ed
bec oming
Ġmood s
Ġleg itimate
Ġdiv isions
Ġjo kes
soci al
Ġenc amp
Ġobsc urity
os h
og a
Ġinde bted
Ġep is
sent iment
m aint
ri et
Ġcott ages
rock s
Ġident ical
Ġvic ar
u i
ha ven
ĠJ essie
Ġcr ush
Ġve ter
ĠZ eal
adel phia
Ġc ran
Ġd row
th orne
Ġrel ating
Ġfee bly
Ġmonot onous
it le
bre aking
top her
F red
M er
m oral
Ġrender ing
quiet ly
Ġecc les
Ġomin ous
g ies
Ġund ist
sil ver
Ġuncertain ty
Ġfund amental
neighb our
Ġmaj estic
ĠG ertrude
Ġsc re
Ġbre eds
cient ific
Ġkins man
ade qu
ord id
hum oured
Ġjump ing
laugh ing
w atched
Ġe ve
ĠH ester
Ġcomfort ed
Ġcirc uit
ĠVol taire
Ġscound rel
Ġsh iver
aff ord
Ġcorrupt ion
relig ious
Y ours
g rew
Ġdo ck
ĠU rsula
Ġschol ars
Ġreb els
Ġd ashing
c itiz
Ġb in
ĠT ry
Ġst ables
de acon
ĠK end
oubt less
Ġtro pical
bro ok
Ġprophe cy
Ġcontem porary
Ġstoop ing
ĠA aron
N ote
Ġb orders
Ġst ature
Ġgl aring
Ġ8 0
Ġc ups
-- [
Ġr ouse
dr ink
ĠTw enty
exam ple
Ġt ies
ĠC oo
Ġatt ire
Ġadv ances
chan t
ĠCha pter
Ġcool ness
Ġg ardener
im um
imp at
ĠPro phe
stre ets
Ġbaff led
ent ers
et le
Ġr ural
ĠC OL
ĠW ay
Ġpal ms
Ġhate ful
Ġcher ished
Ġis olated
Ġde ference
ĠF rog
Ġfail s
foot ed
ĠVenet ian
ĠSteven son
ĠM ade
ort on
Ġboard ing
AS S
ic ent
rem arked
tr ade
Ġeng ines
interrupt ed
u ld
ĠT am
ro pe
Ġimper ial
Ġaccident al
poss ibly
T ill
power ful
complete ly
B ill
I AM
al tern
Ġtransp arent
Ġannoy ance
s orrow
v ision
Ġlo af
Wh ite
happ ily
exper ienced
ag s
ru ff
Ġneed less
Ġwis est
ĠMay or
hum our
Ġlit ter
Ġr im
Ġconst able
agger ing
Ġuneas ily
Sc ott
Ġfab ric
ĠA z
Ġpro verb
Ġbl and
sm oke
ĠZ e
Ġingen uity
Ġt uck
if er
ie g
Ġsp an
Ġbo iling
Ġsound ing
Ġbirth day
point s
Ġsa fer
ĠJ OHN
ĠAb raham
Ġhard ened
Ġche ering
Ġprem ises
fal se
S al
c ade
m ult
Ġa ye
Ġyou ths
ĠB ec
Ġall ey
Ġper chance
Ġcont ributed
Ġsal uted
mar ry
ĠPo et
ĠNa ples
m ass
p ounds
Ġb ount
Ġd art
Ġcr ust
Ġexplos ion
h oles
w right
Ġw ad
ĠP oly
ĠR a
Ġinter mediate
Ġinstinct ive
u cc
Ġt ails
ad ies
fore ign
ex ceed
Ġfell er
ĠX VI
dep art
ĠS H
Ġapp rent
Ġhapp iest
lau ghed
Y ork
t ouch
Ġp addle
Ġre igned
ĠF ree
Ġgu arant
Ġbu oy
ING TON
Ġpolite ly
Ġalle ged
t ears
Ġto y
ch in
Ġbo iled
ĠCar ly
Con st
ym ph
Ġw ink
es cri
Ġdest ination
R ose
s ad
ĠT hames
Ġsu ck
Ġorder ly
Ġla ure
Ġrub bish
repe ated
Ġdisapp oint
Ġstar ved
anim ous
B less
Ġab y
ĠJ enny
ft en
oth s
Ġpers ist
Ġforth with
rid ges
c s
Ġover looked
ĠAs k
Ġfamiliar ity
Ġshr ine
b old
in formed
Ġs am
ĠP RO
ĠL en
Ġstud io
L y
O ver
Ġg ains
Ġfl uttering
Ġsn ap
Ġdiscover ing
B ur
g ow
j ourn
m are
ic ro
Ġv olley
Ġgo at
Ġ5 5
M ISS
cr own
super ior
Ġsuperst itious
B ob
f aint
ĠI mp
Ġcl apped
Ġrep aired
succeed ed
ri lled
Ġr aid
Ġpl ump
Ġsupp osition
cons cience
ri ots
IL D
cal m
Ġninet een
Ġrib bon
S unday
act ing
Ġbes e
ĠWil kins
Ġgle amed
Ġdisturb ance
n ic
ĠJ e
Ġpe ered
Ġpri or
Ġintellig ible
Ġenchan ted
Â °
Ġb ot
Ġsm oot
gl ance
Ġimpro bable
ĠAugust a
spec ial
Ġoverwhel med
th or
Ġpresent ing
Ġshru b
El izabeth
c op
Ġher ds
Ġover heard
AT HER
Ġball ad
Ġencour aging
Ġcoach man
ĠH ector
Ġal oof
ĠSy dney
Ġwheel ed
Ġf ishes
Ġinv asion
Ġcomfort s
Ġfever ish
mem ory
s harp
Ġb ang
ens on
Ġcr ouched
Ġfun ctions
ste am
Ġox en
b in
ĠT rans
ĠWill ie
Ġsal ute
ĠDom bey
t ur
Ġed ifice
great ly
Ġsevent h
J ane
Ġd ome
Ġha ck
Ġse p
Ġqu ot
Ġsc or
Ġimp osing
Ġmir acles
hur t
Ġcondem n
Ġratt ling
Ġst ress
Ġis le
ĠJ ethro
c ord
Ġf oss
Ġstr icken
Ġcr ude
Ġescap ing
Ġtreat ing
_ "
Ġ2 00
Ġsnow y
Ġsin ister
Ch ild
mo ving
' ."
G R
ĠT ay
Ġst ony
Ġre ared
em ies
Ġgle e
ĠBell a
Ġgran ite
accompan ied
b reat
Ġfr amed
Ġinf all
Ġstick ing
ulk erson
d well
ou bles
ll e
ar ranged
ĠC her
ĠG RE
ice ly
Ġcost ly
Ġhol idays
ri ar
as ide
Ġexp ose
Ġter rors
Ġconst ernation
ĠCom mon
ise ly
Ġdri pping
vi ving
necess ity
Par liament
Ġech oes
st ery
Ġlux ur
Ġtax es
P ort
ĠM ild
Ġaffection ately
aver ley
ĠAustri a
p ale
oss ibility
Ġpass ive
Ġimp r
wr ote
bro se
jud gment
prom ised
Ġp ite
ĠL iter
co ast
Ġdescri bing
ĠMack enzie
s ake
ind ul
ult an
Ġprec ision
intellig ible
Ġinspect ion
Ġd ates
at ical
th rew
ul ity
Ġcom ic
ĠSt ra
Ġend owed
Ġdep ression
Ġdesp atched
Ġpossess ing
udd led
O b
d ling
t est
est ine
ĠW oman
Ġdecl ares
Ġutter ing
Ġp ard
ore rs
Ġun grateful
Ġearth qu
Ġjud ic
Ġstri ve
Ġdom est
Ġus ur
oy d
anim al
ant ime
ĠSt range
att ack
ĠAl most
Ġir ony
Ġmount ing
Ġsupport ing
Ġappar atus
Ġp airs
Ġatt ribute
ĠTh orne
Ġass uming
ub ert
cur t
H ur
cl iffe
not es
over s
Ġwar med
rist ram
rel ief
Ġthick ness
Ġbal cony
Ġrhy me
ot y
Ġfor k
ra ke
uck le
Ġmant el
grad ation
W or
ĠG arden
Ġcl ing
Ġwor m
ĠE aster
ĠOr leans
Ġincl ude
h r
Ġd uel
ĠS cience
ĠS ahib
Ġsp acious
ĠG inger
Ġtr act
part ies
Ġgest ures
Ġinfl icted
Ġpul pit
Ġd oubled
il ted
ab leness
Ġbr ist
Ġexp end
li bert
che t
ĠRe gin
Ġclass ical
u pper
ond a
Ġsub t
Ġappreci ated
mark et
ĠMex ican
Ġcommence ment
ĠPerc ival
D es
E X
gu ing
Ġtit les
Ġobed ient
sur face
ĠLook ing
. --"
Ġd ialect
fe ather
ss es
Ġsec recy
Ġstr ay
Ġdro oping
Ġill eg
Ġworth less
Ġsplend or
Ġentertain ing
Re ally
Ġs angu
Ġcon ference
Ġdist ances
Ġweak er
Ġcru elly
Ġbab e
Ġresour ce
Ġs ite
ĠH ist
Ġblack ness
ĠPhil osop
Ġmanif ested
account able
or ph
aw ed
Ġtoss ing
Pe ople
p able
w ig
is se
ard y
ĠF en
Ġfasc inating
jac ent
symp athy
per ing
Ġdep ressed
Ġbes et
Ġprelim inary
ed e
ass ured
Ġobst acle
Ġwhist led
Ġcongrat ulate
h id
Ġh ound
Ġst ammered
ĠHe y
Ġpl ung
Ġhand y
ĠV is
Ġter rific
let cher
Ġaffl icted
A ct
Ġ Î
Ġrep etition
fall s
Ġendeav or
Ġattent ions
z ar
ber ries
fl oat
Ġstation ed
Ġinsens ible
ĠC arr
sp eed
iter ranean
Ġcover s
ĠArch bishop
Ġconsult ation
Ġmechan ically
v ig
re ceive
Ġha ze
ul sed
Ġk ettle
Ġdis pose
Ġhow l
Ġopp ression
Ġhair s
Ġdet ained
Ġmyst ic
Ġexped ient
Ġgr ub
Ġfl attering
Ġsuper flu
find ing
Ġdistrict s
Ġga iety
Luc y
re ach
Ġm ature
Ġprov inces
pract ical
sold ier
Ġs ane
ĠA v
Ġdis comfort
Ġfam ine
Ġfresh ness
Ġrob ber
move ment
Ġrelax ed
M R
O ther
b rill
ĠM useum
ĠO cean
Ġpart icles
St ephen
plic it
Ġoverwhel ming
ĠCarly le
B o
ĠT ib
od s
Ġpossess es
ĠAnt ony
Ġb rew
Ġhe ated
Ġn ail
car rying
yes terday
Ġins ulted
Ġpar ade
Ġprof itable
Ġdog ged
Ġmaid ens
ĠPur itan
ĠT ennyson
ĠDun can
istr ates
itzer land
i ably
Ġt angled
own ess
Ġsc are
Ġind ispensable
Ã¨ re
sole mn
Ġtreacher ous
b un
b age
Ġche que
Ġstart s
Ġbar red
Ġclut ched
Ġind ec
Ġsat ire
ĠLe icester
inn ie
Ġunivers ally
b row
ur ate
ĠV e
ĠSt and
ĠWil hel
ĠChan cellor
Ġecst asy
d ry
he ars
Ġst ren
Ġsu ndry
Ġad ult
Ġpost ure
Ġto ilet
Ġre aches
Ġhand led
Ġve iled
Ġsorrow ful
cur rent
Ġbrood ing
ĠB os
ĠC romwell
Ġlove liness
op atra
Ġdiscover ies
hem ia
Ġcontempl ated
rag on
ĠMex ico
Ġphilosoph ical
ĠBeaut y
FOOT NOTES
n ames
ĠP as
ass y
âĢ Ĳ
Ġfl aming
Ġsw elling
occasion ally
Var iant
Ġ il
in her
ol ve
per form
und y
pr oud
Ġless er
Ġreluct ance
f ood
ĠH and
qu ant
Ġal t
Ġtr ading
Ġlast ly
ult ural
Ġins ane
Ġtrans action
cal c
Ġchamp agne
or ily
ce rem
ec ess
Ġwhis pers
ĠCale b
M uch
f ac
m ile
ĠBut ler
gr ay
Ġ4 9
ĠOr der
put ting
Ġquant ities
ĠB less
Ġfound ations
Ġundert ook
Ġprocl aim
h ide
Ġhast en
AT H
Ġcapt ivity
ĠBet ter
Ġ182 9
ĠCHA R
Ġbatt al
c ook
t ouched
all ied
ĠHe nd
Ġpe ering
Ġbar onet
ustri al
P at
s and
est ead
ĠL ev
Ġpro blems
Ġim itate
Ġcons umm
Ġant iqu
j ah
Ġm im
Ġp aced
iment ary
Ġsway ed
m ud
ĠR uff
ĠIn f
ĠAl ready
Ġpill ar
Ġcirc us
. (
k night
re te
Ġm it
st op
ad er
ĠH ig
ous ing
ĠWhere fore
ipp i
Ġcultiv ation
Ġfug itives
Ġag ency
ull o
des cribed
Ġremind s
Ġascend ing
ĠL IN
Ġmel ody
ĠMor gan
Ġaim ed
Ġmuff led
op ening
Ġsw elled
ĠAl mighty
Ġprop ositions
Ġsign ify
Ġchurch yard
Ġban ished
fright ened
i ress
Ġs ings
or f
Ġsp aces
ĠN ic
ater n
Ġgre ed
ĠHow ard
Ġcross es
Ġvict orious
Ġmetap hys
ĠVinc ent
Ġcon vert
um my
Ġsl ipping
Ġdec ks
pro spect
do ct
Ġdin ners
Ġfisher man
Ġbutt ons
Ġar ising
ĠPr ime
Ġvis ibly
Ġsqu at
ĠSm all
Ġexcess ive
Ġavail able
Mart in
EC OND
Ġesteem ed
g athered
Ġrest aurant
Ġplant ation
Ġmock ing
Ġshrie ked
educ ation
Ġabomin able
ĠM O
ret ches
ĠSo ames
Ġlangu id
Ġcat astrophe
ĠL iber
right eous
Ġcomp romise
az ines
some where
mark s
Ġinsol ent
Ġremo ving
f ail
Ġcon nex
ĠL O
ount ains
Ġrel ish
wor ship
Ġexper t
Ġcraw l
Than ks
I nt
ut ies
Ġdo ve
com er
gg er
Ġcur ate
ene ath
present ed
Ġdece ased
it ar
Ġfor cing
Ġor th
um bers
ĠD ol
Ġrud dy
Ġmusk et
ĠC ow
ĠP E
Ġstr ings
ump ing
Ġcig ars
Ġstates man
phan ts
D EAR
l op
Ġnot able
TER S
occ urred
C am
Ġp ension
ĠG ardens
heart s
emb arrass
M ake
Ġl ink
ĠC ock
Ġret iring
f ruit
Ġp ots
Ġe man
Ġtr ot
Ġfl ocks
Ġcontin uing
ĠOh io
Ġmel t
Ġaristocr acy
Ġnut s
ĠJapan ese
ĠCard inal
ĠB ly
Ġgr aces
ob st
Ġprincip ally
eff ort
Ġsurvey ed
OR T
Ġris ks
tw elve
Ġpeep ed
Ġt ire
Ġg asp
uff s
off in
Ġgate way
ĠBo er
Ġqual ified
Ġric hest
nut s
direct ly
hig her
F ive
K ES
Ġc ured
Ġcha st
br ush
ste ady
g am
Ġt ons
ĠG ospel
ĠR un
Ġkind led
Ġtro d
new s
Ġrejo icing
mus ic
Ġplac id
Ġcontrovers y
bl eness
ĠWilliam s
Ġpeop les
ĠM erc
Ġex h
ĠL isten
Ġar ranging
Ġcha ps
dis appeared
bre ast
ĠRay mond
ĠAust in
nd ers
Ġha re
ĠP ast
Ġal ight
Ġdel usion
ĠU ntil
Ġcol on
ific ent
ĠPro bably
oblig ed
ĠH are
Ġout fit
gg s
Ġgall oped
prov ided
g on
x im
Ġbe ads
ought on
Ġmis chievous
Ġty pical
Ġorgan ization
Ġdism ounted
ĠPark er
Ġinev itably
ĠRon ald
E h
J er
Ġobl iv
equ ally
Ġpenet rated
ĠMess rs
Ġg rap
Ġdescri bes
Ġinterf ered
f ond
ĠA ch
Ġr ats
Ġvis age
Ġdesp ond
ĠEx cellency
suff er
Ġpluck ed
t ender
ĠM is
Ġcon ver
Ġpre text
Ġpe ak
ĠSt ella
Ġrepeated ly
Ġgent leness
Ġselfish ness
e el
Ġb rav
Ġam iss
pr inciples
ĠIs le
b il
Ġw are
id y
Ġant ique
Ġhosp itable
Ġsust ain
Ġdecor ated
D uke
on ic
Ġdr own
ĠCl er
ĠCom te
ĠMax well
Ġrapt ure
c ass
Ġsh ivering
ĠR est
Ġro ast
Ġhand writing
Ġch icken
ĠIs n
ĠDav is
squ are
princip le
Ġbe in
Ġper ceiving
Ġmess ages
Ġbless ings
Ġpier cing
S tr
s li
ag a
Ġser ves
Ġwhis kers
ĠStr ong
S er
Ġc it
Ġlast ing
rest ed
Ġnec ks
Ġadm on
ĠBar ney
ĠLouis a
Ġcompet ent
OUN T
b eth
f anc
se ated
th orn
Ġgood ly
Ġcook ed
Ġcurrent s
p red
w icked
Ġo pt
ĠW har
Ġnight fall
Ġref rain
Ġbright ened
Ġver anda
ien na
Ġgrass y
Ġcup board
Ex actly
ĠOt to
D is
b ill
Ġl inger
Ġwr ung
kind ness
J uly
Ġn ought
Ġab st
ĠNew ton
Ġdesp atch
requ ired
Ġdom inion
6 6
c ation
y ours
Ġreason ably
aff air
Pro v
Ġbuff alo
Ġsimpl est
le e
ĠP haraoh
vent ures
Ġpar adise
Ġ4 7
Ġsugg estions
Ġur ging
Ġfrank ness
Ġfund s
Ġstreng thened
G race
Ġg ilt
ple as
Ġmin istry
Ġst ations
ĠS ou
ĠP or
au g
ask ets
Ġprompt ed
Ġexcurs ion
S H
S y
Ġt ren
Ġfirm ness
Ġdry ly
lo ving
Ġoath s
acknow led
Ġgu ineas
Ġleis urely
E r
Ġr ains
ĠCh in
ĠJul ius
M em
u h
man s
Ġid leness
ĠChe ster
ĠG a
Ġimp ost
Ġcar penter
Ġbo il
4 1
ĠT oby
ĠAs sembly
Ġ15 0
g ather
Ġdrink s
Ġexult ation
on ian
Ġproject ing
iazz a
s kins
Ġun ite
Ġacc ursed
Ġel bows
Ġsk irm
vel in
Ġflu id
Ġhagg ard
L ast
le ar
ir am
ĠW it
ĠP oss
Ġtr out
ĠAcc ording
Ġeyel ids
ĠZeal and
; [
Ġf ading
ĠS ylvia
ĠW inc
ĠD ark
Ġun m
Ġact ors
val ue
val ier
Ġemploy er
Ġsuggest ive
ĠSab bath
N onsense
am our
ol ent
Ġpro hib
ĠAnd erson
ci an
Ġlap se
M ENT
ĠS ic
ru ck
Ġgu ides
AR E
Ġjoy ful
L ie
ill ity
Ġpl aint
Ġcl aws
av an
Ġbur ial
Ġsin ful
jud ge
o ors
Ġl ime
ĠK aiser
ars ons
Ġsle w
Ġpath os
ĠSw iss
ĠKe ith
Ġthrill ing
Ġbloss om
g ently
ĠD ob
Ġsuper intend
Ġwas ting
est ial
ĠG ud
sh r
Ġwar like
Ġref inement
Ġhat es
Ġendeav ored
Ġrob bers
Ġdisappear ance
admir ation
Ġr ice
Ġran ged
Ġworsh ipped
Ġb ail
ĠB es
ol itan
bl ank
Ġfar ms
Ġple ading
Ġcha sed
Ġvill a
Ġnaught y
Ġconcent rated
strugg le
ĠStu art
M ur
b bed
c oun
u z
am mar
Ġper sever
me asure
any body
gr ounds
Ġfug itive
Ġenlar ged
ĠVir gil
A LE
T ur
as ks
elt on
min ent
Ġmor bid
ĠDr um
necess arily
Ġpoison ed
avil ion
p apers
an es
-- (
ĠB L
Ġsh ifted
ruct ions
Ġrust ling
ĠP ic
Ġgener als
** *
ĠMo ors
Ġt ab
ĠS eth
Ġpl ank
Ġtw ist
ham med
Ġsecond ary
Ġins cription
Ġmer rily
ĠVictor ia
ĠLion el
v ain
w id
Ġ icy
Ġcount less
Ġcha riot
Ġwhirl ing
Ġbloss oms
h un
Ġstra it
Ġirrit ated
CT ION
ert ion
ĠSt re
Ġhum il
rem pt
A pril
c ousin
ĠH unter
ĠU r
Ġbur gl
Ġequ ivalent
Ġdisp ersed
Ġaccur ately
Ġcam el
Thom as
H istory
t aste
v ict
Ġcur ved
road s
Ġprocess es
Ġcerem onies
susp ected
4 2
av in
Ġexpect ations
ie re
Ġdis conc
Ġatt ributes
ĠGe org
Ġpen alty
every where
Ġbank er
adv ance
Ġrecei ves
. =
Ġl id
ĠB an
Ġdon key
Ġdest itute
OU LD
Ġtum bling
intellig ence
kspe are
Ġr ue
our se
Ġsm ugg
Ġple a
Ġ3 2
Ġexc uses
light ed
Ġdest roying
ĠAm elia
Ġfond ly
Ġmock ery
Ġentreat ed
ecks niff
D un
Ġimp ly
co ach
imp ress
Ġshad ed
RE E
Ġble ak
ĠBell e
Ġexplan ations
Ġd ipped
ĠF ull
ĠF IRST
ĠN ile
be ha
ĠAd a
fa ult
plic able
H ello
t alked
Ġwe arily
ter bury
Ġqu ote
per ceived
Ġlet s
Ġhot els
ĠGu ard
Ġau ld
Ġcharacter istics
ĠSam my
Ġcapt ives
Jim my
ĠRh ine
Ġdemocr acy
Ġenlight ened
p ortion
Ġgl oss
Ġclose t
Ġcollect ing
Ġtoler able
sav age
v able
Ġten ant
Ġbr ink
Ġbar on
Ġrob bery
adv anced
Ġspect ator
Ġclub s
Ġconceal ment
ĠJon athan
Ġsubsequ ently
Ġdoub ly
Ġs ordid
Ġb ower
Ġun question
pl ate
sha re
Ġno bly
cle an
Ġmus cle
Ġinqu is
Ġemb ark
rop olis
Ġdelic ately
Ġlect ures
ĠL uck
act ive
Ġrein force
Ġaccus ation
? )
c ote
ug n
Ġquestion ing
Ġsense less
Ġpain ters
ĠBel g
Ġappar ition
re ll
at his
Ġre ap
ĠP ier
man if
Ġcount ess
Ġcr adle
b ush
d ens
sp ent
Ġeld ers
dev il
Ġchoo sing
5 5
T ar
Ġm os
ĠSe ven
Ġwreck ed
ĠBenj amin
Ġsp ies
ens ington
Ġdec isive
g ra
u velin
ĠK arl
Ġacc use
Ġdist aste
Ġfact ory
list en
m our
y ield
á ½
Ġv ir
ran ces
reg ret
_ !
Ġreluct antly
Ġscra pe
Ġding y
S it
ment ion
Ġsk ilful
suff ered
co al
Ġver andah
Ġfut ile
M in
e at
v ina
Ġt int
Ġt utor
in als
Ġn ae
Ġre li
ĠB enn
ant es
empt ion
comp et
Ġtrem ulous
play ing
Ġconstit uted
imps es
C han
Ġall y
Ġsm ashed
Ġhall s
Ġpit ied
Ġempt ied
diffic ulties
G overnment
Ġun mistak
Ġinto x
Ġelectric ity
ĠF ancy
Ġlo ath
ĠĠĠĠĠĠĠĠĠĠĠĠĠĠĠĠĠĠĠĠĠĠĠĠĠĠĠĠĠĠĠĠ ĠĠĠĠĠĠĠ
ĠAd ams
acc ess
Ġportra its
D el
Ġst unned
Ġwhere by
Ġdeliver ance
ĠLes lie
ĠS ister
Ġspec ulations
Ġfine ly
Ġvigor ously
c aut
f arm
he aring
ĠA ir
ul ative
air y
iz zy
ex ception
thorough ly
c use
st rang
Ġre pt
Ġst ump
Ġli ar
Ġconf idently
she ll
RE D
Ġla unched
ĠM amma
ĠS oul
Ġal arming
end olen
Ġpost p
Ġmort als
P al
ick le
und ays
ĠAl ps
Ġcompanions hip
Ġsurv ive
ĠW ait
ĠP ip
ĠG ow
Ġdis regard
Ġper ched
Ġcoward ly
Ġpha se
J oe
l am
Ġd azed
ar ches
ol ics
was h
Ġdef y
Ġmed i
Ġpersec ution
proceed ed
respons ible
ĠAthen s
udic rous
Ġm ethinks
ĠS IR
Ġso bs
em per
Ġemb arked
Look ing
tro ops
g ame
ĠJ enn
Ġsl oop
ob ile
Ġdep rec
Ġmut ton
Ġmut tering
Ġpin ch
ĠPers ian
A lex
Ġn oses
Ġcour ses
Ġdet achment
Ġval iant
Ġaristocr atic
Ġsacrific es
employ ed
liter ature
d ull
ĠR oss
Ġcont racted
Ġsubst itute
ĠRuss ians
Ġridic ule
Ġirrit ation
Ġm ound
app ears
br inging
ĠX VII
inst antly
hur ried
Ġfasc ination
Ġanaly sis
Ġro lls
ile e
sc he
Ġrude ly
tem pered
Ġc ust
Ġimp ulses
Ġtrave ling
cur iosity
Ġinsignific ant
Ã «
ran n
Ġ4 6
Let ters
Ġcustom ers
g ill
at um
sp ace
iss ue
Ġgl ove
ĠB ess
Ġprov oked
Ġsuccess or
ca used
stud y
frequ ently
Ġf owls
Ġquick er
Ġpen n
Ġreflect ing
Ġwh ites
ĠM erry
Ġv ot
Ġpro ving
Ġatt ach
li hood
Ġspec k
Ġnice ly
ĠCr ab
ow ards
ĠR at
att ract
asc ul
Ġbrig ade
Ġt ires
Ġre ced
Ġnat ures
ĠMad eline
ĠU N
Ġpubl ish
ĠSen ate
r us
Ġcont riv
Ġarm or
ĠBar ry
Ġcru c
Ġcorrespond ent
Br own
Ġsher iff
ĠC row
au ld
Ġun speak
Ġfe at
Ġwr inkled
y ll
ow ell
Ġan ew
Ġrep ay
Ġmin er
ĠDav y
Ġincess ant
Ġadequ ate
f arther
or ie
ie ft
ag ram
Ġind istinct
Ġhum iliation
Ġdistur bing
Ġproject ed
ordin arily
ĠM it
Ġheap ed
Ġrecollect ions
Ġrepl ies
Ġsc ope
ĠBert ha
Ġrhy th
Ġp iles
Ġsc our
Ġcomp ose
Ġins ight
mil itary
Ġrefresh ment
Ġsimult aneously
Ġdial ogue
F ig
t all
Ġv otes
spect or
Ġquarrel s
Ġaffl iction
en burg
Ġv owed
Ġrel ics
ĠMar mad
co ats
ĠĠĠĠĠĠĠĠĠĠĠĠĠĠĠĠĠĠĠĠĠĠĠĠĠĠĠĠĠĠĠĠ ĠĠĠĠ
Ġver ily
aul ted
ĠTur ks
Ġfragr ant
Ġl uminous
Ġasp ir
iss ippi
Ġwatch ful
Ġschool master
Ġpract ise
ĠMarmad uke
C lar
Ġ18 00
const itution
ĠArab ella
Ġscr atch
T en
W ood
ĠS it
Ġshut ting
Sh ould
Ġpilgrim age
Ġv ii
Ġgo ats
Ġtr u
ĠBe au
ais ie
Ġhopeless ly
Ġhaunt s
B ro
H o
ond e
ĠIn j
St reet
sing ular
maid s
represent ed
Ġt enth
Ġg in
ce ased
ĠH ook
ol i
ĠG ard
cl osing
Ġsur vived
conc erning
dri ven
Ġgild ed
at ically
Ġme ll
Ġflour ish
Ġhaw k
Ġmirac ulous
ĠS uff
Ġdown wards
sequ ently
Ġcommun ion
conce ivable
n ative
res a
Did n
st al
ĠT R
Ġse ren
ĠE den
Ġche at
gu er
OU SE
Sax on
c ery
ag u
Ġpo ly
incl ined
ic ity
ĠA B
de b
Ġcomp ound
Ġdeep ened
Ġca ves
Ġpear l
U B
ĠC ook
ves sel
aw ing
Ġconf ided
Ġsil enced
Ġinv ested
ais y
cor rect
ĠWind sor
T ime
st ern
ĠJ ournal
ick ering
Ġbene fic
char ged
Ġflag s
Ed ward
t ired
ĠT ristram
pl ant
atter s
Ġill usion
bec ca
Ġener gies
Ġpersu asion
C ON
i ability
ĠJ en
C APT
ĠM ight
com men
ool og
Ġem inently
!_ "
l ined
ĠCh ron
Ġfoot man
min ister
Ġevent ually
dri ver
ĠFortun ately
O B
V er
he w
he um
on ted
om a
ĠH od
ĠB at
Ġdist ributed
.] ]
Ġpursu its
Ġmat ches
treat ed
tong ue
ĠH IM
Ġr ally
Ġfl utter
Ġ( '
Ġcons ul
Ġsw ollen
Ġcut s
ref lect
Ġdiam eter
ĠÃ ł
S im
S qu
r aces
Ġsub ordinate
Ġdeg ener
ivers al
Ġrum our
Ġratt led
Ã ¶
ĠS ultan
pre par
Do ctor
char acters
Ġexerc ises
anche ster
Ġfre ight
COL N
P L
z as
Ã §
Ġg ifted
Ġsu s
Ġtw inkling
Ġdis content
bl ow
ĠB ald
ist a
Ġri p
Let ter
Ġmurm uring
fin ally
ĠCle mens
Ġdemonstr ation
p air
Ġm asts
arn ed
HA M
Ġaut hent
ĠAcc ordingly
erva ise
ĠPed ro
V ol
in vol
ly mp
ac ock
Ġwhere upon
Ġsign ature
Ġexcept ions
Ġlower ing
Ġlat itude
obed ience
res olved
ious ness
Ġsc out
Ġhum ming
raw ling
Ġinno c
Ġcro ps
Ġbul w
Ġwag ons
W on
Ġs led
Ġar rog
ĠRe uben
Ġcompl aints
Ġloss es
Ġtrad ers
Ġb attered
Ġdis advantage
Ġsent ry
mas ters
ll is
Ġv ows
ĠO ct
Ġsat in
enn es
Ġstuff ed
Ġlust re
Ġpled ged
Î ½
or ms
per y
Ġpres umed
Ġinf ancy
Ġshad y
AM E
Ġrul er
Sm ith
ĠViv ian
ĠB ir
el ius
ru g
hens ive
Ġreconc iled
Ġimprison ed
c od
arn ished
ĠKing dom
Ġrab bits
A ng
m ethod
ĠP ress
Ġab used
ĠD og
ĠAnd re
ru its
Ġunderstand s
ĠQu ite
Ġunf air
cut ta
Sw ift
M ust
ĠS HE
Ġr ides
ĠG ate
be aten
Ġmod ification
Ġclear ness
Ġblaz ed
Ġdomin ions
Ġextingu ished
ong ru
ĠN umber
comp osed
Ġpopular ity
Ġam ateur
Ġdel ir
ĠUn a
never theless
Ġofficial s
ĠPom pe
as ters
Ġnot icing
Ġtr otted
Ġcl atter
Ġdis gr
Ġwant on
ĠBr un
O ff
Ġa ching
ĠP le
comm od
ipp ers
o be
o oth
Ġfor wards
ĠG res
pl ants
Ġprop os
Ġassoci ate
Ġcorrect ed
ĠSu per
Ġeffic ient
. -
ro be
Ġsa e
Ġex terior
ast rous
Ġed itions
Ġprodu ctions
ĠCent ral
: '
C ONT
Ġw ither
Ġwh ims
am en
Ġsha ggy
Ġdri ves
ĠSil as
ascul ine
Ġthe atrical
ri al
Ġman oeuv
Ġinv iting
Ġdef er
Ġmist y
Ġval our
d iff
Ġkn ots
ĠNor a
cont empl
Ex it
Ġreluct ant
compre hensible
A ss
n orm
Ġb enches
an ned
ĠA yl
ol ine
li o
Ġem inence
Ġcr icket
sha pe
Ġgloom ily
g ri
Ġh ull
le af
est im
Ġtr ay
del icate
Ġeconom ic
j ar
Ġv iolet
Ġj oc
au gh
Ġmar sh
sk irts
Ġs ession
Ġc akes
ag re
ĠR ue
Ġsm ith
by ter
Ġcha plain
Ġcast les
Ġmention ing
ĠAm b
Ġsway ing
ĠLIN COLN
on to
ĠC ut
ide as
Ġtrans fer
Ġgrat ification
_ ),
Ã ¤
ĠA ge
Ġspl ash
ĠHon ora
ĠHelen a
Ġfri vol
w ain
Ġbe fallen
ĠD ead
ject ion
I mp
up id
app ointed
Ġdefinite ly
grow th
faith ful
asso ci
Ġgr umbled
Ġfl ows
Ġche mical
Ġcond uctor
Ġsecond ly
Ġship wreck
gener ous
ĠCham ber
ĠRel ig
Ġf owl
ĠS aw
ĠG ale
Ġpro gen
ine x
ĠIrish man
cker ay
Ġm use
ĠB oul
Ġes p
ĠCount y
ĠFort une
Ġgent ry
t ie
ĠT ex
Ġgot ten
list ened
pract ice
Ġinconven ience
ĠBun yan
ĠJ ill
Ġpo ll
Ġgl owed
was n
sm iling
Ġpra ises
yal a
Ġunivers ity
c ultiv
i ards
Ġco ax
Ġlux urious
it ic
hat e
Ġtra versed
M ed
v ast
er ment
Ġsha fts
ip el
Ġund one
ĠWar rington
Ġdisg usted
Ġabsurd ity
Ġgrin ning
Ġscru p
Ġmonkey s
Ġarbit rary
C all
Ġin iquity
fe e
ĠHar riet
Ġsett lers
ĠMagdal en
M ag
w ounded
ee k
Ġpast ure
Ġgro ves
ĠNat han
commun ication
Ġfrig ate
Ġprostr ate
Ġfren zy
a qu
Ġcr ushing
Ġhat ch
del iber
Ġshock ing
B ert
D evil
U ND
s wer
Ġm ates
es to
Ġmus ing
Ġfast en
Ġpeculiar ity
Ġscram bled
Ġdemean our
Ġo live
re ast
Ġch rist
Ġalter ation
Ġhoarse ly
Ġpatriot ism
assist ance
c alling
ot al
Ġsl ide
Ġser mons
In st
Ġblack s
Ġdef ense
appro ached
Ġexception al
Ġduck s
Ġchuck led
Ġtun nel
I EL
in vest
Ġend uring
cont ained
Ġgriev ous
ĠB ast
Ġ' _
Ġmess engers
Ġredu ce
s cience
Ġf ainted
Ġin ve
Ġnot orious
te a
will ingly
Ġsix pence
ĠHar rison
Ġtim idly
ĠOt ter
I r
ant in
ĠF letcher
Ġrid ges
Ġchap ters
G lad
M el
O F
g iv
h om
Ġo y
HA R
ĠLe igh
Ġexpress ly
Be ing
Ġcost s
Ġ9 0
Ġfill s
Ġfasc inated
at hing
ot a
Ġfl uttered
ren n
ĠAt t
Ġprim ary
Ġlur king
Ġjun ior
al ive
Ġass ign
ev ident
ĠCl ark
Ġhabit ation
C y
ir ley
ĠB ret
Ġspir ited
cap ital
âĢĶ âĢĶ
Ġsoft ness
ĠPl ato
mis erable
Ġloc ality
ĠAp ollo
Ġremo val
ing ard
Ġd uration
ĠT imes
qu ality
Ġres olutely
Ġdig ging
ĠWhe never
Ġstan za
Ġadvertis ement
Ġorth odox
B AR
Ġa ust
OR K
Ġattack ing
through out
fact s
vis ions
Ġcop ied
ĠPut nam
ĠW ulf
ff e
---- ,
Ġpenet rate
mot te
S ix
Ġa er
Ġg ull
Ġsu icide
eng ine
Ġforeign ers
educ ated
Ġoppon ent
ĠLyd ia
T Y
Wh ose
new sp
Ġhost ility
Ġpil grims
grad ually
Ġjust ification
Ġfear fully
Ġpar ap
ĠAd rian
oper ation
Ġincons istent
er ic
ore r
Ġres ented
Ġinter rog
Ġsleep s
Ġexcl usive
Ġpron ounce
Ġbenevol ent
i ancy
t ts
st ore
Ġus age
ings by
Ġsee ks
some body
Ġconv ictions
Ġtum ble
exam ination
ĠLam bert
Ġw ail
ĠT roy
ec ed
Ġsh ines
ĠF awn
ĠN eg
be ard
tran sp
ĠChris topher
ĠS weet
Ġper pendicular
up iter
Ġfin ishing
ĠCastle wood
ĠJos h
excl aimed
Ġslipp ers
Ġfinanc ial
m ity
p ure
Ġr anc
av ia
Ġwa its
Ġmin ing
Ġspeech less
ĠAng lo
ĠNell ie
Ġl oses
ĠO cc
Ġpr one
Ġche mist
Ġann ihil
rig ue
ic ates
ĠE ight
Ġmer riment
Ġmach ines
ĠFair y
m ic
ĠS aul
Ġout stretched
empt y
ĠX VIII
Al ice
Ġinsol ence
ĠLib erty
icro sc
g uns
Ġw al
it ud
ĠD um
Ġorgan ized
Ġexec ute
Ġ182 8
Ġbeck oned
M c
m ajor
Ġco als
Ġdev ice
Ġeight eenth
sur rounded
' ?"
s orry
ĠW ade
ĠL yn
Ġag grav
Ġsc ores
Ġfig ured
Ġvast ly
Ġmort g
Ġcrown s
incre ased
P art
is bury
or ters
Ġd ances
Ġre verend
Ġal ighted
Ġqu iver
go ons
Ġ6 5
Ġstro kes
Ġbe ats
Ġcom in
ag reed
Ġmar sha
Ġcoun c
Ġblind ed
Ġscri pt
Ġninet eenth
b ach
ĠL ar
Ġ17 6
ĠRus sell
C O
Ġd iet
ĠA rist
Ġcl ump
Ġsl oping
pri est
Ġ7 5
Ġenter pr
Ġconce ivable
Ġreconc ile
ĠAL L
N Y
g ives
ĠG i
Ġfur t
IT TLE
fall ing
mist ake
disc over
aw a
Ġcord ially
Ġsubs ided
4 3
H ear
Ġth rilled
Ġprop ag
Ġfort ified
Ġsuper ficial
Ġhabit ually
Ġinterpret ation
Ġkn ave
Ġbar rels
Ġphys iolog
Ġpack ing
myster ious
Ġin tegr
Ġat ro
Ġso ap
ap ham
ĠK han
Ġlo an
ĠT yr
art ic
ĠR ap
Ġimpro per
imag ine
W ashington
Ġto e
as gow
Ġper for
ĠShe l
Ġneighb oring
uls ively
y rs
ud ley
iss a
Ġcomp el
pro bable
adv antages
ĠSid ney
ĠYan kee
Ġlag oon
inhabit ants
libert y
ĠE up
Ġpres ervation
Ġbre eches
Ġdream y
Ġrefer ring
Ġplum age
ĠA post
Ġtw it
Ġdisc ord
Ġprem ature
C o
wh oles
ĠU l
Ġrespect fully
Ġprov incial
Ġdisgu ised
inf inite
h ine
id ated
sp ite
Ġlong est
ĠV ienna
Ġspo on
Ġstreng then
Ġquarre lled
A VE
E ver
h oly
Ġghost ly
Ġshr inking
explan ation
Ġconnex ion
S ar
s pl
Ġl ac
Ġst am
ĠP ecksniff
ĠF ulkerson
Ġqu i
aster y
Ġdoubt fully
ĠĠĠĠĠĠĠĠĠĠĠĠĠĠĠĠĠĠĠĠĠĠĠĠĠĠĠĠĠĠĠĠ ĠĠĠĠĠ
Ġscru ples
Ġgl ands
rel ations
ĠX IX
Ġnurs ing
ot ty
st an
im us
Ġst ating
Ġanim ation
ĠRobert s
doubt less
d ouble
Ġn ameless
Ġgo al
ĠO pp
Ġmin i
spec ially
acqu es
Ġinvest ig
Ġvex ation
ĠCont inent
prison er
, âĢĶ
in us
Ġl acked
Ġgr udge
Ġrec ip
gl ig
ray ed
Ġemer gency
Ġcens ure
ĠAnton io
un fortunate
Ġex empl
Ġtriumphant ly
escri bable
Ġhe ave
ce ls
ĠD ow
Ġmem orial
spir ited
Ġcheer fulness
ĠHim self
whe el
Ġfisher men
extreme ly
f itting
f ailed
keep ers
Ġscr atched
f il
Ġr ansom
un iary
Ġaccompany ing
Ġt ense
is a
Ġhe iress
Ġhead ache
Ġfix ing
Ġchoo ses
cab in
Ġinterpre ter
g ained
k ill
y ce
Ġpl aus
uct ive
ĠT art
ĠL ear
ci o
ĠLord ships
Ġexc used
Ġmad man
Ġgrat ify
Ġforeign er
Ġfert ility
dog s
Ġillum inated
Ġimprison ment
Ġcush ions
acr ity
ĠT ol
Ġsha kes
iss ance
ret reat
Ġche ers
king dom
IN T
Ġgre edy
Ġhe v
ran e
Ġhard est
Ġmon op
yl on
yr us
Ġassem bl
d rop
ra it
let t
Ġfair ies
ĠCro s
ĠEs q
f ires
u ating
Ġp oop
ĠB arker
Ġdark ly
Ġdraw ings
dread ful
g al
Ġd ip
im onial
ent e
am ous
ĠH appy
ĠThe e
ĠC os
Ġwork ers
Ġwood ed
Ġsens ibility
Ġvivid ly
fles h
Ġwagg on
at ri
ĠS et
ci ences
Ġgall antry
ĠSee ing
Ġretreat ing
grand father
Ġuncommon ly
g om
l ain
Ġre eds
Ġdec ree
happ en
Ġcolour ing
Ġestim ation
ĠTheod ora
Ġp ens
Ġth o
ĠM ethod
Ġsh ove
ren cy
eng al
Ġbar ge
def ence
Ġclust er
Ġepis ode
Ġb icy
ĠB ack
ĠL ater
Ġsal mon
Ġbra very
Ġveget ables
Ġphant om
C ap
Ġst all
ĠB ruce
ĠN an
Ġbr icks
Ġhard y
Ġrust le
Ġconstitution al
OP E
Ġaccum ulated
i very
Ġto iled
chan ging
Ġconsequ ent
ĠMag azine
ĠOz ma
Ġp inn
ĠM ercy
Ġtw inkle
ex hib
un expected
Ġout law
Ġgr uff
Ġunder gone
ib ald
bb ons
cru el
P re
Ġf ists
ul ace
Ġor ator
ĠL odge
Ġcl asp
Ġcont end
ĠV ers
me al
Ġsw earing
Ġsur rendered
Ġport s
ĠSw itzerland
ĠPo ems
appre ci
ĠCare y
adequ ate
ĠTay lor
_ '
ĠT u
ĠB OY
ment ed
Ġamb assador
exc ited
ĠEve lyn
Ġpatriot ic
ter ms
Ġk icking
Ġgl ared
ĠMar co
Ġsugg ests
Ġwid th
moment s
Ġappeal ing
Le ave
Ġped est
ab und
ĠWh ig
Fran cis
ĠMull er
intellect ual
re comm
oo ps
ĠK or
Ġsat ir
Ġrel ent
app eal
Ġgri pped
Ġmagnific ence
P T
r ine
ĠI T
se ek
ĠC arn
Ġsmooth ly
ĠTest ament
v ior
he ight
ou ri
ing ling
st age
ĠE squ
Ġext ension
St an
V al
in str
ke l
Ġbeg gars
Ġexp anse
pr im
Ġcur ses
ĠUn less
Ġcandid ate
re ply
ĠS ue
ĠH az
Ġsh ifting
un ion
ex ha
ĠLe ave
Ġamount ed
Ġadvers ary
t akes
Ġout break
Ġcan n
ru le
Ġcont ing
ang es
pr int
orm andy
W r
ill ustr
ĠC O
Ġcha os
Ġmo an
Ġsuper b
ming led
Ġign ored
cir cle
Ġtur b
Ġdiff ered
_ ]
ou che
Ġp ork
Ġus hered
con no
Ġcha ff
Ġsle eves
Ġquick ened
Ġtor ches
ĠPruss ia
C amp
n is
t ax
Ġli b
Ġconf inement
add ressed
glass es
t ale
Ġhe aved
Ġst ip
ĠS ign
Ġar ched
It s
Ġmus cular
ĠNat ural
ĠRegin ald
Ġd ad
ĠM olly
gg ie
Ġsil very
Ġda is
ĠPhil adelphia
Ġdam sel
wa ited
Ġbru ised
re ng
Ġh ushed
ĠG ener
part ly
comm ission
sight ed
Ġpond ered
ĠClar ke
R ome
p owers
Ġc arts
al ter
pr ide
P ART
Ġf ade
ad mitted
and om
ĠP i
ĠN ote
Ġch ina
Ġappro bation
conf ident
Ġow es
Ġaspect s
Ġconstit u
Ġfeud al
ĠAcad emy
Ġv ines
ĠL ADY
Ġpe eping
Ġsl iding
St and
does n
ĠCur tis
g ression
w elcome
Ġhe ath
Ġso fter
op h
Ġbr utes
ĠK il
Ġmin ers
des cription
Ġsigh s
const ant
accept ed
b rave
s ized
Ġ /
Ġc ocked
Ġbe ak
Ġapp alling
pro pri
dis posed
ann i
subject s
Ġwip ing
he im
ĠH erc
are crow
Ġbl ot
Ġsc iences
ach use
thr ust
R alph
ĠS undays
bl ers
Ġfl irt
ang ry
Ġcar bon
Ġattent ively
H y
I Z
en emies
um er
Ġeng aging
cloud s
am use
un ches
Ġun equal
Ġsl ate
get t
den ing
ING S
Ġintim ated
Ġdrow sy
ing en
Ġbe re
Ġdis pleased
Ġsn akes
Ġtro p
abs ence
Ġpred omin
l at
ĠBl oom
Ġplan ks
ĠCle opatra
Ġprint ing
ĠMAR CH
Ġb ishops
ĠT reat
ĠH OW
ci ples
appro aching
Ġimprove ments
haw k
Ġundist urbed
8 5
Ġstr ata
EN S
Ġgrace fully
ĠSha w
sw ift
Ġfil thy
contr ary
Sha kespeare
Ġsquad ron
l ip
he at
Ġo be
Ġd anc
Ġar ises
Ġrem inisc
Ġwhere on
ograp her
Ġtort ured
Ġcraw ling
Ġsurv iv
S everal
t aught
Ġout burst
ci us
ex plain
Ġfore fathers
Ġmed itation
Ġsettle ments
ĠIre ne
More over
Ġreb uke
Ġperf ume
M at
le ap
Ġy oke
Ġrem nant
Ġeffect ual
Ġvol untary
Ġaccommod ation
ter min
Ġsec uring
burn ing
Ġmat ron
Ġtow ering
Ġferoc ious
splend id
ĠM au
Ġr ites
el esc
read er
ĠAven ue
Ġin express
ĠW E
un ct
su bs
ĠBoy s
desp air
doll ars
o ble
ĠLord ship
uck y
Ġow l
Ġb ast
se vent
Ġbl est
Ġover take
Ġtop ics
conf usion
Ġsavage ly
Ġp aternal
ĠM illy
ĠL or
gr in
Ġide als
arr ant
Ġweek ly
Ġstiff ly
Ġcoinc idence
Ġsu pers
ĠB us
ps y
ĠAm brose
achuse tts
R ead
x x
Ġthe r
ĠT ran
Ġpe bbles
Ġpe rempt
Ġaccident ally
Ġcontempt uous
Ġthirst y
k ens
t ight
Ġm ig
Ġn ests
ĠS in
ĠE z
Ġtri fles
IT ION
Ġbid s
Ġconsult ing
Ġd ow
ol ence
Ġchan nels
Ġadm its
Ġgri zz
produ ce
Ġprecaut ions
giv ings
we eks
Ġpres umption
Ġhorse man
sha me
Ġconvers ion
fam ous
Ġscru ple
ATION S
Ġdoub ting
ĠEff ingham
R uss
it i
Ġg iddy
ĠL in
ĠE t
Ġen closure
get ically
ĠAl ways
Ġtrans mitted
Ġsick ly
ĠSw an
ĠDan es
Ġwist fully
Ġin eff
ĠC ly
ĠR oland
Ġfore castle
Ġdet ain
Ġemb od
Ġstout ly
I B
ĠB AR
ĠP erson
ID E
p ublished
fe atures
su es
Ġreckon ing
concl usion
Ġvale t
Ġr ung
ick ly
Ġpre val
ĠTh ought
bur ied
ĠAny how
b oots
p owered
ly sses
az ette
Ġmart ial
Ġsculpt or
Ġdun geon
qu it
Ġele phants
OU ND
circumst ance
Ġlegend s
ĠShad ow
K now
Ġhe aving
ore nt
Ġall ude
Ġwill ow
Ġsy n
AM P
Ġprocl amation
enet rable
Acc ordingly
event s
Î ¿
Ġn ymph
Ġst ab
il fully
Ġr andom
Ġdisc red
cap able
in ions
Ġs ou
Ġg or
Ġmy ri
Ġwould st
Ġbeg u
Ġtall er
friend ship
Ind ians
Ġpuzz le
Ġavo iding
Ġcho ir
Ġc ot
Ġas under
Ġsa un
Ġde gradation
av ier
sh oes
Ġeng ross
Ġhot ly
des ired
ĠGr ad
Ġgod ly
Ġinvol untarily
Ġmusk ets
whis pered
Ġobstin acy
Ġc um
ĠD ie
Ġhand ling
Ġcontin u
ĠPr ice
Ġins erted
Ġgrow l
Ġge ological
Ġnois elessly
Ġplung ing
D am
c hat
f s
un known
Ġ16 0
Ġkingdom s
Ġassail ants
Ġdescript ions
8 8
: "
M ir
ĠT ory
ill ot
ĠF r
ĠF ew
Ġ3 00
Ġcap it
IL DER
othe a
earth ly
Ġb og
im med
Ġst ung
Ġso othe
Ġhead quarters
ĠMed iterranean
Ġsovereign s
Ġciv ility
ĠMow bray
c ounter
Î ±
ĠS old
ĠH ung
ĠB attle
Ġsc ow
Ġgl impses
Ġprof ane
Ġbound less
ĠPol it
fat ig
d ignity
o iled
ant i
Ġoblig ations
Ġpe w
Ġmo le
ĠSc arecrow
sy lvan
Ġmagn itude
Ġhom estead
gom ery
c over
Ġkind er
gl oom
Pro fessor
ĠYe a
Ġbrid ges
Ġard our
Ġextravag ance
ĠWhar ton
as myth
Ġad jacent
18 0
return ing
ĠMc C
Ġa fresh
th under
Ġli ly
ĠD a
Ġper ils
Ġhair y
Ġclass ic
hem ence
F ort
d il
m art
im prove
ĠC ris
Ġsc ales
ĠU m
Ġglad ness
Ġshame ful
Ġlibert ies
wa ite
Ġgrap es
D ec
G old
K ER
ĠE sk
ĠO LD
com plex
Ġste ering
Ġorder ing
Ġrul ing
Ġgam bling
as sem
ĠD ane
Ġind isc
Ġche ery
Ġsqu e
Ġpost erity
ĠWest on
ĠThom pson
Ġfold ing
Ġhistor ian
ĠM use
sh own
und ers
Ġsub ur
des ign
Ġep ic
Ġjer k
at ible
ĠP owers
ĠF ern
ip her
Ġmot to
Ġthrust ing
Ġperform ing
Ġsolic itude
Ġtroop ers
ĠSab in
H ast
g over
Ġ idly
end ix
av as
Ġmar ine
Ġnecess ities
mel ancholy
ĠCanad ian
F air
on ge
ish ness
wor st
Ġiv y
d ying
l amp
le vel
ne arer
Ġcold ness
Ġthro ats
Ġ12 0
love ly
Ġast ern
ĠTim othy
ĠM ord
Ġtend ing
tw ice
Ġgar b
Ġimpl ored
Ġdegr aded
m ary
st ool
Ġwh ipped
ĠG R
ĠR ic
get s
Ġwing ed
ĠCart ha
B ab
ĠK im
rem ains
ĠSp ec
Ġmag istrates
Ġmed dle
spirit ual
disapp ointment
ĠOri ental
ĠF ors
sp ired
Ġgl iding
Ġrec ess
Ġdesert s
interest s
yl um
Bet ween
Sept ember
Ġf uel
Ġl udicrous
ĠT all
ĠA st
un n
ĠGl enc
W ild
Ġb ough
ill o
ort ment
su pper
pre jud
OU GH
Ġconce it
conv inced
Ġthe ology
Ġr owing
Ġfr owning
Ġpat ted
aum ont
se ts
ĠB apt
Ġwa ver
att ended
ĠPr oud
Ġsubst ances
Ġho isted
Ġlan es
ĠAngel a
Ġneut ral
s har
Ġfor ts
Ġag gress
Ġfl ashes
oss al
aw ares
Ġchar itable
Ġhel ps
Ġfight s
jo in
ĠJew ish
Ġcompre hension
Ġtrades man
Ġsecl usion
inno cent
Ġveter an
H im
ter a
od ed
Ġsle igh
ĠĠĠĠĠĠĠĠĠĠĠĠĠĠĠĠĠĠĠĠĠĠĠĠĠĠĠĠĠĠĠĠ ĠĠĠĠĠĠ
Ġbeast ly
ĠST E
Ġdiff ers
P ot
es us
Ġv o
are th
Ġqu ivered
man ces
Ġimp ossibility
Ġdeal ings
ĠMay be
por aries
ĠHon ourable
ĠB old
Ġex alt
Ġdev oured
ĠQu est
ĠGu ards
ĠCreat or
Ġtechn ical
b ent
o ak
Ġin asmuch
Ġpl ane
co ff
Ġtur ret
Ġimpl ies
Ġearthqu ake
a an
z er
ad ox
Ġli ver
Ġag greg
ĠNo el
arrow s
IC AL
Ġcontrad iction
. âĢĶ
ha bits
ar ic
Ġwe el
ĠBar rington
Ġoccup ations
Every body
Ġsket ches
S outh
st uff
ac o
ĠC ivil
ĠC athedral
res cent
Ġab ject
ass ion
Ġim minent
so bel
Ġimp udence
sc rup
ĠCl ose
Ġenc amped
ĠFour th
Ġslipp ery
ĠT od
em er
Ġman e
Ġpi geons
fact or
ĠJer sey
Ġforci bly
F ortun
ear l
Ġac he
Ġhistor ic
direct ed
l oud
ĠT us
ĠS ed
qu in
ĠL och
ĠG ot
Ġconf ine
Ġexpect s
Ġfath oms
Ġank le
Ġsuperflu ous
S us
,' "
Ġfr inge
Ġobst acles
Ġafore said
P P
h op
Ġa float
Ġd orm
ĠN elly
Ġrec esses
gr ine
Ġappro aches
awn y
c ool
s man
Ġb unk
Ġr aged
ĠC aval
ĠL ogan
ref used
Ġunlike ly
Spe ak
l oyal
Ġb iting
ĠP AR
ĠR ig
ĠCar roll
ĠSam pson
obt ained
Ġrefres hed
G reen
R oman
Ġth igh
Ġstr aining
ph in
ĠB uff
Ġr ails
ons hire
Ġtrans formed
. :
O LE
nd ar
ĠP oy
ct ive
ĠF urn
rem ont
Ġadm itting
Ġplay ers
ĠWell ington
olog ist
obser vation
mur der
r ations
Ġb inding
ud ged
Ġcomp ensation
Ġpower less
Ġdri ll
co e
Ġneck lace
fle ction
Ġz ealous
Ġrecoll ected
Ġtick ets
Ġe cl
ĠR en
ON S
Ġdet ailed
AB LE
Ġrequis ite
R et
Ġan at
Ġim plicit
ull en
Ġreg ained
gen ial
ĠCorn wall
prot ection
Ġau ction
bod ies
Ġb ung
itt ance
Ġdown right
Ġacc ents
Ġround s
Ġsuff iced
Ġyear ning
Ġsymp athis
Ġpursu ers
Ġrelation ship
ĠCal cutta
Ġgra pp
ent rance
ĠP oo
Ġpun ch
ĠDid n
Ġcorrect ly
Ġscorn ful
ĠMo hammed
Ġappe als
t ower
Ġto ys
ro lling
Ġcar ing
Ġsystem s
Ġlav a
OR TH
ĠFl int
Ġshru bs
Ġcho king
Ġaby ss
H ullo
if erous
th irst
ĠG ervaise
Ġpart icip
Ġcr ouching
Ġinj ure
Ġsym met
Ġced ar
l ass
Ġdo le
Ġbo on
ĠMiss issippi
ley s
Ġjud icious
Ġrad iance
ipel ago
at i
Ġbe lly
ur is
the tic
Ġun accountable
hy p
Ġspark led
whe never
Ġa qu
Ġst ol
ĠW izard
Ġab reast
ĠF in
Ġenqu ired
Ġbesie ged
n ie
t an
an gel
ĠA yala
ĠS um
ĠS upp
Ġund o
Ġappl aud
Ġbra zen
tran sl
occup ation
Ġapprehens ions
Ġencamp ment
Ġp ow
ĠT rave
ness es
St ates
Ġgrand son
Ġer a
Ġpest il
Ġw int
Ġm asculine
on ation
ĠC ord
ind ers
ect ions
ĠF arewell
Ġdr ums
col or
imm ense
N OW
h unter
Ġp int
Ġn un
han g
op l
ag les
Ġdis contented
ĠRow land
Ġjer ked
ĠChild ren
Ġadvoc ate
Ġgrate fully
L IN
W all
u pt
id ation
Ġout lines
Ġgl en
ling ton
Ġnum bered
Ġconst itute
Ġdest ructive
Ġfanc iful
Ġengage ments
Ġtranqu illity
Ġawaken ing
Ġconscient ious
Ġch ieft
Ġhol iness
ĠChe valier
Ġdawn ed
ĠMer rick
ĠChan nel
Ġeccles iastical
l one
n ose
p ity
Ġp anted
ro de
Ġv ass
Ġpre cept
Ġexp ans
ĠKat harine
F riend
I b
ĠC icely
ĠE h
ĠR ail
per pet
Ġdis astrous
Ġch ickens
inc hes
Ġcalm ness
Ġrain y
ĠEx cept
ĠLow ell
Ġfaire st
m ut
Ġp au
em ic
ard o
Ġpro ff
Ġind ustrious
close ly
OND ON
Ġalleg iance
_ !"
Ġp as
ĠT rent
ĠS leep
em otion
ĠP smith
Ġtw in
ins ide
Ġant i
Ġbri be
M ajesty
ĠN O
og ne
ider ot
Ġprop hes
Ġwild est
Ġdeliber ation
Ġhoriz ont
conce aled
Ġsangu ine
at res
Ġv oted
op ard
umb ent
ĠSha kspeare
prison ers
ĠHan over
re ality
Ġb athed
Ġh overing
ith met
ĠL ost
Ġpers istent
Ġstre ak
Ġstru ct
Ġdefend ers
Ġscrut iny
Ġp acing
ĠH op
ĠHe ath
Ġhand ing
Ġmag azines
rif le
Ġgar ret
Ġshr unk
Ġt ug
on i
Ġdis closed
Ġgl ories
ĠTh orn
br and
Ġel astic
Ġpret ensions
Ġ4 2
Ġexquisite ly
Ġpatron age
ĠPall iser
Ġfran cs
antin ople
r iding
ĠW AR
ĠD ad
sh ook
cle arly
Ġlist s
Ġmor sel
Ġstro ll
ocr acy
Ġflour ishing
pop ulation
delight ful
A fric
l oose
ing es
ĠB ou
Ġsh ipping
Ġint ricate
ĠCh uck
cons idering
Ġlab oured
Ġaddress es
post s
appro pri
Ġimmort ality
E le
p ie
he res
Ġhe ather
ĠB offin
ĠL inda
ĠR ey
te eth
ĠSt ri
Ġint u
Ġsil ken
Ġaccept able
Ġpi geon
Ar t
Ġh rs
Ġr ack
to s
Ġli very
Ġwor ms
mer c
cei ves
ev al
sl ave
Ġadvent urous
Ġbride groom
Ġmanifest ly
Ġprint s
ĠA ut
Ġcon sole
Ġsto red
Ġmad ly
fig ured
ar led
Ġl ashed
Ġcur ves
Ġdisc ours
Ġcal f
olog ists
Ġpolit icians
stead ily
Ġhelpless ly
Ġcontro lled
conn ection
âĢĲ âĢĲ
Ġn ursed
ĠT ull
ĠA ber
ĠH ood
Ġen mity
ĠIs abella
Ġjud gments
Ġlaugh s
ĠRe becca
Ġstraight way
Ġresol utions
Ġmel ting
RO D
Ġaver ted
Ġinex plicable
Ġw ipe
ĠC air
ĠP ad
ĠV on
Ġdef ending
Ġweak ened
Ġbold ness
ĠFur ther
Ġsu lt
Ġqu ay
Ġmon uments
Ġmist s
Ġpet tic
oop ing
Ġanch ored
ĠMel motte
cas m
ĠAustr alian
ĠChil tern
Ġexpend iture
ic ative
id an
Ġy ells
ay e
Ġwe b
Ġse als
ĠD ro
ine v
Ġ_ (
inter view
Ġfaint est
OL L
mo il
fav or
Ġdepos it
Ġexhaust ion
Scot land
W ot
and o
ĠA S
ĠC ald
Ġsm othered
Ġbo om
Ġsw ine
Ġrel inqu
ĠGod win
Ġco venant
Ġinter cept
Ġexpl icit
Ġpict ured
ann el
ĠCath olics
Ġfragr ance
Ġtires ome
ou cester
ĠL oc
ure au
ord e
Ġtempt ations
Ġdiscour aged
fig ures
list ening
ĠJean ne
Ġtrump ets
Ġt ints
Ġde uce
Ġimp udent
Ġcru ise
ĠLuc illa
Ġbelief s
Ġacknowled gment
pher ds
Ġancest or
anx iety
ĠHil ary
Ġr uth
ĠP rest
Ġfore going
Ġmod er
bur nt
sa ved
introdu ced
Ġh ides
Ġfor bade
Ġpre face
ave nder
Ġdec ency
ger ald
add ition
Ġrang es
Ġillustr ate
ĠMort imer
Ġdefect s
ĠBrad ley
I US
R os
Ġd it
as leep
Ġg em
ĠA M
Ġtrans ition
Ġhandsome ly
AB EL
contr ad
Ġglit ter
Ġdemocr atic
M ax
Ġin forms
ĠS ignor
ough by
Ġri gging
Ġpat ients
Ġtem por
Ġpool s
Ġastr on
Ġglist ening
ĠJosh ua
. ).
G ER
on ne
Ġgr aciously
Ġhon ored
Ġfur s
Mad am
ĠBert ie
Ġrend ers
ĠTha ckeray
CONT ENTS
W ELL
Ġw retches
ĠO st
Ġimp ending
ĠQ U
arch it
sur round
Ġtest ify
........ ........
Ġpersp ective
Ġdilig ence
l ux
Ï Ħ
if red
ĠH av
ĠRe ason
ĠAlb any
Ġcel estial
onym ous
ĠProphe t
F riedrich
_ ?
l aughter
Ġin effect
ĠS ep
ĠF isher
Ġside ways
Ġprom otion
Ġtend s
ĠCha uvelin
fif teen
ĠBarn es
Ġbapt ism
' ,"
C orn
e ating
l ake
ly an
Ġdes iring
Ġac ad
ĠPr im
Ġbound ary
ĠMad onna
contin ue
dest ruction
wholes ome
I ER
S car
p ainted
ha y
oo led
be it
Ġdis interested
Ġfoll ies
Ġcur ling
pro sper
Ġfear less
min able
Ġshut ters
Ġharsh ly
Ġenchan t
Ġthorn s
Ġoppon ents
c ow
Ġse wing
ĠE ND
Ġam end
Ġhard ships
Ġexcess ively
_.-- [
Ġnig ger
Ġtom bs
Ġa ims
Ġb amb
Ġh oss
Ġst umbling
ul um
el and
Ġun rest
ew ell
Ġaud acity
Ġdiss olved
Ġrul ers
Ġreef s
Ġwander ings
Ġponder ous
guer ite
Ġs ine
ĠP el
ĠD ing
Ġfl or
dis covery
ris y
Ġfurn ace
ĠAle c
G en
Ġd urst
ĠN av
Ġregard less
Ġspeed y
Ġcirc ulation
ĠVal ent
ĠAmy as
en able
Ġf able
ĠF arm
Ġbo asted
Ġmodest ly
Cour t
ĠWinc hester
O ctober
W AY
k itchen
ir able
ist on
Ġtr uck
Ġro oted
Ġnight mare
Ġstre amed
HA N
Ġsn atch
Ġscorn fully
Hel en
Ġstren uous
commen ced
R ollo
c ig
p ressed
Ġby e
ĠW right
ĠR andy
ĠO ften
tr ad
Ġfellow ship
Ġexcl uded
Ġce as
respect able
De ath
Ġwist ful
Ġloos ened
f lying
as hamed
Ġde y
tr oubles
Ġstay s
Ġball oon
Ġorgan isation
Ġupper most
lay er
Ġexert ed
ĠColl ins
Ġbloom ing
Ġdyn am
Ġadvis able
ĠC ary
um ley
ĠN ancy
Ġgr ammar
sh owing
Ġinc ur
Ġdro ll
Ġap es
character istic
Ġinsp ire
Ġunw onted
develop ment
Ġb ou
Ġh ues
Ġr heum
ĠD aisy
Ġgo nd
ĠK ipps
Ġind ication
Ġswe eter
St ate
ĠRe verend
ĠOs borne
Ġpoo rer
Ġ }
im mediate
ĠP hys
And rew
Ġind ustrial
gr acious
Ġperson ages
Ġdirect ing
Ġdesp ot
Ġthick er
Ġcalc ulation
repro ach
Ġfelic ity
ĠM am
ĠD ed
Ġcl os
Ġstr ide
Ġbus ily
ĠGl asgow
ĠSh irley
Ġabstr acted
escap ed
Ġbol ted
outhe d
b ug
l oe
w aters
Ġw ires
Ġb aw
ĠTh ur
Ġdeath s
Ġdev ices
ĠRe gent
ĠCon f
Ġgall oping
Ġdim ensions
supp orted
gold en
phys ical
D ar
R eg
f ro
Ġt apped
to fore
Ġgr ains
Ġchat tering
Ġoft ener
________ ________
Ġembro idered
ter ror
ĠS ure
Ġres ulted
Ġass ailed
Ġgall ows
Span ish
Ġk ra
ĠP sal
Ġj am
Ġgi ants
ĠPro f
Ġbuck et
Ġarray ed
Ġsep ulch
P sa
g ay
s cientific
Ġw ield
Ġwe ed
Ġun moved
Ġover taken
aff old
rid ic
adv ice
ĠAgain st
9 5
G reg
S n
Ġpart ake
ĠMiss ion
Ġarri ves
Ġphil anthrop
Ġones elf
recogn ized
establish ment
A side
R o
nd on
ld on
ur rence
ĠC AN
ĠP oll
Ġdis sent
ens ible
br others
Ġblack ened
ĠBl anc
Ġty p
Ġspark s
utter ly
ĠBook s
Ġc av
Ġin ference
ce lebr
ĠC reek
ra ps
od a
ĠE re
end om
Ġcomp aring
pro posed
ĠNo ah
Ġexpress es
Ġinward ly
Ġber ries
Ġtram pled
J ean
Ġp avilion
ĠW ork
os is
Ġ5 6
Ġtro oper
Ġprev ailing
ĠXX I
dri ve
arrange ment
Ġpamph let
pp y
own er
Ġbar ber
Ġcommun ications
lo ad
stri king
Ġanalog ous
ĠServ ice
b ree
Ġg asping
il ated
Ġmar ches
ĠPl ant
Ġfac ility
ĠMal ay
Ġantagon ist
c atch
re asons
ĠM anchester
oll s
ĠÂ ·
Ġprofess ors
Ġstragg ling
h i
s ons
ar rival
Ġh uddled
Ġre appeared
Ġover coat
ub bs
Ġcor poral
Ġund es
Ġmad ame
Ġretire ment
ĠRand olph
Ġf erry
Ġst ems
ĠF ear
Ġgall eries
Ġpec uniary
Ġanticip ation
Ġprophe ts
parent s
Ġw izard
ser ved
Ġinc ongru
sw ald
Ġmult ip
Ġcard inal
Ġintr ud
a illes
ha ms
ut ors
ut eness
ĠS now
Ġcon ced
ĠL ingard
Ġtw igs
Ġmean est
rit z
Ġshel ves
ĠPri est
fair ly
Ġferoc ity
Ġbir ch
ĠJ ock
ath olic
St ay
Ġsimilar ly
Ġvolcan ic
M a
p il
Ġo o
Ġdo se
ĠF landers
Ġpri zes
oc ity
Ġpar ch
Ġillustr ations
ĠM ig
ĠB od
Ġcon ceptions
Ġv ouch
ĠP retty
Ġsl ugg
Ġlab orious
Ġbewild erment
mem bers
pleas antly
ou x
Ġb ait
all ic
urn ing
Ġen large
Ġmar s
pr ince
any where
Ġconcl uding
Ġfond ness
del ighted
Ġinvol ve
ĠLu fton
ĠDu ane
Ġimpert inent
R u
Ġg ems
ĠO lymp
Ġen cir
Ġcur l
AN CE
Ġcover t
J ose
W YN
f reedom
Ġm aternal
ĠP ink
ob s
dis position
Ġconquer or
Ġpy ram
: âĢĶ
D ay
ch osen
ĠO NE
pl ays
row ing
con ception
Ġcar n
stand s
Ġamuse ments
Ġinvol untary
sign ific
health y
thro at
sylvan ia
b irth
Ġm ason
ĠR ivers
Ġfl own
ĠY ears
ĠRe f
wr ought
Ġap olo
Ġming le
g led
w ants
Ġp aw
ĠH ills
Ġcl ang
Ġcont rive
ĠCar ter
Ġtemper ate
Ġsigh ing
Ġpenet rating
Ġprett iest
Ġvap our
hid den
I AL
Ġd iction
ĠB engal
ĠW ent
ord an
be at
Ġfl inging
aston ishment
Ġruff ian
Ġg inger
ĠN ormandy
Ġrec re
ox y
Ġrepresent atives
fle et
Ġbreast s
Wal ter
Ġsyll able
R IS
be ams
ĠIn spector
Ġod our
Ġtermin ated
Ġvag ab
B right
ĠS andy
ĠU nd
iol a
Ġinj uries
Ġbid den
consequ ences
ĠBra z
ĠGriff ith
Ġdisgr aced
J ud
s ought
al us
ĠS ummer
ul p
qu est
Ġv it
ĠR ing
ĠChrist ie
pass engers
ĠPal mer
ĠJud ith
pal ace
ĠSto ck
Ġoppress ive
AN C
Ġdecl ining
Ġdemand ing
Ġbal anced
Ġintim ately
super st
Ġxx v
magn ificent
C astle
d ance
Ġp ensive
hat h
Ġar chers
pl us
rest r
Ġri bbons
Ġmult itudes
arth y
Ġrasc als
s an
Ġm ice
ĠG as
ĠG ent
ĠG ay
Ġguard ians
ĠGold smith
Ġhed ges
ignor ant
throw ing
norm al
ĠA way
Ġso othed
Ġpro gram
man aged
Ġlab ouring
Ġdepend ence
cond em
Go ing
ĠJeff erson
Ġanalog y
suspic ion
Ġs or
Ġto ol
Ġdo in
ĠE lect
Cl are
UN T
Ã Ĩ
Î ¹
ĠS harp
Ġdr owning
Ġ5 7
Ġbank rupt
ĠWar wick
hig hest
neighbour hood
M att
ĠS ter
Ġsh irts
Ġint ri
cha p
alog ue
Ġthread s
Ġperman ently
Ġspin ning
R es
Ġs i
ĠT ale
ĠF os
Ġdraw ers
Ġrock ing
Ġwhis key
set ting
AC T
imag in
r ational
Ġt ang
ro spect
res olution
Ġen cum
Ġmil itia
Ġrain bow
Ġgro ans
ĠDep artment
Ġblasp he
P ol
n in
n ock
Ġs inks
Ġf ust
Ġdream t
hot el
Ġmonot ony
ĠMiddle ton
c ly
e ase
Ġdis com
for give
Ġimp elled
Ġsw arm
Ġwind ward
Ġden ying
rec ord
Ġhal ting
Ġcontempl ate
Ġrent s
ĠSax ons
Ġanticip ate
Ġfest ival
Ġv itality
Ġbene fits
char ming
ĠEgypt ians
ĠKe ats
ĠVenet ia
fool ish
B ring
E arly
o ves
Ġ1 10
Ġsupp ress
Ġwar mer
ĠSm oke
rog en
ĠBol ton
V en
s inging
Ġw itty
Ġb a
ĠD over
ner ing
att ent
pre vious
Ġbright est
ees e
Ġtorment ed
Ġconfer red
Ġpropos als
G entlemen
H um
Ġli ed
Ġun ique
Ġsc ur
Ġpa wn
some how
Ġimpro ving
object s
qual ities
c rew
w retched
Ġc ode
at ics
ra pped
Ġgr ind
ans as
ĠShe p
Ġdef ine
Ġinf amous
Ġlif eless
Ġmild ly
grace ful
l ocks
r othed
ot to
ĠN ear
ĠMar ion
bed s
gen ius
Ġemotion al
T er
Ġbe fall
Ġsp un
ĠL ess
Ġhead ing
rest rial
Ġdec oration
ĠTh r
sc attered
back ed
add ress
ĠSte ele
Ġbisc uit
ĠFam ily
Ġst ocks
ĠS har
Ġsu ite
Ġpl aster
Ġtw ins
